<unk>	0
<s>	0
</s>	0
▁t	-0
▁a	-1
he	-2
in	-3
on	-4
re	-5
▁the	-6
at	-7
an	-8
en	-9
▁s	-10
er	-11
▁o	-12
is	-13
▁w	-14
▁c	-15
it	-16
or	-17
ion	-18
es	-19
ar	-20
▁p	-21
▁b	-22
al	-23
▁of	-24
▁f	-25
▁in	-26
▁d	-27
▁an	-28
▁to	-29
ro	-30
▁m	-31
ed	-32
ing	-33
▁and	-34
ic	-35
ou	-36
ent	-37
▁th	-38
om	-39
le	-40
as	-41
▁n	-42
▁h	-43
▁re	-44
il	-45
ve	-46
ct	-47
▁T	-48
ation	-49
st	-50
▁be	-51
▁e	-52
▁I	-53
▁C	-54
▁is	-55
▁E	-56
ment	-57
un	-58
▁M	-59
ly	-60
▁g	-61
▁for	-62
▁that	-63
ut	-64
id	-65
im	-66
▁l	-67
pe	-68
ur	-69
▁S	-70
▁A	-71
▁on	-72
ot	-73
ce	-74
▁y	-75
▁pro	-76
▁k	-77
se	-78
ra	-79
▁da	-80
ol	-81
▁con	-82
et	-83
ul	-84
▁P	-85
ay	-86
ig	-87
ir	-88
▁The	-89
ort	-90
ver	-91
omm	-92
▁we	-93
ad	-94
ak	-95
▁wh	-96
▁al	-97
ow	-98
am	-99
▁de	-100
res	-101
us	-102
▁it	-103
ith	-104
▁as	-105
▁su	-106
ab	-107
uro	-108
ch	-109
ill	-110
ies	-111
ld	-112
▁st	-113
▁with	-114
▁are	-115
ate	-116
ter	-117
▁Euro	-118
▁ne	-119
oun	-120
um	-121
ity	-122
▁Europe	-123
sion	-124
ci	-125
port	-126
▁2	-127
▁B	-128
op	-129
▁ha	-130
▁1	-131
em	-132
▁W	-133
ive	-134
▁this	-135
▁Comm	-136
her	-137
▁sh	-138
os	-139
▁not	-140
ould	-141
ore	-142
▁F	-143
▁by	-144
▁r	-145
ess	-146
ers	-147
▁ex	-148
▁have	-149
if	-150
▁will	-151
ant	-152
▁.	-153
ain	-154
ge	-155
ect	-156
▁European	-157
▁(	-158
▁D	-159
ission	-160
est	-161
ust	-162
▁G	-163
qu	-164
iv	-165
ia	-166
ich	-167
art	-168
▁en	-169
and	-170
▁U	-171
▁H	-172
ist	-173
▁im	-174
ik	-175
od	-176
▁Commission	-177
▁R	-178
▁v	-179
▁which	-180
igh	-181
▁com	-182
ac	-183
▁,	-184
ure	-185
ib	-186
▁has	-187
our	-188
▁at	-189
▁or	-190
wa	-191
ud	-192
ions	-193
00	-194
el	-195
und	-196
pp	-197
▁In	-198
▁le	-199
tr	-200
ber	-201
ren	-202
▁L	-203
▁he	-204
ff	-205
▁N	-206
rom	-207
▁-	-208
▁res	-209
▁St	-210
▁ag	-211
▁all	-212
▁ab	-213
▁ad	-214
▁K	-215
th	-216
▁J	-217
ans	-218
ie	-219
▁j	-220
▁se	-221
ard	-222
so	-223
end	-224
▁wor	-225
▁from	-226
ight	-227
ther	-228
▁so	-229
ai	-230
▁me	-231
te	-232
▁EU	-233
up	-234
iy	-235
all	-236
ates	-237
ations	-238
con	-239
vel	-240
▁can	-241
ance	-242
oc	-243
▁part	-244
▁O	-245
▁ya	-246
▁Mr	-247
▁pol	-248
▁z	-249
▁am	-250
▁was	-251
cial	-252
ark	-253
du	-254
▁Th	-255
▁Un	-256
ake	-257
ical	-258
pl	-259
ult	-260
▁reg	-261
ree	-262
▁also	-263
▁ac	-264
▁do	-265
ments	-266
ary	-267
▁ta	-268
ub	-269
ire	-270
▁coun	-271
ident	-272
able	-273
ember	-274
▁would	-275
▁go	-276
▁ch	-277
▁sa	-278
ome	-279
act	-280
▁inc	-281
▁co	-282
ll	-283
▁countr	-284
▁its	-285
▁It	-286
▁their	-287
ag	-288
ial	-289
for	-290
▁tr	-291
ple	-292
▁more	-293
▁should	-294
pport	-295
▁na	-296
ue	-297
▁our	-298
▁there	-299
▁Pres	-300
ous	-301
cess	-302
out	-303
reat	-304
ational	-305
use	-306
▁you	-307
ka	-308
cil	-309
ug	-310
hen	-311
▁app	-312
▁un	-313
▁been	-314
pt	-315
ah	-316
▁Coun	-317
ong	-318
ice	-319
▁Member	-320
ear	-321
ition	-322
▁Y	-323
▁but	-324
ose	-325
very	-326
▁cont	-327
pos	-328
iz	-329
tern	-330
▁comm	-331
ction	-332
▁dis	-333
▁We	-334
og	-335
ide	-336
▁pl	-337
lic	-338
▁Council	-339
ine	-340
▁pr	-341
▁man	-342
▁int	-343
▁States	-344
conom	-345
ast	-346
ob	-347
per	-348
form	-349
red	-350
▁us	-351
ities	-352
▁cons	-353
ost	-354
ime	-355
ated	-356
▁must	-357
ress	-358
velop	-359
▁3	-360
▁qu	-361
▁fin	-362
ish	-363
arl	-364
▁need	-365
▁Union	-366
ram	-367
▁President	-368
▁work	-369
▁other	-370
uma	-371
ign	-372
▁200	-373
ok	-374
▁20	-375
▁they	-376
ces	-377
ject	-378
one	-379
de	-380
ace	-381
ence	-382
▁new	-383
age	-384
ip	-385
ov	-386
ap	-387
▁conc	-388
▁pe	-389
iya	-390
ann	-391
fe	-392
arlia	-393
▁ra	-394
▁out	-395
ike	-396
▁“	-397
▁This	-398
▁und	-399
int	-400
ord	-401
▁econom	-402
▁countries	-403
▁who	-404
▁pre	-405
arliament	-406
cy	-407
▁:	-408
▁dec	-409
oy	-410
▁develop	-411
▁report	-412
af	-413
ally	-414
▁bet	-415
▁polic	-416
▁up	-417
▁eff	-418
ens	-419
▁mu	-420
▁year	-421
▁kuma	-422
ase	-423
▁import	-424
▁str	-425
▁pos	-426
ced	-427
ani	-428
erm	-429
▁one	-430
ank	-431
▁propos	-432
▁tra	-433
▁ba	-434
arket	-435
ility	-436
▁–	-437
▁comp	-438
▁these	-439
▁bec	-440
sib	-441
ures	-442
▁Parliament	-443
ew	-444
erv	-445
ution	-446
uk	-447
pect	-448
ana	-449
ise	-450
▁under	-451
fore	-452
▁right	-453
rent	-454
▁prov	-455
▁support	-456
ang	-457
ame	-458
▁inv	-459
▁like	-460
ep	-461
▁em	-462
get	-463
▁rec	-464
▁cl	-465
▁An	-466
▁act	-467
ack	-468
ople	-469
aw	-470
ail	-471
▁cr	-472
▁gro	-473
▁Ch	-474
ach	-475
we	-476
▁about	-477
ian	-478
oint	-479
▁trans	-480
▁prog	-481
▁ev	-482
▁spe	-483
are	-484
ublic	-485
ative	-486
irect	-487
▁ob	-488
▁partic	-489
ular	-490
▁4	-491
▁market	-492
▁them	-493
▁people	-494
▁mat	-495
sel	-496
gy	-497
lud	-498
ern	-499
▁ind	-500
ric	-501
▁produ	-502
ious	-503
ors	-504
▁imp	-505
▁time	-506
ri	-507
▁only	-508
▁te	-509
▁5	-510
fic	-511
ause	-512
▁what	-513
▁19	-514
una	-515
▁very	-516
vern	-517
▁policy	-518
▁rel	-519
resent	-520
▁such	-521
low	-522
lem	-523
▁inst	-524
▁leg	-525
▁no	-526
ite	-527
ugh	-528
▁201	-529
▁over	-530
ted	-531
ives	-532
▁V	-533
ween	-534
tain	-535
▁ro	-536
av	-537
▁between	-538
▁yi	-539
irst	-540
▁As	-541
ink	-542
▁into	-543
▁again	-544
▁whe	-545
unity	-546
ata	-547
aj	-548
▁acc	-549
eral	-550
ec	-551
▁than	-552
▁sub	-553
ya	-554
▁ce	-555
yst	-556
▁agree	-557
▁if	-558
ade	-559
der	-560
▁per	-561
pon	-562
▁important	-563
▁any	-564
su	-565
▁economic	-566
ural	-567
ings	-568
ual	-569
▁inte	-570
ices	-571
▁dem	-572
eration	-573
ever	-574
ating	-575
ind	-576
▁were	-577
▁proposal	-578
▁my	-579
ystem	-580
xt	-581
itical	-582
▁some	-583
▁now	-584
ention	-585
me	-586
▁appro	-587
ry	-588
▁dif	-589
▁tak	-590
ru	-591
▁how	-592
▁when	-593
lear	-594
▁bas	-595
uwa	-596
▁his	-597
▁Con	-598
▁add	-599
▁ƙ	-600
▁intern	-601
▁those	-602
▁take	-603
▁cik	-604
ork	-605
▁"	-606
▁particular	-607
▁ke	-608
iew	-609
▁?	-610
▁far	-611
▁way	-612
▁finan	-613
rough	-614
lect	-615
▁concern	-616
▁inform	-617
ific	-618
▁Wh	-619
ision	-620
▁”	-621
now	-622
▁make	-623
pet	-624
ile	-625
▁rem	-626
▁meas	-627
ards	-628
gh	-629
▁because	-630
▁ar	-631
▁public	-632
ass	-633
▁requ	-634
▁6	-635
▁includ	-636
▁Am	-637
ory	-638
▁system	-639
▁Re	-640
ke	-641
▁respon	-642
ange	-643
pa	-644
▁serv	-645
sible	-646
▁All	-647
▁prot	-648
uman	-649
wo	-650
ited	-651
▁had	-652
▁say	-653
▁prob	-654
ieve	-655
any	-656
▁first	-657
ism	-658
day	-659
▁development	-660
ied	-661
ful	-662
ove	-663
ara	-664
▁political	-665
▁sp	-666
ency	-667
▁ass	-668
abl	-669
▁program	-670
uth	-671
▁za	-672
▁Min	-673
hed	-674
plement	-675
▁national	-676
▁your	-677
▁incre	-678
▁many	-679
▁made	-680
ploy	-681
▁well	-682
▁fund	-683
▁years	-684
ister	-685
iron	-686
▁just	-687
eh	-688
▁op	-689
air	-690
ild	-691
▁world	-692
ough	-693
▁Pro	-694
ene	-695
▁effect	-696
▁8	-697
▁govern	-698
uc	-699
▁adop	-700
▁deb	-701
itte	-702
oth	-703
viron	-704
▁fact	-705
..	-706
▁wa	-707
▁problem	-708
▁protect	-709
aka	-710
▁ga	-711
▁point	-712
▁For	-713
▁disc	-714
▁compet	-715
vironment	-716
wn	-717
ting	-718
▁mon	-719
ved	-720
▁know	-721
▁social	-722
▁ent	-723
▁measures	-724
▁ens	-725
▁contin	-726
▁two	-727
▁information	-728
▁against	-729
▁bel	-730
rest	-731
▁level	-732
▁sit	-733
ts	-734
ood	-735
▁cur	-736
▁vot	-737
ama	-738
▁most	-739
hip	-740
▁7	-741
▁may	-742
ash	-743
▁att	-744
▁gen	-745
cept	-746
iven	-747
▁use	-748
gan	-749
▁set	-750
▁rights	-751
▁Jeh	-752
▁Commissioner	-753
▁see	-754
▁good	-755
▁being	-756
▁implement	-757
▁human	-758
▁form	-759
ari	-760
emb	-761
▁ka	-762
▁How	-763
inci	-764
ulation	-765
ane	-766
ina	-767
▁through	-768
operation	-769
ittee	-770
▁could	-771
▁invest	-772
▁great	-773
▁long	-774
ised	-775
▁ts	-776
ollow	-777
lp	-778
▁financial	-779
uring	-780
▁mai	-781
uthor	-782
read	-783
ality	-784
ety	-785
▁clear	-786
chn	-787
▁high	-788
annan	-789
▁ref	-790
▁quest	-791
▁said	-792
uss	-793
alth	-794
▁exam	-795
ga	-796
20	-797
old	-798
ract	-799
▁help	-800
▁sect	-801
ergy	-802
▁where	-803
▁country	-804
vers	-805
▁end	-806
urther	-807
▁direct	-808
ration	-809
▁ful	-810
▁On	-811
rat	-812
ook	-813
▁even	-814
itiz	-815
▁therefore	-816
ph	-817
▁impro	-818
olog	-819
▁des	-820
land	-821
err	-822
▁av	-823
▁ext	-824
arge	-825
▁9	-826
▁rep	-827
▁order	-828
▁conf	-829
▁cikin	-830
uture	-831
▁sc	-832
uation	-833
way	-834
ince	-835
▁sec	-836
▁exp	-837
ma	-838
▁want	-839
▁don	-840
udget	-841
▁author	-842
▁10	-843
▁future	-844
ertain	-845
▁num	-846
aya	-847
ines	-848
▁sign	-849
▁does	-850
▁international	-851
▁process	-852
▁result	-853
▁But	-854
▁Sh	-855
▁'	-856
▁today	-857
▁prom	-858
▁est	-859
ound	-860
▁interest	-861
▁follow	-862
fter	-863
illion	-864
▁Community	-865
utions	-866
▁environment	-867
▁inf	-868
▁law	-869
urity	-870
▁citiz	-871
▁view	-872
000	-873
▁main	-874
ving	-875
▁There	-876
▁grow	-877
own	-878
▁De	-879
▁rul	-880
▁gl	-881
ks	-882
uct	-883
ute	-884
▁gu	-885
).	-886
isation	-887
▁mut	-888
▁lead	-889
pr	-890
ability	-891
sa	-892
feren	-893
▁region	-894
▁Al	-895
▁product	-896
isl	-897
▁And	-898
ell	-899
▁contr	-900
itt	-901
▁Br	-902
▁State	-903
▁199	-904
ft	-905
ici	-906
▁call	-907
▁same	-908
▁within	-909
▁Minister	-910
▁both	-911
arch	-912
▁ensure	-913
▁off	-914
ower	-915
▁inter	-916
ior	-917
▁sol	-918
embers	-919
▁state	-920
▁shi	-921
▁agreement	-922
▁Allah	-923
▁current	-924
▁sam	-925
▁min	-926
arm	-927
▁Z	-928
▁citizens	-929
▁mak	-930
ason	-931
ital	-932
▁br	-933
▁present	-934
▁cooperation	-935
sue	-936
▁Committee	-937
▁think	-938
▁legisl	-939
ployment	-940
▁mas	-941
▁prev	-942
ount	-943
ready	-944
▁own	-945
▁iya	-946
▁every	-947
▁neg	-948
com	-949
▁provid	-950
▁possible	-951
▁budget	-952
▁ach	-953
cond	-954
▁energy	-955
▁aid	-956
▁daga	-957
▁pers	-958
▁US	-959
▁Ag	-960
▁already	-961
▁So	-962
▁He	-963
▁project	-964
anda	-965
▁Is	-966
▁certain	-967
▁That	-968
▁instit	-969
ential	-970
▁techn	-971
▁redu	-972
▁)	-973
▁consid	-974
▁believe	-975
▁much	-976
itions	-977
▁def	-978
its	-979
ope	-980
▁number	-981
urn	-982
▁maj	-983
obal	-984
▁situation	-985
cing	-986
▁cour	-987
▁common	-988
ict	-989
reed	-990
▁rules	-991
▁services	-992
ty	-993
▁car	-994
▁regard	-995
▁further	-996
▁object	-997
afi	-998
▁sim	-999
not	-1000
▁kas	-1001
iness	-1002
iti	-1003
▁term	-1004
▁stand	-1005
▁establ	-1006
▁indust	-1007
▁meet	-1008
▁det	-1009
▁case	-1010
ible	-1011
▁respect	-1012
▁cap	-1013
▁cond	-1014
man	-1015
▁still	-1016
lus	-1017
uw	-1018
▁cewa	-1019
▁organ	-1020
▁before	-1021
▁ser	-1022
▁Direct	-1023
▁area	-1024
▁issu	-1025
▁debate	-1026
▁What	-1027
▁question	-1028
▁put	-1029
▁amend	-1030
tt	-1031
ents	-1032
▁require	-1033
▁strate	-1034
▁major	-1035
▁reason	-1036
▁democ	-1037
ward	-1038
▁col	-1039
▁If	-1040
▁health	-1041
▁issue	-1042
▁oper	-1043
tic	-1044
ss	-1045
▁En	-1046
▁last	-1047
▁allow	-1048
ayan	-1049
ves	-1050
▁action	-1051
ework	-1052
ramework	-1053
▁protection	-1054
▁she	-1055
▁cannot	-1056
▁trade	-1057
▁dra	-1058
▁Se	-1059
ination	-1060
▁necess	-1061
▁ma	-1062
▁mod	-1063
▁place	-1064
▁group	-1065
▁contrib	-1066
▁areas	-1067
▁princi	-1068
▁consum	-1069
ys	-1070
ouse	-1071
▁sector	-1072
▁0	-1073
ased	-1074
▁taken	-1075
▁matter	-1076
eth	-1077
▁const	-1078
ferent	-1079
▁However	-1080
usiness	-1081
▁after	-1082
▁aik	-1083
▁commit	-1084
oti	-1085
imate	-1086
▁reform	-1087
▁rev	-1088
▁including	-1089
itive	-1090
▁kam	-1091
▁Ar	-1092
▁programme	-1093
▁bene	-1094
▁example	-1095
▁fe	-1096
att	-1097
▁rest	-1098
omen	-1099
▁—	-1100
▁United	-1101
▁too	-1102
▁ko	-1103
▁global	-1104
▁bu	-1105
oura	-1106
▁resol	-1107
arin	-1108
▁ris	-1109
rol	-1110
led	-1111
▁sm	-1112
▁med	-1113
▁represent	-1114
▁fore	-1115
▁equ	-1116
▁wat	-1117
▁security	-1118
▁then	-1119
▁effort	-1120
ness	-1121
▁aim	-1122
reaty	-1123
ues	-1124
ricult	-1125
▁adopted	-1126
isions	-1127
ovah	-1128
▁Jehovah	-1129
▁beh	-1130
▁growth	-1131
▁ask	-1132
▁without	-1133
▁promot	-1134
▁proced	-1135
▁here	-1136
▁decision	-1137
ily	-1138
▁start	-1139
),	-1140
▁Fin	-1141
▁speci	-1142
▁since	-1143
▁different	-1144
▁11	-1145
▁cre	-1146
▁negoti	-1147
ath	-1148
less	-1149
▁elect	-1150
▁la	-1151
ER	-1152
als	-1153
▁yana	-1154
ivers	-1155
ics	-1156
ird	-1157
arant	-1158
▁cris	-1159
AT	-1160
pend	-1161
▁progress	-1162
ick	-1163
▁Pol	-1164
▁remain	-1165
▁invol	-1166
ently	-1167
▁15	-1168
▁val	-1169
les	-1170
▁means	-1171
AN	-1172
over	-1173
ources	-1174
round	-1175
ners	-1176
▁opport	-1177
▁necessary	-1178
▁12	-1179
▁tax	-1180
▁able	-1181
eur	-1182
▁issues	-1183
▁real	-1184
▁wel	-1185
ined	-1186
ases	-1187
▁open	-1188
unic	-1189
▁adv	-1190
▁avail	-1191
ining	-1192
ified	-1193
▁tar	-1194
airs	-1195
ban	-1196
▁sun	-1197
ically	-1198
▁God	-1199
arn	-1200
▁course	-1201
self	-1202
▁aff	-1203
add	-1204
▁suc	-1205
other	-1206
▁million	-1207
▁effective	-1208
▁pur	-1209
ference	-1210
ral	-1211
▁wannan	-1212
▁access	-1213
▁wani	-1214
ather	-1215
▁Reg	-1216
▁prior	-1217
▁business	-1218
▁improve	-1219
omin	-1220
mit	-1221
ife	-1222
▁government	-1223
▁exper	-1224
▁framework	-1225
ium	-1226
▁role	-1227
arg	-1228
▁cost	-1229
sels	-1230
cc	-1231
min	-1232
alf	-1233
▁products	-1234
▁him	-1235
▁kan	-1236
▁cor	-1237
ES	-1238
awa	-1239
▁better	-1240
▁activ	-1241
▁supp	-1242
▁initi	-1243
IN	-1244
▁pract	-1245
▁person	-1246
▁authorities	-1247
ross	-1248
eng	-1249
▁rese	-1250
▁cent	-1251
▁Af	-1252
▁Treaty	-1253
▁change	-1254
▁consider	-1255
▁crisis	-1256
▁back	-1257
▁suka	-1258
▁three	-1259
▁hope	-1260
reng	-1261
▁legal	-1262
ret	-1263
▁China	-1264
uf	-1265
▁problems	-1266
come	-1267
▁available	-1268
ished	-1269
▁basis	-1270
▁given	-1271
▁terr	-1272
▁Gro	-1273
▁amf	-1274
ars	-1275
▁lab	-1276
▁exist	-1277
anin	-1278
ants	-1279
irm	-1280
▁zai	-1281
▁play	-1282
▁ann	-1283
▁yan	-1284
▁give	-1285
▁Cour	-1286
▁continue	-1287
▁pay	-1288
ada	-1289
▁down	-1290
▁Go	-1291
▁why	-1292
▁ed	-1293
▁comple	-1294
▁benef	-1295
ilit	-1296
▁did	-1297
▁power	-1298
▁provide	-1299
▁integ	-1300
▁Germ	-1301
stain	-1302
▁legislation	-1303
//	-1304
▁[	-1305
ON	-1306
▁find	-1307
▁ph	-1308
▁pres	-1309
iod	-1310
ttp	-1311
▁second	-1312
rist	-1313
leg	-1314
▁hand	-1315
▁fac	-1316
://	-1317
▁needs	-1318
▁bl	-1319
▁used	-1320
▁aka	-1321
▁economy	-1322
▁job	-1323
line	-1324
▁month	-1325
▁Court	-1326
▁free	-1327
▁inde	-1328
wards	-1329
▁del	-1330
▁sur	-1331
iyar	-1332
iving	-1333
rodu	-1334
ier	-1335
mental	-1336
▁streng	-1337
sibility	-1338
▁account	-1339
/1	-1340
hes	-1341
▁vote	-1342
▁particularly	-1343
▁women	-1344
▁position	-1345
atives	-1346
▁next	-1347
ock	-1348
ising	-1349
▁At	-1350
▁To	-1351
▁http	-1352
eric	-1353
▁however	-1354
▁deal	-1355
▁Russ	-1356
ussels	-1357
▁thank	-1358
mes	-1359
▁/	-1360
stand	-1361
ner	-1362
▁policies	-1363
▁control	-1364
▁read	-1365
▁gr	-1366
▁whether	-1367
ield	-1368
▁som	-1369
▁show	-1370
▁Brussels	-1371
ify	-1372
▁soci	-1373
▁Fr	-1374
agement	-1375
▁less	-1376
▁amfani	-1377
ds	-1378
▁dist	-1379
pporteur	-1380
▁Tur	-1381
▁They	-1382
▁accept	-1383
▁Rep	-1384
▁ins	-1385
▁strong	-1386
ficult	-1387
▁ur	-1388
▁Mrs	-1389
▁opin	-1390
▁sustain	-1391
▁institutions	-1392
▁child	-1393
▁ap	-1394
▁difficult	-1395
▁come	-1396
▁conditions	-1397
AR	-1398
▁bro	-1399
▁implementation	-1400
▁fav	-1401
ne	-1402
▁step	-1403
▁while	-1404
itor	-1405
aba	-1406
▁addition	-1407
▁Directive	-1408
▁approach	-1409
ali	-1410
▁Ab	-1411
▁loc	-1412
▁look	-1413
idency	-1414
▁transport	-1415
ages	-1416
az	-1417
▁get	-1418
▁Intern	-1419
anies	-1420
▁proposals	-1421
▁imm	-1422
ists	-1423
▁increase	-1424
▁ku	-1425
eu	-1426
amb	-1427
▁relations	-1428
▁large	-1429
imes	-1430
ually	-1431
▁research	-1432
▁proposed	-1433
▁applic	-1434
▁masu	-1435
ten	-1436
▁Sp	-1437
▁Aff	-1438
ask	-1439
▁’	-1440
▁rapporteur	-1441
pecial	-1442
then	-1443
ale	-1444
...	-1445
euro	-1446
▁establish	-1447
▁specific	-1448
▁Ad	-1449
▁13	-1450
▁Affairs	-1451
asing	-1452
▁tare	-1453
▁es	-1454
ingle	-1455
ron	-1456
▁during	-1457
▁These	-1458
▁her	-1459
▁Americ	-1460
ivid	-1461
▁quality	-1462
▁success	-1463
▁become	-1464
▁small	-1465
imin	-1466
▁companies	-1467
▁period	-1468
▁fl	-1469
▁expl	-1470
ung	-1471
▁competition	-1472
▁ɗ	-1473
▁Tr	-1474
32	-1475
▁resources	-1476
▁each	-1477
▁educ	-1478
▁‘	-1479
▁chall	-1480
▁signific	-1481
▁terms	-1482
ble	-1483
▁address	-1484
▁full	-1485
selves	-1486
ware	-1487
▁working	-1488
▁non	-1489
▁serious	-1490
ized	-1491
▁lim	-1492
▁technolog	-1493
▁employment	-1494
ix	-1495
▁wr	-1496
▁efforts	-1497
▁Group	-1498
▁members	-1499
▁agricult	-1500
erg	-1501
EC	-1502
ises	-1503
hi	-1504
▁strategy	-1505
vention	-1506
▁stud	-1507
▁14	-1508
▁life	-1509
ij	-1510
▁expect	-1511
▁nat	-1512
▁strengthen	-1513
▁pop	-1514
▁based	-1515
▁industry	-1516
▁directive	-1517
▁Le	-1518
▁following	-1519
▁partners	-1520
▁happ	-1521
▁tal	-1522
gether	-1523
▁Mad	-1524
acin	-1525
▁together	-1526
adda	-1527
pri	-1528
▁towards	-1529
io	-1530
ances	-1531
▁subject	-1532
work	-1533
ayin	-1534
uta	-1535
▁rece	-1536
▁enc	-1537
▁general	-1538
▁third	-1539
par	-1540
▁29	-1541
▁regional	-1542
EN	-1543
▁few	-1544
▁move	-1545
nov	-1546
ogn	-1547
▁duk	-1548
▁san	-1549
▁infr	-1550
▁key	-1551
ples	-1552
▁concerned	-1553
ately	-1554
▁euro	-1555
▁saf	-1556
▁bank	-1557
▁data	-1558
▁struct	-1559
▁assist	-1560
▁House	-1561
mber	-1562
▁regul	-1563
▁vi	-1564
ension	-1565
▁dr	-1566
▁food	-1567
oh	-1568
▁achieve	-1569
▁instru	-1570
▁With	-1571
▁sha	-1572
ivil	-1573
ering	-1574
▁priv	-1575
▁air	-1576
▁projects	-1577
▁investment	-1578
bon	-1579
▁ret	-1580
europa	-1581
▁zuwa	-1582
▁another	-1583
▁yin	-1584
iting	-1585
▁forward	-1586
ification	-1587
▁lo	-1588
gin	-1589
▁best	-1590
▁particip	-1591
▁Ir	-1592
▁EUR	-1593
ratic	-1594
▁done	-1595
▁bring	-1596
minist	-1597
▁introdu	-1598
▁recogn	-1599
▁environmental	-1600
ticle	-1601
▁ide	-1602
adies	-1603
▁importance	-1604
entlem	-1605
atar	-1606
▁significant	-1607
▁You	-1608
arante	-1609
▁suna	-1610
▁creat	-1611
▁Ital	-1612
▁ess	-1613
ira	-1614
▁kw	-1615
▁18	-1616
ize	-1617
▁press	-1618
200	-1619
entlemen	-1620
▁field	-1621
▁Fund	-1622
▁peace	-1623
▁Ind	-1624
▁opinion	-1625
▁among	-1626
▁Sec	-1627
▁fail	-1628
tion	-1629
▁found	-1630
conomic	-1631
▁net	-1632
▁cult	-1633
▁accord	-1634
reedom	-1635
▁speak	-1636
▁Q	-1637
▁gentlemen	-1638
▁whole	-1639
▁rele	-1640
▁negotiations	-1641
▁wanda	-1642
▁suff	-1643
lig	-1644
▁experi	-1645
ning	-1646
▁assess	-1647
ences	-1648
▁prof	-1649
▁short	-1650
obah	-1651
▁Jehobah	-1652
▁More	-1653
pecially	-1654
unities	-1655
▁vis	-1656
▁EC	-1657
idence	-1658
▁management	-1659
ators	-1660
▁Isra	-1661
▁society	-1662
▁safety	-1663
▁ru	-1664
▁No	-1665
▁resolution	-1666
cies	-1667
▁markets	-1668
10	-1669
▁haka	-1670
soci	-1671
▁25	-1672
▁fis	-1673
ways	-1674
ta	-1675
ocus	-1676
racy	-1677
▁risk	-1678
▁chang	-1679
rency	-1680
▁16	-1681
ending	-1682
▁Co	-1683
▁close	-1684
▁shall	-1685
▁regions	-1686
ably	-1687
▁guarante	-1688
orm	-1689
oney	-1690
sequ	-1691
▁build	-1692
▁least	-1693
▁Christ	-1694
▁especially	-1695
▁essential	-1696
▁sab	-1697
▁impact	-1698
▁comb	-1699
▁ca	-1700
▁encoura	-1701
▁demand	-1702
▁kya	-1703
▁Yes	-1704
▁text	-1705
▁mot	-1706
▁appropri	-1707
ling	-1708
▁Govern	-1709
ek	-1710
▁conclus	-1711
ck	-1712
arki	-1713
ven	-1714
▁education	-1715
▁programmes	-1716
▁fam	-1717
▁making	-1718
▁months	-1719
ussion	-1720
▁Mai	-1721
iter	-1722
▁express	-1723
idan	-1724
▁discuss	-1725
▁Ex	-1726
▁activities	-1727
▁Just	-1728
▁Madam	-1729
▁behalf	-1730
▁Part	-1731
▁individ	-1732
▁Afric	-1733
▁17	-1734
uka	-1735
▁subst	-1736
▁effici	-1737
amental	-1738
▁recent	-1739
raph	-1740
▁bal	-1741
▁though	-1742
▁production	-1743
▁focus	-1744
truct	-1745
ption	-1746
co	-1747
rib	-1748
▁30	-1749
els	-1750
arity	-1751
▁Ts	-1752
ceed	-1753
▁civil	-1754
▁Rom	-1755
la	-1756
▁target	-1757
▁understand	-1758
▁principle	-1759
iveness	-1760
reen	-1761
ura	-1762
▁things	-1763
▁favour	-1764
cession	-1765
ession	-1766
▁request	-1767
▁greater	-1768
▁list	-1769
▁freedom	-1770
arian	-1771
arious	-1772
▁Members	-1773
ogue	-1774
▁prevent	-1775
▁administ	-1776
▁Presidency	-1777
▁viol	-1778
ida	-1779
▁achie	-1780
ommend	-1781
cin	-1782
▁ir	-1783
okacin	-1784
▁mis	-1785
▁treat	-1786
▁local	-1787
atory	-1788
▁game	-1789
▁states	-1790
▁fa	-1791
▁abin	-1792
▁ele	-1793
▁pot	-1794
gu	-1795
▁opportunity	-1796
▁individual	-1797
▁children	-1798
▁increasing	-1799
the	-1800
▁innov	-1801
▁day	-1802
OR	-1803
▁amendments	-1804
ocu	-1805
ayy	-1806
▁mag	-1807
▁occ	-1808
▁domin	-1809
asa	-1810
.5	-1811
▁Tra	-1812
▁taking	-1813
▁lat	-1814
ense	-1815
IS	-1816
▁Russia	-1817
iversity	-1818
▁Mar	-1819
▁standards	-1820
▁;	-1821
▁mar	-1822
▁pa	-1823
▁Gree	-1824
19	-1825
ond	-1826
orth	-1827
itution	-1828
bs	-1829
ech	-1830
▁procedure	-1831
▁responsibility	-1832
▁single	-1833
▁let	-1834
▁regulation	-1835
row	-1836
uwan	-1837
▁objectives	-1838
▁meeting	-1839
unication	-1840
▁po	-1841
▁aiki	-1842
order	-1843
▁ident	-1844
▁affect	-1845
ived	-1846
▁care	-1847
▁itself	-1848
▁systems	-1849
▁che	-1850
▁yake	-1851
▁Sa	-1852
text	-1853
▁ple	-1854
▁har	-1855
▁fight	-1856
▁might	-1857
▁sustainable	-1858
▁money	-1859
utes	-1860
▁internal	-1861
▁discussion	-1862
arly	-1863
▁developing	-1864
ething	-1865
por	-1866
▁fully	-1867
aki	-1868
▁el	-1869
wai	-1870
▁mention	-1871
▁once	-1872
▁+	-1873
▁yadda	-1874
oung	-1875
▁Germany	-1876
▁nan	-1877
▁opp	-1878
ilities	-1879
aps	-1880
term	-1881
▁appe	-1882
▁Sw	-1883
▁bo	-1884
▁zama	-1885
▁ladies	-1886
eneral	-1887
▁Develop	-1888
▁tot	-1889
here	-1890
ialogue	-1891
/0	-1892
uge	-1893
▁kar	-1894
▁Res	-1895
▁litt	-1896
▁funds	-1897
▁going	-1898
▁others	-1899
▁jud	-1900
▁CO	-1901
▁Com	-1902
▁wish	-1903
▁special	-1904
▁indic	-1905
▁Pl	-1906
key	-1907
▁various	-1908
▁trad	-1909
▁workers	-1910
AL	-1911
▁climate	-1912
▁proper	-1913
▁force	-1914
▁something	-1915
though	-1916
ided	-1917
ights	-1918
ator	-1919
▁Bel	-1920
ustom	-1921
▁network	-1922
▁interests	-1923
▁farm	-1924
▁rather	-1925
▁seem	-1926
▁potential	-1927
▁mult	-1928
go	-1929
▁compl	-1930
▁results	-1931
▁clos	-1932
▁Fore	-1933
▁decisions	-1934
ons	-1935
▁concerns	-1936
▁Republic	-1937
▁yet	-1938
▁000	-1939
▁docu	-1940
▁plan	-1941
▁often	-1942
▁positive	-1943
▁kamar	-1944
▁UN	-1945
▁eas	-1946
aring	-1947
ustr	-1948
ternal	-1949
▁dam	-1950
IT	-1951
▁pass	-1952
▁*	-1953
▁24	-1954
▁jobs	-1955
1.	-1956
gest	-1957
▁line	-1958
▁France	-1959
ins	-1960
▁Ta	-1961
▁waɗ	-1962
▁recommend	-1963
▁needed	-1964
▁always	-1965
▁share	-1966
▁_	-1967
afa	-1968
afin	-1969
▁New	-1970
▁joint	-1971
▁democracy	-1972
▁create	-1973
ither	-1974
▁context	-1975
▁Sc	-1976
▁consult	-1977
▁Pr	-1978
▁hal	-1979
une	-1980
▁fundamental	-1981
pose	-1982
▁Cent	-1983
▁mus	-1984
▁provided	-1985
▁laun	-1986
▁attention	-1987
30	-1988
▁shek	-1989
▁$	-1990
▁assistance	-1991
▁name	-1992
▁coord	-1993
▁service	-1994
DP	-1995
dom	-1996
▁young	-1997
▁terror	-1998
▁broad	-1999
mb	-2000
▁turn	-2001
▁Me	-2002
▁really	-2003
▁welcome	-2004
▁objective	-2005
▁Social	-2006
abb	-2007
ti	-2008
▁cases	-2009
▁Israel	-2010
▁Development	-2011
enda	-2012
▁transpa	-2013
▁When	-2014
▁Justice	-2015
▁lokacin	-2016
▁sci	-2017
▁1.	-2018
▁hig	-2019
▁parties	-2020
▁stat	-2021
duct	-2022
▁cut	-2023
▁agreements	-2024
▁apply	-2025
▁oblig	-2026
▁(+	-2027
▁war	-2028
sid	-2029
EM	-2030
fin	-2031
▁Article	-2032
▁bayan	-2033
▁sum	-2034
▁Turkey	-2035
0%	-2036
▁Da	-2037
▁mean	-2038
reg	-2039
▁words	-2040
ization	-2041
▁dialogue	-2042
▁Pa	-2043
▁Man	-2044
IC	-2045
▁Bank	-2046
▁appropriate	-2047
ection	-2048
▁agreed	-2049
ged	-2050
ert	-2051
mu	-2052
▁capital	-2053
▁keep	-2054
▁review	-2055
▁costs	-2056
▁democratic	-2057
▁&	-2058
▁clearly	-2059
▁Mon	-2060
▁ren	-2061
▁include	-2062
ats	-2063
aking	-2064
▁offic	-2065
▁Sl	-2066
▁challeng	-2067
▁May	-2068
anced	-2069
vant	-2070
ht	-2071
anta	-2072
▁aspect	-2073
▁Yesu	-2074
AS	-2075
▁concerning	-2076
▁mats	-2077
▁Hot	-2078
▁enl	-2079
▁consumers	-2080
▁having	-2081
▁foreign	-2082
▁ty	-2083
▁enter	-2084
hold	-2085
▁points	-2086
▁22	-2087
▁ji	-2088
▁2000	-2089
▁harm	-2090
▁nuna	-2091
....	-2092
▁abs	-2093
▁begin	-2094
ania	-2095
▁past	-2096
▁saur	-2097
▁bod	-2098
▁leaders	-2099
▁existing	-2100
iki	-2101
▁mutane	-2102
▁taim	-2103
▁Ya	-2104
▁Economic	-2105
ashin	-2106
ians	-2107
▁funding	-2108
▁kind	-2109
▁infl	-2110
icy	-2111
▁Jes	-2112
▁wasu	-2113
most	-2114
▁design	-2115
50	-2116
▁sug	-2117
▁water	-2118
▁dang	-2119
▁four	-2120
▁involved	-2121
▁exch	-2122
▁responsible	-2123
▁industr	-2124
▁hist	-2125
▁private	-2126
ED	-2127
▁cred	-2128
▁Government	-2129
▁il	-2130
uniya	-2131
▁pat	-2132
▁par	-2133
▁training	-2134
▁low	-2135
▁around	-2136
ief	-2137
▁King	-2138
▁post	-2139
▁bar	-2140
▁exc	-2141
▁currently	-2142
▁themselves	-2143
▁Our	-2144
▁milit	-2145
▁extre	-2146
▁cong	-2147
▁continu	-2148
."	-2149
▁actions	-2150
▁promote	-2151
atic	-2152
▁Jesus	-2153
ying	-2154
▁Inst	-2155
▁2007	-2156
▁Ne	-2157
ishing	-2158
▁biy	-2159
ended	-2160
▁emph	-2161
anar	-2162
igin	-2163
igration	-2164
lar	-2165
ansa	-2166
▁cohe	-2167
▁kyau	-2168
▁Te	-2169
▁dou	-2170
▁gener	-2171
▁colle	-2172
edi	-2173
▁agricultural	-2174
outh	-2175
▁maintain	-2176
▁Lis	-2177
uly	-2178
▁conclud	-2179
▁threat	-2180
ides	-2181
▁final	-2182
▁gaba	-2183
▁complete	-2184
▁mob	-2185
▁monitor	-2186
▁initiative	-2187
▁feel	-2188
▁benefit	-2189
▁voted	-2190
ters	-2191
▁contain	-2192
ruct	-2193
▁majority	-2194
▁priority	-2195
oss	-2196
▁commitment	-2197
▁appl	-2198
lex	-2199
irc	-2200
▁Agree	-2201
ool	-2202
▁ago	-2203
oid	-2204
▁groups	-2205
thing	-2206
▁governments	-2207
▁sever	-2208
iver	-2209
▁kai	-2210
▁link	-2211
ried	-2212
str	-2213
▁Bar	-2214
▁Med	-2215
▁cho	-2216
▁integration	-2217
▁First	-2218
▁Port	-2219
ilat	-2220
▁lack	-2221
ala	-2222
▁emphas	-2223
ply	-2224
urin	-2225
akin	-2226
▁yawa	-2227
▁One	-2228
▁principles	-2229
ibility	-2230
side	-2231
aged	-2232
▁independ	-2233
▁21	-2234
sw	-2235
▁solution	-2236
ledge	-2237
▁detail	-2238
angu	-2239
▁amb	-2240
▁talk	-2241
iberal	-2242
arar	-2243
▁across	-2244
ashi	-2245
oda	-2246
▁Italy	-2247
ached	-2248
empt	-2249
▁Or	-2250
astruct	-2251
▁Prog	-2252
2.	-2253
orld	-2254
unction	-2255
▁questions	-2256
ayi	-2257
cise	-2258
▁suke	-2259
til	-2260
yn	-2261
▁anal	-2262
▁arr	-2263
▁spir	-2264
imum	-2265
▁safe	-2266
▁Bul	-2267
▁happen	-2268
▁sure	-2269
aff	-2270
erial	-2271
▁quite	-2272
▁several	-2273
fer	-2274
ered	-2275
▁rate	-2276
uclear	-2277
▁total	-2278
3.	-2279
aban	-2280
▁2.	-2281
▁never	-2282
▁challenges	-2283
alm	-2284
▁technical	-2285
bour	-2286
ME	-2287
▁export	-2288
argement	-2289
ika	-2290
akan	-2291
▁conflic	-2292
▁upon	-2293
▁return	-2294
▁Lisbon	-2295
▁i	-2296
▁strateg	-2297
▁bi	-2298
ufact	-2299
ansu	-2300
▁Str	-2301
15	-2302
▁reduce	-2303
▁capac	-2304
.”	-2305
▁urg	-2306
itarian	-2307
▁supply	-2308
▁military	-2309
issions	-2310
▁price	-2311
▁eng	-2312
ita	-2313
▁Be	-2314
idd	-2315
▁anim	-2316
▁due	-2317
anism	-2318
▁prices	-2319
,000	-2320
yl	-2321
▁kasance	-2322
▁consequ	-2323
fort	-2324
ruction	-2325
▁longer	-2326
heries	-2327
iga	-2328
▁€	-2329
zu	-2330
▁value	-2331
gen	-2332
▁mafi	-2333
ush	-2334
▁gas	-2335
▁learn	-2336
▁procedures	-2337
▁ci	-2338
ively	-2339
▁provisions	-2340
▁billion	-2341
▁test	-2342
to	-2343
▁Regulation	-2344
ubl	-2345
ima	-2346
▁hard	-2347
just	-2348
▁dut	-2349
▁ve	-2350
▁company	-2351
ims	-2352
ires	-2353
apan	-2354
▁population	-2355
▁reasons	-2356
ump	-2357
▁application	-2358
▁dev	-2359
ury	-2360
▁origin	-2361
isations	-2362
▁increased	-2363
▁requirements	-2364
▁response	-2365
▁caus	-2366
▁circ	-2367
▁competit	-2368
▁Su	-2369
ilateral	-2370
htm	-2371
▁gir	-2372
ctions	-2373
▁World	-2374
▁true	-2375
▁100	-2376
▁above	-2377
ffice	-2378
yan	-2379
▁hold	-2380
▁Ka	-2381
ux	-2382
▁extreme	-2383
▁oppos	-2384
▁custom	-2385
▁institution	-2386
="	-2387
ead	-2388
▁previous	-2389
aye	-2390
▁(+32	-2391
▁fall	-2392
equ	-2393
▁aut	-2394
ulate	-2395
▁stability	-2396
▁reach	-2397
▁infrastruct	-2398
▁International	-2399
▁General	-2400
ground	-2401
▁Agreement	-2402
▁integr	-2403
▁men	-2404
▁times	-2405
▁duniya	-2406
▁road	-2407
▁Bl	-2408
▁simply	-2409
cember	-2410
▁spirit	-2411
▁cross	-2412
iation	-2413
▁levels	-2414
▁demon	-2415
▁decided	-2416
▁Policy	-2417
ends	-2418
▁opportunities	-2419
▁Uk	-2420
▁2010	-2421
▁face	-2422
▁draft	-2423
etary	-2424
▁top	-2425
▁kow	-2426
▁2008	-2427
▁grant	-2428
▁refer	-2429
▁hany	-2430
▁labour	-2431
▁Kingdom	-2432
▁contact	-2433
▁restric	-2434
▁mech	-2435
ression	-2436
▁depend	-2437
▁December	-2438
▁contribution	-2439
▁determ	-2440
ional	-2441
▁meth	-2442
▁Gu	-2443
▁Cont	-2444
▁Net	-2445
haps	-2446
aced	-2447
▁Ma	-2448
▁guid	-2449
force	-2450
6.	-2451
-0	-2452
▁Foreign	-2453
wan	-2454
12	-2455
▁Kuma	-2456
▁firm	-2457
cell	-2458
▁little	-2459
▁draw	-2460
light	-2461
▁Africa	-2462
▁Greece	-2463
▁called	-2464
▁waj	-2465
▁Spain	-2466
▁X	-2467
▁suggest	-2468
kaci	-2469
▁doing	-2470
13	-2471
▁emerg	-2472
▁established	-2473
▁Japan	-2474
ji	-2475
▁nuclear	-2476
▁old	-2477
▁changes	-2478
▁ban	-2479
▁answ	-2480
lands	-2481
EL	-2482
arwa	-2483
▁Em	-2484
▁Portug	-2485
▁creation	-2486
▁ver	-2487
▁soon	-2488
▁investig	-2489
▁Litt	-2490
14	-2491
▁achieved	-2492
▁consumer	-2493
bsite	-2494
▁light	-2495
org	-2496
▁guarantee	-2497
▁required	-2498
▁Convention	-2499
▁until	-2500
▁Let	-2501
▁Jan	-2502
▁June	-2503
▁official	-2504
▁reforms	-2505
cal	-2506
uwar	-2507
pro	-2508
▁met	-2509
▁land	-2510
▁matters	-2511
of	-2512
▁idan	-2513
RO	-2514
▁langu	-2515
▁bab	-2516
▁associ	-2517
ukan	-2518
▁thus	-2519
▁By	-2520
▁2009	-2521
▁Swed	-2522
▁experience	-2523
▁enlargement	-2524
▁seek	-2525
rup	-2526
__	-2527
war	-2528
▁method	-2529
ode	-2530
▁head	-2531
5.	-2532
▁solid	-2533
▁capacity	-2534
▁priorities	-2535
▁ak	-2536
▁Ph	-2537
na	-2538
ler	-2539
▁conv	-2540
▁obs	-2541
▁subsid	-2542
▁Trans	-2543
▁America	-2544
▁stress	-2545
▁>	-2546
▁enough	-2547
▁Program	-2548
sh	-2549
▁gra	-2550
▁higher	-2551
▁makes	-2552
▁pros	-2553
▁mind	-2554
TO	-2555
▁criter	-2556
▁held	-2557
1)	-2558
▁sectors	-2559
▁cam	-2560
▁dest	-2561
ki	-2562
▁entire	-2563
▁UK	-2564
▁gud	-2565
ini	-2566
▁employ	-2567
acy	-2568
pid	-2569
▁using	-2570
atis	-2571
pite	-2572
ba	-2573
ology	-2574
▁took	-2575
▁benefits	-2576
fully	-2577
chool	-2578
▁Can	-2579
▁ciki	-2580
▁according	-2581
▁certainly	-2582
by	-2583
▁conn	-2584
▁five	-2585
▁conclusions	-2586
▁exchange	-2587
▁member	-2588
▁organisations	-2589
overty	-2590
▁mom	-2591
▁27	-2592
ION	-2593
▁2004	-2594
▁material	-2595
▁relevant	-2596
▁undert	-2597
▁unem	-2598
▁Dec	-2599
▁perm	-2600
▁mechanism	-2601
▁innovation	-2602
▁avoid	-2603
▁Ukra	-2604
▁impos	-2605
atisf	-2606
▁Finally	-2607
▁reports	-2608
andid	-2609
itional	-2610
▁run	-2611
reland	-2612
▁scient	-2613
▁reflect	-2614
▁regards	-2615
▁committee	-2616
▁additional	-2617
▁ƙar	-2618
▁days	-2619
▁cru	-2620
▁provides	-2621
▁actually	-2622
istan	-2623
▁colleag	-2624
ID	-2625
verage	-2626
ili	-2627
▁Slov	-2628
▁rule	-2629
▁vict	-2630
▁koy	-2631
urd	-2632
▁communication	-2633
▁Brit	-2634
ken	-2635
▁bre	-2636
▁sche	-2637
rench	-2638
▁fair	-2639
▁doub	-2640
▁Market	-2641
2)	-2642
▁Do	-2643
AC	-2644
▁Ireland	-2645
▁Cl	-2646
▁live	-2647
oday	-2648
▁amma	-2649
▁regarding	-2650
▁Further	-2651
ude	-2652
ared	-2653
▁balance	-2654
ex	-2655
▁Mal	-2656
▁contribute	-2657
▁indeed	-2658
kage	-2659
vious	-2660
iance	-2661
▁28	-2662
iqu	-2663
▁central	-2664
▁buk	-2665
emoc	-2666
▁Secret	-2667
▁sent	-2668
▁technology	-2669
▁%	-2670
▁Im	-2671
inge	-2672
▁death	-2673
▁sk	-2674
▁oil	-2675
▁initiatives	-2676
▁After	-2677
▁tun	-2678
▁hon	-2679
▁practice	-2680
eb	-2681
18	-2682
▁prepar	-2683
▁legislative	-2684
▁opt	-2685
uh	-2686
▁GDP	-2687
▁My	-2688
ober	-2689
za	-2690
▁ground	-2691
▁comprom	-2692
▁Belg	-2693
ull	-2694
ging	-2695
▁offer	-2696
▁external	-2697
▁shir	-2698
▁asked	-2699
ote	-2700
▁moment	-2701
▁partnership	-2702
▁comes	-2703
▁businesses	-2704
▁aware	-2705
▁23	-2706
▁welcom	-2707
uri	-2708
▁Pal	-2709
elines	-2710
▁aspects	-2711
▁poverty	-2712
▁seen	-2713
rought	-2714
▁remains	-2715
▁vol	-2716
▁2020	-2717
▁goods	-2718
icient	-2719
ackage	-2720
▁mentioned	-2721
▁big	-2722
▁waste	-2723
▁effects	-2724
▁II	-2725
hing	-2726
▁infrastructure	-2727
▁corre	-2728
ilar	-2729
▁instruments	-2730
uba	-2731
▁manufact	-2732
▁industrial	-2733
▁3.	-2734
16	-2735
▁East	-2736
▁renew	-2737
yr	-2738
▁agenda	-2739
HE	-2740
▁knowledge	-2741
usa	-2742
istic	-2743
▁Today	-2744
-20	-2745
be	-2746
▁fel	-2747
▁Hotel	-2748
▁accession	-2749
▁ever	-2750
▁competitiveness	-2751
▁emissions	-2752
▁carried	-2753
ured	-2754
stitution	-2755
▁demonstr	-2756
rehen	-2757
▁assessment	-2758
▁enh	-2759
▁lokaci	-2760
▁presented	-2761
▁Pe	-2762
▁Tsarki	-2763
▁defic	-2764
▁submit	-2765
▁quick	-2766
osai	-2767
encies	-2768
▁Stone	-2769
▁amendment	-2770
TA	-2771
▁super	-2772
action	-2773
The	-2774
▁enterpr	-2775
US	-2776
▁natural	-2777
▁dukan	-2778
▁French	-2779
▁criteria	-2780
▁transparency	-2781
isa	-2782
▁thing	-2783
▁developed	-2784
▁week	-2785
rop	-2786
▁March	-2787
orrow	-2788
elf	-2789
▁Prot	-2790
more	-2791
▁congrat	-2792
▁community	-2793
▁candid	-2794
▁modern	-2795
▁early	-2796
▁encourage	-2797
▁debt	-2798
▁acqu	-2799
inde	-2800
▁sosai	-2801
▁ik	-2802
▁substant	-2803
▁administr	-2804
▁home	-2805
▁cultural	-2806
▁fark	-2807
17	-2808
▁event	-2809
▁rat	-2810
▁values	-2811
▁along	-2812
▁publ	-2813
unately	-2814
▁structural	-2815
▁extremely	-2816
▁basic	-2817
ami	-2818
abled	-2819
▁Lat	-2820
rad	-2821
ave	-2822
DE	-2823
▁..	-2824
▁media	-2825
▁Second	-2826
▁Littafi	-2827
▁dom	-2828
▁deleg	-2829
ening	-2830
▁cla	-2831
▁biyu	-2832
▁Amend	-2833
▁pow	-2834
▁Rights	-2835
▁excell	-2836
▁crucial	-2837
lo	-2838
▁rates	-2839
▁!	-2840
▁throughout	-2841
▁medium	-2842
▁idea	-2843
▁Inde	-2844
▁monitoring	-2845
▁analys	-2846
▁perform	-2847
▁respond	-2848
ffic	-2849
▁confidence	-2850
▁satisf	-2851
▁almost	-2852
▁harmon	-2853
▁elections	-2854
uary	-2855
▁reached	-2856
▁treatment	-2857
▁arm	-2858
35	-2859
▁Na	-2860
▁abub	-2861
▁50	-2862
▁immedi	-2863
▁Ub	-2864
▁Austr	-2865
olid	-2866
▁kayan	-2867
▁jo	-2868
ison	-2869
▁facilit	-2870
▁former	-2871
▁financing	-2872
vere	-2873
abi	-2874
▁weak	-2875
▁function	-2876
▁study	-2877
▁Why	-2878
▁polit	-2879
▁dise	-2880
▁movement	-2881
▁reduction	-2882
▁carry	-2883
▁]	-2884
▁overall	-2885
ones	-2886
25	-2887
▁confirm	-2888
▁Oct	-2889
▁coming	-2890
raq	-2891
▁conduct	-2892
▁Programme	-2893
▁family	-2894
▁liberal	-2895
▁Back	-2896
▁violence	-2897
▁IP	-2898
▁package	-2899
▁Secretary	-2900
▁Central	-2901
▁reject	-2902
pared	-2903
ighbour	-2904
ient	-2905
▁stage	-2906
▁cover	-2907
▁budgetary	-2908
▁brought	-2909
▁recently	-2910
IB	-2911
▁contract	-2912
▁defin	-2913
▁sal	-2914
▁wide	-2915
▁adoption	-2916
aria	-2917
▁Democ	-2918
▁Iraq	-2919
orders	-2920
▁received	-2921
▁implemented	-2922
1,	-2923
ature	-2924
▁Are	-2925
ource	-2926
▁nothing	-2927
▁flex	-2928
▁heart	-2929
ila	-2930
▁Col	-2931
OS	-2932
angij	-2933
▁fra	-2934
▁Bal	-2935
▁seems	-2936
▁German	-2937
▁ni	-2938
▁0.	-2939
▁improving	-2940
▁Environment	-2941
▁proceed	-2942
▁website	-2943
▁takes	-2944
▁Ba	-2945
▁except	-2946
▁active	-2947
ift	-2948
▁Acc	-2949
ograph	-2950
▁di	-2951
▁adopt	-2952
▁mess	-2953
▁Therefore	-2954
▁approved	-2955
▁January	-2956
orn	-2957
▁Of	-2958
anci	-2959
▁amount	-2960
▁although	-2961
▁ways	-2962
ched	-2963
▁away	-2964
▁expected	-2965
unt	-2966
▁fil	-2967
▁cohesion	-2968
▁providing	-2969
udi	-2970
▁Bible	-2971
▁humanitarian	-2972
9.	-2973
▁South	-2974
▁conflict	-2975
fi	-2976
▁mor	-2977
ula	-2978
▁living	-2979
comm	-2980
ovember	-2981
vest	-2982
anish	-2983
▁consist	-2984
▁ensuring	-2985
▁son	-2986
erous	-2987
▁six	-2988
▁Poland	-2989
ferences	-2990
▁nature	-2991
▁tool	-2992
▁2005	-2993
▁tabb	-2994
▁consequences	-2995
▁Palest	-2996
▁solidarity	-2997
iddle	-2998
▁calls	-2999
▁either	-3000
▁half	-3001
vis	-3002
estic	-3003
▁Ukraine	-3004
ateg	-3005
▁unemployment	-3006
/9	-3007
▁Iran	-3008
▁Hung	-3009
▁sense	-3010
▁banks	-3011
▁High	-3012
imination	-3013
aging	-3014
Euro	-3015
▁November	-3016
▁fishing	-3017
▁2006	-3018
▁steps	-3019
▁illeg	-3020
▁ray	-3021
Pres	-3022
▁tem	-3023
sive	-3024
▁perhaps	-3025
▁cle	-3026
erve	-3027
▁mutum	-3028
index	-3029
part	-3030
AP	-3031
▁repl	-3032
askiya	-3033
▁annual	-3034
▁model	-3035
▁wata	-3036
▁efficiency	-3037
▁plann	-3038
▁profession	-3039
▁left	-3040
sc	-3041
▁created	-3042
▁qual	-3043
▁news	-3044
▁rein	-3045
alin	-3046
▁Id	-3047
▁farmers	-3048
▁Cons	-3049
▁October	-3050
4.	-3051
ounts	-3052
▁compromise	-3053
▁personal	-3054
alled	-3055
▁pressure	-3056
40	-3057
▁hour	-3058
amar	-3059
idered	-3060
val	-3061
EU	-3062
▁item	-3063
▁considered	-3064
ptember	-3065
▁aims	-3066
▁Moreover	-3067
arth	-3068
▁tell	-3069
▁...	-3070
▁tele	-3071
▁Agricult	-3072
▁deep	-3073
▁attack	-3074
▁note	-3075
enge	-3076
▁ste	-3077
arter	-3078
▁likely	-3079
▁equal	-3080
▁travel	-3081
▁American	-3082
▁stop	-3083
▁waɗanda	-3084
▁Qu	-3085
▁rub	-3086
▁terrorism	-3087
▁enable	-3088
▁limited	-3089
▁substantial	-3090
yy	-3091
ills	-3092
▁anti	-3093
▁Ubangij	-3094
▁26	-3095
▁outside	-3096
mark	-3097
aster	-3098
▁whose	-3099
▁answer	-3100
▁date	-3101
80	-3102
▁Wannan	-3103
▁tatt	-3104
▁ƙa	-3105
uel	-3106
▁Since	-3107
▁2003	-3108
▁September	-3109
▁irin	-3110
oper	-3111
▁document	-3112
▁online	-3113
▁Now	-3114
apt	-3115
sec	-3116
▁similar	-3117
/200	-3118
▁commitments	-3119
▁dur	-3120
▁larg	-3121
▁building	-3122
RE	-3123
ender	-3124
akon	-3125
▁rapid	-3126
▁Amma	-3127
▁comprehen	-3128
▁self	-3129
▁altern	-3130
▁ill	-3131
▁eval	-3132
ensive	-3133
▁regime	-3134
▁agriculture	-3135
▁events	-3136
▁fit	-3137
▁provision	-3138
▁Vice	-3139
▁dire	-3140
formation	-3141
ye	-3142
▁Cy	-3143
iger	-3144
uted	-3145
▁Security	-3146
fortunately	-3147
▁school	-3148
yond	-3149
▁excellent	-3150
▁rural	-3151
▁hanyar	-3152
▁parliament	-3153
▁involve	-3154
▁port	-3155
▁constit	-3156
▁Some	-3157
▁pra	-3158
iye	-3159
▁Kir	-3160
▁mov	-3161
▁refuge	-3162
igital	-3163
▁supported	-3164
▁Portugal	-3165
▁saying	-3166
ays	-3167
▁aimed	-3168
ites	-3169
▁participation	-3170
iterr	-3171
▁infringe	-3172
▁She	-3173
▁sens	-3174
▁repe	-3175
UN	-3176
▁plans	-3177
anean	-3178
▁gain	-3179
▁competitive	-3180
▁Fed	-3181
▁influ	-3182
▁July	-3183
iterranean	-3184
▁purpose	-3185
▁writing	-3186
Europe	-3187
▁receive	-3188
▁simpl	-3189
▁side	-3190
ran	-3191
▁becom	-3192
head	-3193
▁relationship	-3194
▁applied	-3195
▁prepared	-3196
▁relating	-3197
▁2002	-3198
▁ge	-3199
▁shekara	-3200
▁scientific	-3201
▁tack	-3202
▁relation	-3203
▁Ob	-3204
▁justice	-3205
onia	-3206
app	-3207
▁Dep	-3208
wide	-3209
▁Action	-3210
▁poll	-3211
▁age	-3212
▁expressed	-3213
TS	-3214
ened	-3215
asu	-3216
ets	-3217
ges	-3218
▁ake	-3219
▁soft	-3220
aru	-3221
▁Background	-3222
▁borders	-3223
▁crimin	-3224
▁administrative	-3225
▁cause	-3226
▁says	-3227
▁representatives	-3228
▁powers	-3229
▁risks	-3230
oyin	-3231
oot	-3232
▁requires	-3233
urer	-3234
ream	-3235
▁correct	-3236
▁bayy	-3237
rab	-3238
herlands	-3239
▁advant	-3240
ological	-3241
▁coordination	-3242
▁committed	-3243
▁Ge	-3244
▁discr	-3245
▁distrib	-3246
▁Trade	-3247
▁asse	-3248
▁restrict	-3249
lusion	-3250
ton	-3251
▁included	-3252
▁circum	-3253
▁fig	-3254
▁kawai	-3255
▁content	-3256
▁Ms	-3257
erb	-3258
▁farko	-3259
▁IN	-3260
▁economies	-3261
▁iy	-3262
▁samar	-3263
▁led	-3264
▁Apr	-3265
▁counter	-3266
▁strategic	-3267
60	-3268
▁heav	-3269
him	-3270
border	-3271
▁Indeed	-3272
EP	-3273
wh	-3274
▁history	-3275
oto	-3276
▁statement	-3277
▁aikin	-3278
▁regulations	-3279
▁cin	-3280
yar	-3281
▁conver	-3282
▁zam	-3283
▁fisheries	-3284
▁IS	-3285
▁2019	-3286
arily	-3287
▁alloc	-3288
▁faith	-3289
▁fulf	-3290
▁mass	-3291
▁related	-3292
▁taimaka	-3293
▁word	-3294
▁Nations	-3295
▁exer	-3296
▁implementing	-3297
▁SME	-3298
▁challenge	-3299
sibilities	-3300
▁Inter	-3301
lement	-3302
▁everyone	-3303
▁desc	-3304
3)	-3305
8.	-3306
▁specif	-3307
▁poor	-3308
▁40	-3309
▁loss	-3310
▁quickly	-3311
▁measure	-3312
▁Dut	-3313
▁minister	-3314
▁Mos	-3315
▁fear	-3316
▁WTO	-3317
▁promoting	-3318
ger	-3319
▁pen	-3320
▁guidelines	-3321
▁bay	-3322
▁Netherlands	-3323
▁solutions	-3324
estern	-3325
ording	-3326
▁limit	-3327
▁commer	-3328
▁later	-3329
▁sai	-3330
▁Bab	-3331
lines	-3332
▁explain	-3333
▁minor	-3334
▁mand	-3335
▁else	-3336
▁fri	-3337
▁growing	-3338
▁shows	-3339
▁enterprises	-3340
▁THE	-3341
▁creating	-3342
endit	-3343
▁drug	-3344
▁emb	-3345
▁average	-3346
cent	-3347
▁Lux	-3348
▁red	-3349
ourg	-3350
ɗa	-3351
ously	-3352
olute	-3353
▁Za	-3354
▁Home	-3355
▁scope	-3356
inian	-3357
▁leading	-3358
▁efficient	-3359
▁hakan	-3360
▁Ƙ	-3361
▁Conference	-3362
▁affected	-3363
▁attempt	-3364
laration	-3365
▁successful	-3366
▁vital	-3367
▁instrument	-3368
oyi	-3369
alle	-3370
▁Bulg	-3371
ands	-3372
overy	-3373
▁beyond	-3374
▁nor	-3375
▁illegal	-3376
▁Des	-3377
bo	-3378
▁yaya	-3379
▁adapt	-3380
ha	-3381
▁4.	-3382
▁Party	-3383
▁documents	-3384
ored	-3385
ET	-3386
iff	-3387
▁prim	-3388
▁Romania	-3389
▁Ministers	-3390
amm	-3391
igr	-3392
OL	-3393
▁developments	-3394
▁sus	-3395
▁Press	-3396
ival	-3397
wise	-3398
▁possibility	-3399
▁collect	-3400
▁ten	-3401
▁Thank	-3402
▁discussions	-3403
▁relig	-3404
▁Other	-3405
▁arrange	-3406
ivity	-3407
▁accordance	-3408
▁lives	-3409
▁announ	-3410
▁host	-3411
▁Feb	-3412
▁ourselves	-3413
▁book	-3414
▁crime	-3415
▁obvious	-3416
▁effectively	-3417
▁Sum	-3418
▁Idan	-3419
▁kamata	-3420
amp	-3421
▁independent	-3422
▁views	-3423
▁giving	-3424
▁absolute	-3425
▁precise	-3426
▁behind	-3427
aries	-3428
▁strengthening	-3429
ja	-3430
urance	-3431
▁reading	-3432
▁sw	-3433
where	-3434
▁coordin	-3435
▁April	-3436
▁sound	-3437
▁comprehensive	-3438
▁improved	-3439
▁conclusion	-3440
▁sy	-3441
▁Represent	-3442
▁Sweden	-3443
▁National	-3444
IL	-3445
▁kasa	-3446
anni	-3447
▁ɗa	-3448
▁Don	-3449
▁finance	-3450
▁fiscal	-3451
▁rise	-3452
▁range	-3453
olution	-3454
▁tom	-3455
▁<	-3456
▁raised	-3457
ames	-3458
▁App	-3459
▁task	-3460
ees	-3461
men	-3462
paign	-3463
iss	-3464
▁lot	-3465
▁practical	-3466
▁consultation	-3467
▁known	-3468
embourg	-3469
ku	-3470
know	-3471
ourable	-3472
▁expendit	-3473
▁rad	-3474
▁recon	-3475
▁Duk	-3476
▁activity	-3477
▁While	-3478
▁setting	-3479
▁samun	-3480
jin	-3481
istry	-3482
hu	-3483
oph	-3484
▁Internet	-3485
▁Energy	-3486
IP	-3487
▁yanzu	-3488
▁•	-3489
▁Health	-3490
ories	-3491
▁everything	-3492
itness	-3493
▁practices	-3494
▁establishment	-3495
▁tas	-3496
▁coll	-3497
▁mark	-3498
▁technologies	-3499
▁produc	-3500
iet	-3501
awar	-3502
▁Mat	-3503
▁Human	-3504
aik	-3505
▁University	-3506
▁Furthermore	-3507
▁pleased	-3508
ƙa	-3509
▁discussed	-3510
▁administration	-3511
▁border	-3512
▁AN	-3513
▁decide	-3514
pective	-3515
▁direction	-3516
hic	-3517
▁operation	-3518
zech	-3519
▁circumst	-3520
7.	-3521
itors	-3522
▁Niger	-3523
▁body	-3524
▁Fis	-3525
▁conference	-3526
uci	-3527
▁suppl	-3528
ocol	-3529
▁obtain	-3530
24	-3531
▁North	-3532
iber	-3533
inese	-3534
▁forces	-3535
pping	-3536
▁minimum	-3537
▁Serv	-3538
OM	-3539
fa	-3540
▁extent	-3541
anent	-3542
itic	-3543
">	-3544
entions	-3545
earch	-3546
▁Luxembourg	-3547
▁Ubangiji	-3548
▁status	-3549
joy	-3550
▁institutional	-3551
rete	-3552
DF	-3553
▁argu	-3554
abil	-3555
ports	-3556
▁directly	-3557
▁EIB	-3558
▁campaign	-3559
lam	-3560
▁deg	-3561
▁parts	-3562
▁beginning	-3563
ancial	-3564
uke	-3565
▁muna	-3566
▁congratulate	-3567
iri	-3568
uine	-3569
▁doubt	-3570
▁trust	-3571
▁lower	-3572
▁neighbour	-3573
▁bat	-3574
amman	-3575
▁record	-3576
▁despite	-3577
▁According	-3578
▁norm	-3579
acc	-3580
▁Agriculture	-3581
ategy	-3582
▁added	-3583
▁analysis	-3584
istics	-3585
illed	-3586
hel	-3587
ɗi	-3588
▁governance	-3589
▁rail	-3590
▁samu	-3591
▁vehic	-3592
▁British	-3593
itable	-3594
▁Czech	-3595
▁house	-3596
President	-3597
▁circumstances	-3598
▁supporting	-3599
shi	-3600
▁namely	-3601
unications	-3602
▁voting	-3603
anya	-3604
bur	-3605
ster	-3606
▁victims	-3607
ruary	-3608
▁bodies	-3609
▁includes	-3610
▁networks	-3611
ylum	-3612
hin	-3613
▁closely	-3614
▁standard	-3615
▁reality	-3616
▁Chinese	-3617
AM	-3618
▁tomorrow	-3619
akar	-3620
▁Invest	-3621
▁et	-3622
▁won	-3623
▁increasingly	-3624
▁try	-3625
▁class	-3626
gment	-3627
▁bind	-3628
▁domestic	-3629
▁reference	-3630
▁yank	-3631
▁Kirist	-3632
▁Prime	-3633
▁genuine	-3634
eter	-3635
▁abok	-3636
▁obligations	-3637
▁type	-3638
aving	-3639
imately	-3640
▁separ	-3641
ideo	-3642
▁pursu	-3643
▁Many	-3644
▁char	-3645
▁IT	-3646
▁Pre	-3647
▁Rec	-3648
▁Amendment	-3649
▁Strategy	-3650
▁monetary	-3651
▁February	-3652
▁Austria	-3653
▁#	-3654
▁girma	-3655
▁wajen	-3656
▁closed	-3657
alla	-3658
▁gw	-3659
▁ones	-3660
▁income	-3661
▁Under	-3662
▁adequ	-3663
▁currency	-3664
▁commercial	-3665
▁green	-3666
▁recommendations	-3667
▁Russian	-3668
▁authority	-3669
▁concent	-3670
▁Gl	-3671
▁regular	-3672
ots	-3673
hood	-3674
ront	-3675
▁kun	-3676
▁Sab	-3677
▁Although	-3678
▁Constitution	-3679
▁tw	-3680
▁cat	-3681
put	-3682
▁earth	-3683
▁India	-3684
▁safegu	-3685
▁burd	-3686
▁comment	-3687
ott	-3688
▁matsayin	-3689
▁bai	-3690
▁allowed	-3691
▁colleagues	-3692
▁den	-3693
eks	-3694
atan	-3695
▁expenditure	-3696
▁mil	-3697
▁Europeans	-3698
▁fellow	-3699
▁language	-3700
▁published	-3701
▁staff	-3702
roll	-3703
uki	-3704
imension	-3705
ourn	-3706
▁hor	-3707
Office	-3708
fect	-3709
▁occur	-3710
▁From	-3711
▁forms	-3712
▁reducing	-3713
▁wrong	-3714
▁binci	-3715
▁Joh	-3716
ades	-3717
ING	-3718
▁Green	-3719
▁Belgium	-3720
ody	-3721
▁sau	-3722
ancing	-3723
rely	-3724
▁concluded	-3725
▁persons	-3726
▁Christian	-3727
▁shown	-3728
▁wurin	-3729
▁Associ	-3730
▁adjust	-3731
▁sama	-3732
ume	-3733
vision	-3734
▁comply	-3735
▁stake	-3736
▁belie	-3737
▁Plan	-3738
▁Lord	-3739
isc	-3740
▁whom	-3741
ired	-3742
theless	-3743
▁gives	-3744
▁produce	-3745
▁highlight	-3746
▁dab	-3747
........	-3748
▁2018	-3749
inary	-3750
▁Secondly	-3751
see	-3752
ano	-3753
▁paid	-3754
▁Mus	-3755
▁dead	-3756
▁party	-3757
▁targets	-3758
anna	-3759
▁president	-3760
acter	-3761
pol	-3762
▁concrete	-3763
ocks	-3764
▁culture	-3765
omp	-3766
▁speed	-3767
ino	-3768
ayya	-3769
itial	-3770
▁Air	-3771
European	-3772
▁Har	-3773
▁alone	-3774
▁criminal	-3775
anen	-3776
▁message	-3777
▁quot	-3778
▁integrated	-3779
▁regulatory	-3780
▁SMEs	-3781
39	-3782
ifying	-3783
based	-3784
▁hearing	-3785
AF	-3786
▁max	-3787
icro	-3788
▁animal	-3789
▁Bo	-3790
▁Lab	-3791
making	-3792
▁Sam	-3793
▁undertak	-3794
reci	-3795
▁Nor	-3796
▁reduced	-3797
▁establishing	-3798
▁hank	-3799
prus	-3800
ables	-3801
▁2001	-3802
dra	-3803
▁Est	-3804
▁2013	-3805
▁impl	-3806
:2	-3807
ahim	-3808
▁heard	-3809
▁payments	-3810
▁Middle	-3811
▁love	-3812
▁bad	-3813
aro	-3814
--	-3815
▁appoint	-3816
itious	-3817
▁alternative	-3818
▁Not	-3819
▁willing	-3820
▁Bulgaria	-3821
ients	-3822
UR	-3823
view	-3824
▁weeks	-3825
▁represents	-3826
▁5.	-3827
rel	-3828
kin	-3829
▁Even	-3830
▁kowane	-3831
aranta	-3832
▁huge	-3833
▁div	-3834
▁Mediterranean	-3835
uses	-3836
▁Car	-3837
itation	-3838
▁sources	-3839
▁equip	-3840
elling	-3841
▁recovery	-3842
▁Public	-3843
▁typ	-3844
going	-3845
▁opening	-3846
▁Cyprus	-3847
▁highly	-3848
▁32	-3849
▁concept	-3850
▁Techn	-3851
▁hann	-3852
▁enjoy	-3853
▁Sun	-3854
▁Par	-3855
ronic	-3856
▁AC	-3857
▁immigration	-3858
▁electric	-3859
▁penal	-3860
▁sl	-3861
arka	-3862
▁Research	-3863
awo	-3864
▁software	-3865
▁gare	-3866
▁tour	-3867
SE	-3868
ese	-3869
▁remind	-3870
▁deliver	-3871
▁pension	-3872
▁Eng	-3873
▁Contact	-3874
▁tsarin	-3875
itude	-3876
70	-3877
▁observ	-3878
▁Den	-3879
▁sufficient	-3880
▁awa	-3881
mm	-3882
▁outcome	-3883
▁deficit	-3884
▁caused	-3885
oor	-3886
▁worth	-3887
11	-3888
▁investigation	-3889
▁Sup	-3890
▁difficulties	-3891
▁candidate	-3892
▁critic	-3893
▁stated	-3894
▁infringement	-3895
▁sett	-3896
orpor	-3897
▁came	-3898
▁leave	-3899
▁surve	-3900
▁multi	-3901
▁finally	-3902
▁Eas	-3903
▁transfer	-3904
▁intended	-3905
▁thanks	-3906
▁investments	-3907
vert	-3908
▁Ha	-3909
▁aud	-3910
uy	-3911
▁combat	-3912
▁hy	-3913
▁Spanish	-3914
▁laws	-3915
▁ayy	-3916
▁Such	-3917
▁Financial	-3918
ester	-3919
je	-3920
▁People	-3921
▁Work	-3922
▁designed	-3923
requ	-3924
cast	-3925
'.	-3926
▁gaskiya	-3927
▁occas	-3928
▁bir	-3929
▁presidency	-3930
oci	-3931
▁nuf	-3932
▁evidence	-3933
rep	-3934
▁35	-3935
▁Kos	-3936
▁yau	-3937
▁univers	-3938
▁thous	-3939
hers	-3940
▁African	-3941
ze	-3942
▁tsak	-3943
▁asylum	-3944
▁Sol	-3945
aching	-3946
▁instead	-3947
▁elements	-3948
▁enforce	-3949
▁completely	-3950
▁introduction	-3951
▁Western	-3952
▁Association	-3953
▁excess	-3954
▁Yan	-3955
▁Summit	-3956
▁initial	-3957
▁choice	-3958
▁Paper	-3959
bal	-3960
▁Cro	-3961
▁ruwa	-3962
▁acquis	-3963
load	-3964
rats	-3965
▁Kore	-3966
▁Arab	-3967
▁Organ	-3968
▁2015	-3969
▁histor	-3970
▁complex	-3971
▁fas	-3972
▁hours	-3973
▁er	-3974
rid	-3975
▁disp	-3976
▁continued	-3977
ips	-3978
hib	-3979
OP	-3980
▁credit	-3981
▁discrimination	-3982
▁tren	-3983
▁feed	-3984
het	-3985
book	-3986
▁earl	-3987
▁sake	-3988
▁OF	-3989
ows	-3990
▁yawan	-3991
▁win	-3992
quir	-3993
▁Ac	-3994
▁bang	-3995
▁tabled	-3996
▁Asia	-3997
▁bayyana	-3998
▁explo	-3999
▁Per	-4000
▁2014	-4001
ww	-4002
▁summ	-4003
▁considerable	-4004
afiya	-4005
".	-4006
▁taf	-4007
▁kafa	-4008
-2	-4009
▁dace	-4010
▁scheme	-4011
▁sex	-4012
▁Paul	-4013
▁easy	-4014
portion	-4015
▁connection	-4016
bu	-4017
▁eth	-4018
▁Agency	-4019
▁magana	-4020
▁muka	-4021
▁masa	-4022
utin	-4023
ught	-4024
▁Italian	-4025
▁daya	-4026
cl	-4027
ery	-4028
▁CE	-4029
▁ideas	-4030
▁wid	-4031
▁works	-4032
▁legit	-4033
▁produced	-4034
▁198	-4035
▁speech	-4036
▁constitution	-4037
37	-4038
▁vir	-4039
▁granted	-4040
▁visit	-4041
asar	-4042
▁summit	-4043
▁path	-4044
▁duty	-4045
▁fi	-4046
▁fus	-4047
ona	-4048
▁1999	-4049
aches	-4050
▁mainly	-4051
▁spok	-4052
▁negative	-4053
▁truth	-4054
▁West	-4055
agraph	-4056
illing	-4057
▁raise	-4058
ovo	-4059
▁series	-4060
▁shared	-4061
mical	-4062
▁Hungary	-4063
▁warn	-4064
▁character	-4065
itory	-4066
▁ability	-4067
▁relative	-4068
▁Communication	-4069
ches	-4070
▁Yet	-4071
▁Budget	-4072
▁spending	-4073
▁sami	-4074
▁mutual	-4075
▁compens	-4076
anka	-4077
▁der	-4078
oly	-4079
▁accepted	-4080
▁please	-4081
▁goal	-4082
▁recognition	-4083
▁mana	-4084
lection	-4085
6)	-4086
▁clar	-4087
▁2012	-4088
▁slow	-4089
▁autom	-4090
▁organised	-4091
ishes	-4092
oration	-4093
▁office	-4094
▁version	-4095
ulations	-4096
▁signed	-4097
hern	-4098
▁dimension	-4099
▁Trump	-4100
▁ahead	-4101
▁ambitious	-4102
▁Follow	-4103
▁Last	-4104
Os	-4105
▁vo	-4106
▁construct	-4107
▁introduced	-4108
▁serve	-4109
holders	-4110
▁failure	-4111
▁consumption	-4112
▁2017	-4113
used	-4114
▁Representative	-4115
▁bilateral	-4116
▁waɗannan	-4117
4)	-4118
▁mach	-4119
▁60	-4120
▁formal	-4121
govern	-4122
anian	-4123
▁talking	-4124
www	-4125
▁Slovak	-4126
atin	-4127
itime	-4128
▁improvement	-4129
aces	-4130
▁Ann	-4131
▁election	-4132
▁animals	-4133
▁construction	-4134
▁Report	-4135
▁critical	-4136
▁transl	-4137
▁defence	-4138
▁Afgh	-4139
▁appreci	-4140
▁facilitate	-4141
▁meetings	-4142
▁refugees	-4143
▁operations	-4144
ako	-4145
▁followed	-4146
▁upd	-4147
pped	-4148
riers	-4149
▁damage	-4150
▁flow	-4151
uations	-4152
▁pred	-4153
▁goes	-4154
▁comments	-4155
▁obst	-4156
▁propose	-4157
itten	-4158
▁police	-4159
itter	-4160
▁latest	-4161
ournal	-4162
uty	-4163
etimes	-4164
▁influence	-4165
▁Finland	-4166
▁producers	-4167
omb	-4168
ule	-4169
ulated	-4170
coming	-4171
umb	-4172
manci	-4173
osp	-4174
▁achieving	-4175
▁Over	-4176
▁bukatar	-4177
▁equipment	-4178
ilt	-4179
ruption	-4180
▁Information	-4181
▁rana	-4182
▁ult	-4183
▁extra	-4184
called	-4185
▁Ib	-4186
▁Islam	-4187
▁prospect	-4188
▁Investment	-4189
▁boost	-4190
▁structure	-4191
▁Croat	-4192
▁muhim	-4193
ship	-4194
▁performance	-4195
45	-4196
ater	-4197
▁describ	-4198
99	-4199
▁musamman	-4200
▁trying	-4201
▁launched	-4202
vered	-4203
oo	-4204
▁cooper	-4205
▁interp	-4206
igrants	-4207
AD	-4208
▁prevention	-4209
▁Afghan	-4210
▁Eastern	-4211
▁trading	-4212
economic	-4213
ƙi	-4214
▁passeng	-4215
illions	-4216
iable	-4217
▁00	-4218
▁Dav	-4219
▁looking	-4220
▁Framework	-4221
▁referred	-4222
▁gab	-4223
▁unc	-4224
▁lost	-4225
▁join	-4226
/2	-4227
▁Er	-4228
▁etc	-4229
▁launch	-4230
▁closer	-4231
ky	-4232
▁arrangements	-4233
duc	-4234
▁sad	-4235
oma	-4236
ev	-4237
ris	-4238
standing	-4239
▁reserv	-4240
▁mer	-4241
aha	-4242
▁opposition	-4243
38	-4244
▁restruct	-4245
▁consideration	-4246
▁babban	-4247
▁mobility	-4248
▁convin	-4249
▁submitted	-4250
7)	-4251
▁partner	-4252
▁Yana	-4253
▁Kosovo	-4254
unan	-4255
▁facing	-4256
▁earlier	-4257
▁weap	-4258
▁gradu	-4259
▁understanding	-4260
▁remov	-4261
▁condem	-4262
▁union	-4263
▁advantage	-4264
lined	-4265
ique	-4266
▁Partners	-4267
▁ut	-4268
▁medic	-4269
▁covered	-4270
▁ready	-4271
▁failed	-4272
icking	-4273
▁largest	-4274
▁send	-4275
onn	-4276
antic	-4277
AG	-4278
▁complain	-4279
▁thought	-4280
urea	-4281
▁transparent	-4282
▁claim	-4283
▁Palestinian	-4284
▁Greek	-4285
▁baya	-4286
▁wants	-4287
▁2016	-4288
▁mata	-4289
▁urgent	-4290
▁email	-4291
▁saboda	-4292
▁unl	-4293
▁Single	-4294
▁professional	-4295
ulner	-4296
uku	-4297
ube	-4298
▁consolid	-4299
-19	-4300
lying	-4301
iction	-4302
set	-4303
ming	-4304
▁renewable	-4305
▁je	-4306
▁Word	-4307
▁tamb	-4308
▁Cop	-4309
▁started	-4310
▁John	-4311
▁intervention	-4312
▁goals	-4313
▁pan	-4314
▁fraud	-4315
▁useful	-4316
▁continues	-4317
IR	-4318
▁digital	-4319
da	-4320
▁Employment	-4321
kan	-4322
▁sauran	-4323
ony	-4324
▁Common	-4325
▁manner	-4326
SP	-4327
▁fiye	-4328
▁parliamentary	-4329
ensus	-4330
▁cal	-4331
CE	-4332
▁abubuwa	-4333
▁hankali	-4334
▁methods	-4335
▁hid	-4336
0.	-4337
▁attract	-4338
▁told	-4339
▁acknow	-4340
▁Aud	-4341
▁break	-4342
izing	-4343
rem	-4344
▁mechanisms	-4345
▁equality	-4346
75	-4347
▁becoming	-4348
adi	-4349
▁kamf	-4350
____	-4351
▁estim	-4352
▁promotion	-4353
▁absolutely	-4354
▁significantly	-4355
▁agencies	-4356
itr	-4357
▁wanted	-4358
▁century	-4359
▁migration	-4360
che	-4361
▁farin	-4362
ogle	-4363
▁Kar	-4364
ATION	-4365
▁Aid	-4366
▁hear	-4367
▁vulner	-4368
▁log	-4369
▁addressed	-4370
raz	-4371
ikin	-4372
iers	-4373
idents	-4374
vereign	-4375
▁withdra	-4376
iles	-4377
▁anything	-4378
▁dangerous	-4379
irgin	-4380
▁Sch	-4381
▁balanced	-4382
▁secure	-4383
▁45	-4384
▁Bayan	-4385
▁abu	-4386
ɗin	-4387
▁simple	-4388
oul	-4389
▁sanctions	-4390
uni	-4391
▁differences	-4392
▁noted	-4393
▁dal	-4394
▁proceedings	-4395
46	-4396
▁informed	-4397
▁cities	-4398
enn	-4399
▁cy	-4400
▁below	-4401
▁Cooperation	-4402
▁disease	-4403
▁associated	-4404
va	-4405
▁delegation	-4406
▁subsidi	-4407
▁appear	-4408
▁controls	-4409
IV	-4410
▁dealing	-4411
uch	-4412
▁students	-4413
▁participate	-4414
▁31	-4415
▁safeguard	-4416
▁Regional	-4417
▁site	-4418
▁unac	-4419
▁sovereign	-4420
▁zo	-4421
▁Act	-4422
▁shafi	-4423
sized	-4424
▁offers	-4425
▁Office	-4426
▁jin	-4427
▁specifically	-4428
porary	-4429
▁displ	-4430
▁phone	-4431
▁brief	-4432
▁dog	-4433
▁forth	-4434
▁Denmark	-4435
▁supports	-4436
▁Wa	-4437
▁gave	-4438
▁muke	-4439
ruit	-4440
ugg	-4441
▁Tim	-4442
▁Sea	-4443
▁urban	-4444
▁skills	-4445
▁500	-4446
ps	-4447
▁Sim	-4448
▁bauta	-4449
▁Red	-4450
▁users	-4451
icial	-4452
▁properly	-4453
▁mandate	-4454
▁laid	-4455
▁operators	-4456
lin	-4457
▁paragraph	-4458
▁source	-4459
▁seriously	-4460
adin	-4461
▁Tw	-4462
▁(2	-4463
▁mur	-4464
ca	-4465
▁Syr	-4466
▁via	-4467
▁waters	-4468
▁hot	-4469
▁Struct	-4470
▁precisely	-4471
▁prosper	-4472
▁compared	-4473
▁exact	-4474
▁Ky	-4475
IA	-4476
▁contacts	-4477
▁El	-4478
▁page	-4479
▁exercise	-4480
▁Che	-4481
▁Educ	-4482
▁electricity	-4483
▁manufacturer	-4484
▁tim	-4485
▁Ko	-4486
ithu	-4487
▁inflation	-4488
▁table	-4489
▁Transport	-4490
▁remark	-4491
▁approval	-4492
actory	-4493
ules	-4494
amf	-4495
▁Comp	-4496
▁DE	-4497
▁Food	-4498
▁experts	-4499
▁individuals	-4500
▁succeed	-4501
▁delay	-4502
▁Croatia	-4503
▁demands	-4504
▁independence	-4505
akam	-4506
▁burden	-4507
HO	-4508
▁welcomed	-4509
▁considers	-4510
▁charg	-4511
▁La	-4512
▁dar	-4513
▁unaccept	-4514
▁thinking	-4515
zo	-4516
9)	-4517
▁sabon	-4518
ring	-4519
▁territory	-4520
▁functioning	-4521
▁allows	-4522
▁connect	-4523
emic	-4524
▁adequate	-4525
▁payment	-4526
▁appeal	-4527
icated	-4528
▁Partnership	-4529
▁lif	-4530
▁System	-4531
▁strict	-4532
▁block	-4533
EMO	-4534
▁proc	-4535
iyan	-4536
cel	-4537
lav	-4538
36	-4539
▁bisa	-4540
governmental	-4541
rew	-4542
arda	-4543
▁Men	-4544
mission	-4545
▁akwai	-4546
▁clean	-4547
▁evaluation	-4548
▁Never	-4549
atform	-4550
▁acts	-4551
▁innovative	-4552
▁Irish	-4553
▁probably	-4554
34	-4555
orthern	-4556
uting	-4557
▁size	-4558
▁mun	-4559
roid	-4560
urs	-4561
▁detailed	-4562
▁membership	-4563
▁gidan	-4564
▁compar	-4565
,”	-4566
▁shekaru	-4567
▁forest	-4568
▁degree	-4569
izon	-4570
▁ISO	-4571
▁contrary	-4572
▁details	-4573
▁Ak	-4574
▁Democrats	-4575
▁Sci	-4576
▁taxation	-4577
▁follows	-4578
▁categ	-4579
▁White	-4580
▁6.	-4581
▁cod	-4582
▁city	-4583
uck	-4584
▁operational	-4585
▁communities	-4586
▁react	-4587
▁exec	-4588
ript	-4589
▁masana	-4590
▁wind	-4591
▁Nat	-4592
icians	-4593
▁stim	-4594
▁sides	-4595
▁stock	-4596
▁parent	-4597
▁David	-4598
▁Us	-4599
▁800	-4600
▁compliance	-4601
IF	-4602
▁AP	-4603
▁territor	-4604
ulture	-4605
▁mobile	-4606
press	-4607
hest	-4608
▁hop	-4609
▁motion	-4610
▁condemn	-4611
enced	-4612
▁Lithu	-4613
▁lay	-4614
8)	-4615
gence	-4616
▁identified	-4617
▁organisation	-4618
▁1,	-4619
▁Consum	-4620
▁Mun	-4621
▁ES	-4622
▁tro	-4623
▁Director	-4624
▁contains	-4625
▁Sloven	-4626
▁Sub	-4627
▁dai	-4628
▁Georg	-4629
▁sometimes	-4630
.,	-4631
▁zuci	-4632
▁round	-4633
▁video	-4634
▁chance	-4635
▁managed	-4636
atures	-4637
oll	-4638
rate	-4639
▁Then	-4640
▁immediately	-4641
road	-4642
▁imports	-4643
▁intention	-4644
ashe	-4645
▁Serb	-4646
▁Domin	-4647
▁Firstly	-4648
▁prop	-4649
year	-4650
xic	-4651
▁figures	-4652
▁obstac	-4653
▁wu	-4654
▁unacceptable	-4655
▁Free	-4656
▁maximum	-4657
▁continuing	-4658
▁incent	-4659
▁Turk	-4660
▁flexibility	-4661
Ch	-4662
▁enhance	-4663
anim	-4664
▁vehicles	-4665
▁transition	-4666
▁sort	-4667
▁sitting	-4668
▁perspective	-4669
gypt	-4670
▁benefic	-4671
▁ign	-4672
try	-4673
▁proposes	-4674
▁exports	-4675
▁tana	-4676
▁inquir	-4677
orin	-4678
▁mist	-4679
fered	-4680
ixed	-4681
▁distribution	-4682
bar	-4683
▁kuwa	-4684
▁daban	-4685
▁Education	-4686
aga	-4687
▁Shin	-4688
95	-4689
▁bringing	-4690
aid	-4691
▁team	-4692
amu	-4693
▁Ro	-4694
▁generally	-4695
▁unf	-4696
▁Head	-4697
▁restructuring	-4698
▁statements	-4699
▁wad	-4700
▁introduce	-4701
▁fara	-4702
▁Agenda	-4703
▁affairs	-4704
▁vari	-4705
▁happened	-4706
▁firms	-4707
▁helping	-4708
▁Funds	-4709
▁entry	-4710
▁constant	-4711
%.	-4712
ought	-4713
let	-4714
▁nufin	-4715
▁factors	-4716
zone	-4717
▁gender	-4718
▁decades	-4719
di	-4720
▁remember	-4721
▁immediate	-4722
▁Protection	-4723
▁disci	-4724
▁Yug	-4725
▁VAT	-4726
mar	-4727
▁perfect	-4728
ciliation	-4729
▁Tun	-4730
▁announced	-4731
▁rai	-4732
cont	-4733
▁Nigeria	-4734
In	-4735
TH	-4736
▁proportion	-4737
▁welcomes	-4738
▁became	-4739
▁musu	-4740
▁medical	-4741
▁calling	-4742
▁Third	-4743
▁traditional	-4744
▁speaking	-4745
atically	-4746
utar	-4747
▁linked	-4748
▁warm	-4749
▁conclude	-4750
▁dipl	-4751
▁release	-4752
▁Leg	-4753
respon	-4754
▁resist	-4755
EA	-4756
▁Ke	-4757
lantic	-4758
▁mid	-4759
▁pollution	-4760
▁consensus	-4761
▁customs	-4762
▁War	-4763
▁Global	-4764
▁strongly	-4765
▁Structural	-4766
▁Law	-4767
atible	-4768
iyawa	-4769
mbly	-4770
▁spread	-4771
▁tackle	-4772
▁traffic	-4773
▁applications	-4774
▁bear	-4775
▁Egypt	-4776
▁ST	-4777
ENT	-4778
▁AND	-4779
▁regist	-4780
▁Every	-4781
▁Christians	-4782
▁surpr	-4783
▁shug	-4784
▁lines	-4785
▁planning	-4786
fare	-4787
▁session	-4788
▁presence	-4789
▁positions	-4790
▁ing	-4791
▁Read	-4792
▁Mor	-4793
▁drawn	-4794
▁Rel	-4795
▁fish	-4796
uda	-4797
▁Ministry	-4798
▁iP	-4799
▁occup	-4800
▁late	-4801
▁mal	-4802
▁Google	-4803
ifications	-4804
cle	-4805
▁offered	-4806
▁enforcement	-4807
dam	-4808
▁foot	-4809
▁EN	-4810
▁expression	-4811
▁near	-4812
posed	-4813
▁Its	-4814
PL	-4815
▁himself	-4816
amin	-4817
▁officials	-4818
▁weapons	-4819
▁declaration	-4820
▁Federal	-4821
▁binding	-4822
▁chemical	-4823
▁Deputy	-4824
▁definition	-4825
▁1998	-4826
▁Quest	-4827
▁underm	-4828
▁Ass	-4829
fafa	-4830
▁Korea	-4831
▁powerful	-4832
▁ongoing	-4833
ESS	-4834
▁2011	-4835
90	-4836
▁Far	-4837
▁select	-4838
▁Bec	-4839
ourage	-4840
▁Fisheries	-4841
▁fahim	-4842
▁sets	-4843
▁purch	-4844
▁um	-4845
▁electronic	-4846
▁involving	-4847
▁structures	-4848
inc	-4849
▁leadership	-4850
ilies	-4851
azi	-4852
irin	-4853
▁languages	-4854
▁popular	-4855
▁convinced	-4856
▁misali	-4857
▁Shi	-4858
▁traff	-4859
▁Op	-4860
▁mission	-4861
▁restrictions	-4862
▁Monetary	-4863
room	-4864
▁art	-4865
reneur	-4866
▁combating	-4867
▁Decision	-4868
▁Afghanistan	-4869
▁Most	-4870
▁IM	-4871
▁Mini	-4872
▁tools	-4873
raft	-4874
▁Tel	-4875
▁instance	-4876
65	-4877
▁Bulus	-4878
▁Yoh	-4879
▁neither	-4880
▁rightly	-4881
▁worked	-4882
repreneur	-4883
▁Joint	-4884
▁Only	-4885
▁enorm	-4886
▁Those	-4887
▁politics	-4888
▁33	-4889
eff	-4890
ties	-4891
▁Internal	-4892
▁Ina	-4893
▁During	-4894
▁Cong	-4895
48	-4896
arta	-4897
▁desire	-4898
▁sea	-4899
▁seeking	-4900
▁incorpor	-4901
▁applies	-4902
acro	-4903
▁types	-4904
▁unanim	-4905
▁ri	-4906
▁meaning	-4907
▁hum	-4908
▁situations	-4909
ding	-4910
▁295	-4911
▁Bur	-4912
▁reve	-4913
rain	-4914
▁check	-4915
▁scale	-4916
ops	-4917
▁liberalisation	-4918
▁behav	-4919
▁shiga	-4920
▁steel	-4921
ayayy	-4922
▁Area	-4923
▁paper	-4924
▁materials	-4925
▁property	-4926
▁judicial	-4927
▁happy	-4928
▁diplom	-4929
▁technological	-4930
▁Krist	-4931
▁vulnerable	-4932
▁Pact	-4933
▁strategies	-4934
jo	-4935
hengen	-4936
▁worldwide	-4937
▁thousands	-4938
▁drugs	-4939
▁accounts	-4940
▁Latv	-4941
▁percent	-4942
hab	-4943
▁shaw	-4944
▁Charter	-4945
▁board	-4946
",	-4947
armu	-4948
▁reply	-4949
▁Spe	-4950
▁plant	-4951
▁opinions	-4952
arra	-4953
▁Unfortunately	-4954
▁distort	-4955
▁written	-4956
▁substances	-4957
▁involvement	-4958
arus	-4959
▁base	-4960
▁His	-4961
▁MEMO	-4962
▁quant	-4963
▁element	-4964
▁ana	-4965
▁thereby	-4966
▁Nevertheless	-4967
▁Ber	-4968
▁Lib	-4969
▁Instit	-4970
▁fuel	-4971
▁miss	-4972
▁tsakanin	-4973
-200	-4974
▁forget	-4975
FR	-4976
iling	-4977
▁Saboda	-4978
▁yanar	-4979
▁putting	-4980
OT	-4981
yes	-4982
▁samf	-4983
▁compon	-4984
▁guda	-4985
CH	-4986
▁Barro	-4987
▁bon	-4988
har	-4989
▁cou	-4990
oslav	-4991
▁Aug	-4992
▁option	-4993
▁religious	-4994
▁easier	-4995
▁lafiya	-4996
▁34	-4997
▁consistent	-4998
▁Schengen	-4999
▁interested	-5000
uds	-5001
▁Face	-5002
▁barriers	-5003
undred	-5004
oring	-5005
airman	-5006
▁Mag	-5007
▁nations	-5008
▁entirely	-5009
▁families	-5010
aca	-5011
▁learning	-5012
▁talks	-5013
ynam	-5014
▁rig	-5015
astic	-5016
▁tuna	-5017
▁changed	-5018
▁Android	-5019
7,	-5020
sequently	-5021
▁phys	-5022
▁Author	-5023
▁PDF	-5024
reness	-5025
oli	-5026
▁phase	-5027
ATO	-5028
▁Finance	-5029
▁improvements	-5030
▁prep	-5031
▁original	-5032
▁suffering	-5033
agen	-5034
▁letter	-5035
▁truly	-5036
▁asking	-5037
aniya	-5038
▁elimin	-5039
▁Kas	-5040
▁myself	-5041
▁muhimmanci	-5042
▁Marble	-5043
▁ɓ	-5044
▁Time	-5045
ervation	-5046
▁extend	-5047
▁ɗaya	-5048
urally	-5049
▁GM	-5050
poses	-5051
▁examine	-5052
wal	-5053
▁tabbatar	-5054
▁Fl	-5055
▁kula	-5056
▁encouraging	-5057
▁diseases	-5058
time	-5059
▁lik	-5060
▁normal	-5061
▁gwa	-5062
▁ina	-5063
▁fields	-5064
▁starting	-5065
▁contributions	-5066
▁Sai	-5067
▁Following	-5068
▁tourism	-5069
▁article	-5070
▁exclud	-5071
▁getting	-5072
▁Dr	-5073
▁ita	-5074
▁spent	-5075
ls	-5076
▁investors	-5077
▁directives	-5078
▁stocks	-5079
razil	-5080
▁pointed	-5081
inn	-5082
▁effectiveness	-5083
▁wonder	-5084
ashen	-5085
ora	-5086
auna	-5087
ployed	-5088
▁acceptable	-5089
▁Lithuania	-5090
▁IC	-5091
▁obligation	-5092
▁kana	-5093
▁multilateral	-5094
▁carbon	-5095
▁insurance	-5096
▁corruption	-5097
▁targeted	-5098
nic	-5099
▁SA	-5100
▁began	-5101
▁67	-5102
▁corpor	-5103
▁guarantees	-5104
▁ec	-5105
▁fast	-5106
lish	-5107
▁kus	-5108
▁abubuwan	-5109
▁Yugoslav	-5110
▁destro	-5111
▁vision	-5112
▁Product	-5113
uff	-5114
▁75	-5115
▁prepare	-5116
▁limits	-5117
▁pursue	-5118
▁rubuta	-5119
▁allowing	-5120
▁ɗan	-5121
▁frequ	-5122
▁Grow	-5123
▁operating	-5124
▁70	-5125
▁stronger	-5126
▁huk	-5127
▁recommendation	-5128
',	-5129
.)	-5130
▁inda	-5131
▁hom	-5132
house	-5133
arc	-5134
▁Ste	-5135
▁San	-5136
▁expand	-5137
▁voice	-5138
abilities	-5139
▁Protocol	-5140
21	-5141
▁shig	-5142
▁diversity	-5143
care	-5144
daban	-5145
ɗe	-5146
uwanci	-5147
▁represented	-5148
▁disaster	-5149
TER	-5150
oles	-5151
▁welfare	-5152
ilis	-5153
▁Pak	-5154
amn	-5155
ukar	-5156
▁Ver	-5157
▁wealth	-5158
▁Stability	-5159
▁industries	-5160
IM	-5161
▁pray	-5162
▁space	-5163
▁studies	-5164
▁stable	-5165
▁mutanen	-5166
▁Your	-5167
▁COM	-5168
▁defend	-5169
▁80	-5170
▁honourable	-5171
▁faced	-5172
▁identify	-5173
▁emergency	-5174
▁condition	-5175
▁imposed	-5176
3,	-5177
▁charge	-5178
▁Belarus	-5179
charge	-5180
ilst	-5181
vent	-5182
▁planned	-5183
▁attacks	-5184
▁Her	-5185
oral	-5186
▁7.	-5187
acco	-5188
▁choose	-5189
▁awareness	-5190
▁subsidies	-5191
antu	-5192
▁hundred	-5193
▁fulfil	-5194
▁Sm	-5195
▁highest	-5196
▁helped	-5197
▁elected	-5198
▁greatest	-5199
▁employees	-5200
▁News	-5201
▁Wall	-5202
▁Because	-5203
▁defined	-5204
▁complement	-5205
arshe	-5206
IG	-5207
▁PRO	-5208
▁hands	-5209
▁advanced	-5210
enh	-5211
▁meant	-5212
▁Mut	-5213
▁unable	-5214
▁yester	-5215
▁brother	-5216
▁MEP	-5217
▁Will	-5218
▁kira	-5219
▁resolve	-5220
▁prohib	-5221
▁pun	-5222
▁buy	-5223
▁seven	-5224
▁continent	-5225
▁af	-5226
atever	-5227
▁tend	-5228
▁Malta	-5229
▁Compet	-5230
iyya	-5231
▁forced	-5232
▁abol	-5233
▁unfortunately	-5234
▁yesterday	-5235
awan	-5236
▁gaya	-5237
▁Bay	-5238
▁volunt	-5239
▁lic	-5240
▁urge	-5241
thern	-5242
▁prison	-5243
▁excessive	-5244
verse	-5245
▁Slovenia	-5246
▁purposes	-5247
arsa	-5248
inal	-5249
▁alb	-5250
▁politicians	-5251
▁draf	-5252
▁court	-5253
sterdam	-5254
▁confirmed	-5255
▁contracts	-5256
▁stakeholders	-5257
▁Mer	-5258
ilding	-5259
▁impossible	-5260
▁dynam	-5261
▁colleague	-5262
▁determined	-5263
▁gida	-5264
▁manage	-5265
▁Kiristoci	-5266
okin	-5267
▁emerging	-5268
ellig	-5269
lusive	-5270
▁placed	-5271
▁Matt	-5272
▁expert	-5273
ald	-5274
ɓa	-5275
▁accomp	-5276
▁Hak	-5277
▁shine	-5278
▁causes	-5279
▁trafficking	-5280
2,	-5281
▁fine	-5282
▁reven	-5283
▁Slovakia	-5284
▁millions	-5285
urb	-5286
▁rayuwa	-5287
ox	-5288
aic	-5289
gn	-5290
position	-5291
▁anyone	-5292
amber	-5293
▁Brazil	-5294
▁toward	-5295
▁Minutes	-5296
▁prem	-5297
▁emphasis	-5298
wing	-5299
oon	-5300
▁Mul	-5301
▁Given	-5302
98	-5303
▁confident	-5304
▁ded	-5305
▁regret	-5306
ova	-5307
▁Turkish	-5308
▁Rules	-5309
▁referen	-5310
yle	-5311
asters	-5312
▁Amsterdam	-5313
▁difference	-5314
▁visa	-5315
▁cikak	-5316
▁protecting	-5317
▁Muna	-5318
▁terrorist	-5319
▁constructive	-5320
▁largely	-5321
▁discussing	-5322
28	-5323
▁Cr	-5324
▁went	-5325
▁ciniki	-5326
▁CAP	-5327
▁pill	-5328
▁enormous	-5329
▁maritime	-5330
▁Any	-5331
endly	-5332
oples	-5333
▁89	-5334
▁attitude	-5335
▁temporary	-5336
▁NATO	-5337
outhern	-5338
▁exactly	-5339
▁issued	-5340
▁merely	-5341
▁Like	-5342
rade	-5343
▁inclusion	-5344
);	-5345
▁Zab	-5346
▁sensitive	-5347
itz	-5348
▁actual	-5349
▁Despite	-5350
▁Met	-5351
▁youth	-5352
▁Ga	-5353
▁Yah	-5354
pth	-5355
▁permanent	-5356
▁leader	-5357
▁Gal	-5358
ax	-5359
▁ves	-5360
▁insist	-5361
anne	-5362
▁Latin	-5363
▁Roma	-5364
▁factor	-5365
▁Twitter	-5366
▁x	-5367
▁amounts	-5368
▁assets	-5369
▁protected	-5370
▁strength	-5371
icit	-5372
▁appears	-5373
alk	-5374
▁EM	-5375
mp	-5376
▁judgment	-5377
▁platform	-5378
down	-5379
▁Facebook	-5380
▁friends	-5381
▁taxes	-5382
▁36	-5383
▁examples	-5384
▁ranar	-5385
▁recognise	-5386
▁Where	-5387
▁marg	-5388
▁yanayin	-5389
▁Ur	-5390
▁entit	-5391
▁lamb	-5392
▁opened	-5393
▁sustainability	-5394
▁macro	-5395
▁yar	-5396
▁addu	-5397
General	-5398
▁recognised	-5399
▁morning	-5400
fficial	-5401
attle	-5402
▁labor	-5403
▁ant	-5404
▁kayayy	-5405
▁sil	-5406
▁uku	-5407
▁ministers	-5408
▁expectations	-5409
▁depart	-5410
▁generation	-5411
▁sani	-5412
ries	-5413
lim	-5414
DA	-5415
umin	-5416
▁advance	-5417
▁permit	-5418
▁agg	-5419
udsman	-5420
▁kasar	-5421
▁koya	-5422
▁cop	-5423
urement	-5424
▁rich	-5425
▁kafin	-5426
▁Bos	-5427
▁obviously	-5428
▁separate	-5429
▁NG	-5430
afety	-5431
▁daily	-5432
▁floor	-5433
▁Estonia	-5434
asino	-5435
▁Paris	-5436
mas	-5437
▁motor	-5438
ɓi	-5439
▁treaty	-5440
▁tafiya	-5441
▁primary	-5442
icture	-5443
▁requested	-5444
▁pain	-5445
▁belong	-5446
▁exceed	-5447
arliaments	-5448
▁code	-5449
▁Latvia	-5450
tar	-5451
orse	-5452
▁Swedish	-5453
▁compensation	-5454
▁operate	-5455
▁Growth	-5456
▁Serbia	-5457
/20	-5458
26	-5459
oud	-5460
▁Both	-5461
▁halitt	-5462
▁banking	-5463
▁impose	-5464
▁severe	-5465
▁options	-5466
▁internet	-5467
4,	-5468
▁arms	-5469
▁Kristi	-5470
▁nation	-5471
▁Mu	-5472
▁entrepreneur	-5473
ɗan	-5474
▁intens	-5475
iah	-5476
▁stay	-5477
▁adopting	-5478
ni	-5479
▁Pet	-5480
▁Proced	-5481
eties	-5482
▁saw	-5483
reet	-5484
▁burea	-5485
▁ship	-5486
▁tall	-5487
▁witness	-5488
▁prosperity	-5489
▁Bet	-5490
▁built	-5491
▁statistics	-5492
rees	-5493
▁August	-5494
▁1990	-5495
▁bit	-5496
ounting	-5497
ses	-5498
cific	-5499
▁ACP	-5500
ungiyar	-5501
▁front	-5502
▁Thus	-5503
▁https	-5504
▁wall	-5505
struction	-5506
tries	-5507
▁engine	-5508
ulating	-5509
▁Here	-5510
▁Ku	-5511
arai	-5512
▁rejected	-5513
▁customers	-5514
▁Rural	-5515
inta	-5516
rolled	-5517
ushe	-5518
▁replace	-5519
unta	-5520
▁repeated	-5521
▁(1)	-5522
▁cert	-5523
ellect	-5524
▁requirement	-5525
ati	-5526
▁criticism	-5527
▁pack	-5528
▁science	-5529
▁advice	-5530
▁flexible	-5531
▁moving	-5532
▁trib	-5533
edly	-5534
▁afford	-5535
▁dealt	-5536
▁hanya	-5537
▁room	-5538
▁links	-5539
rupt	-5540
▁Cor	-5541
▁Anne	-5542
▁ord	-5543
uter	-5544
dum	-5545
utive	-5546
ews	-5547
▁core	-5548
▁uncertain	-5549
▁proposing	-5550
iw	-5551
oman	-5552
▁Another	-5553
ership	-5554
UL	-5555
▁ky	-5556
▁advert	-5557
ayen	-5558
▁sold	-5559
RA	-5560
▁remaining	-5561
▁gy	-5562
▁Bro	-5563
▁schemes	-5564
▁fle	-5565
▁Je	-5566
atun	-5567
ittees	-5568
▁marketing	-5569
▁37	-5570
olic	-5571
cer	-5572
▁preparation	-5573
▁deter	-5574
▁fusk	-5575
▁kansa	-5576
▁tasks	-5577
gro	-5578
▁kwan	-5579
▁Wind	-5580
▁Instead	-5581
▁courage	-5582
▁extended	-5583
▁Syria	-5584
▁Mob	-5585
▁rashin	-5586
▁eld	-5587
related	-5588
▁relatively	-5589
▁peoples	-5590
ustain	-5591
▁processes	-5592
▁fr	-5593
▁Consumer	-5594
umm	-5595
akes	-5596
%,	-5597
▁Ladies	-5598
▁species	-5599
ayar	-5600
▁damar	-5601
▁votes	-5602
▁obstacles	-5603
face	-5604
▁Barroso	-5605
arshen	-5606
▁aminci	-5607
ria	-5608
▁advoc	-5609
▁rapidly	-5610
▁emphasise	-5611
▁WOR	-5612
▁interpret	-5613
▁fost	-5614
▁300	-5615
▁English	-5616
▁virt	-5617
ifi	-5618
ham	-5619
▁strengthened	-5620
▁ƙaun	-5621
49	-5622
▁Sink	-5623
▁Great	-5624
mail	-5625
▁geograph	-5626
YA	-5627
▁places	-5628
▁divid	-5629
▁reiter	-5630
idai	-5631
▁notably	-5632
atu	-5633
▁babu	-5634
▁subsidiarity	-5635
▁kir	-5636
▁Dis	-5637
▁err	-5638
pay	-5639
▁debates	-5640
▁Equ	-5641
▁sauransu	-5642
▁convergence	-5643
cons	-5644
▁Contacts	-5645
▁resolved	-5646
▁Kalm	-5647
▁carefully	-5648
ESC	-5649
▁1995	-5650
owa	-5651
▁coal	-5652
▁imper	-5653
▁hous	-5654
▁chann	-5655
ague	-5656
▁sakam	-5657
rence	-5658
▁ƙarfafa	-5659
6,	-5660
▁sav	-5661
▁kud	-5662
▁forthcoming	-5663
ST	-5664
▁worse	-5665
teg	-5666
▁EF	-5667
abling	-5668
▁fed	-5669
ƙin	-5670
▁bureauc	-5671
aled	-5672
▁nearly	-5673
▁undertaken	-5674
▁Service	-5675
▁reasonable	-5676
▁Add	-5677
mbudsman	-5678
▁tob	-5679
33	-5680
▁stra	-5681
▁ganin	-5682
▁occasion	-5683
▁otherwise	-5684
ellectual	-5685
▁overcome	-5686
PS	-5687
▁Baltic	-5688
ighted	-5689
▁trial	-5690
▁fighting	-5691
▁danger	-5692
27	-5693
▁Norway	-5694
▁voluntary	-5695
▁+32	-5696
▁referendum	-5697
iring	-5698
▁focused	-5699
bers	-5700
▁RE	-5701
▁sanya	-5702
ustry	-5703
asm	-5704
▁38	-5705
▁assum	-5706
anges	-5707
▁negotiating	-5708
▁USA	-5709
▁waje	-5710
▁transaction	-5711
▁sole	-5712
▁fisher	-5713
▁jiki	-5714
▁symb	-5715
ipe	-5716
band	-5717
▁nas	-5718
▁akan	-5719
▁demonstrate	-5720
▁patients	-5721
▁Muh	-5722
▁Perm	-5723
▁Year	-5724
/10	-5725
cks	-5726
▁merg	-5727
nin	-5728
▁interv	-5729
▁tobacco	-5730
unci	-5731
ivery	-5732
▁parents	-5733
▁296	-5734
uels	-5735
ticles	-5736
hone	-5737
sp	-5738
que	-5739
▁surv	-5740
▁reinfor	-5741
enary	-5742
▁Dutch	-5743
▁brings	-5744
▁Av	-5745
▁install	-5746
▁applicable	-5747
▁collective	-5748
▁Day	-5749
▁kashe	-5750
▁Gen	-5751
▁eight	-5752
posal	-5753
▁collab	-5754
▁Adam	-5755
enhagen	-5756
▁Menene	-5757
▁congreg	-5758
ushi	-5759
▁Canada	-5760
▁Procedure	-5761
▁blood	-5762
▁Special	-5763
▁loans	-5764
▁poore	-5765
▁Sal	-5766
era	-5767
imb	-5768
▁sac	-5769
▁minutes	-5770
▁Inc	-5771
izo	-5772
▁fruit	-5773
▁prove	-5774
▁grounds	-5775
▁matsal	-5776
ressive	-5777
▁Bas	-5778
PE	-5779
▁got	-5780
▁bayar	-5781
utu	-5782
▁resulting	-5783
▁dict	-5784
▁lies	-5785
▁Pakistan	-5786
▁shak	-5787
erring	-5788
▁extension	-5789
ori	-5790
she	-5791
▁cika	-5792
▁dub	-5793
ola	-5794
▁External	-5795
▁ECU	-5796
▁kusa	-5797
▁decis	-5798
lared	-5799
▁players	-5800
CI	-5801
▁Britain	-5802
▁widely	-5803
▁aj	-5804
nia	-5805
aran	-5806
▁Next	-5807
▁Black	-5808
▁naz	-5809
▁parliaments	-5810
▁Ed	-5811
▁existence	-5812
▁facilities	-5813
▁8.	-5814
AK	-5815
▁requests	-5816
▁ruh	-5817
▁gap	-5818
▁soma	-5819
anging	-5820
▁globalisation	-5821
fr	-5822
App	-5823
▁competence	-5824
▁stabil	-5825
▁shar	-5826
▁Auditors	-5827
II	-5828
▁bug	-5829
▁firstly	-5830
▁completed	-5831
▁Dan	-5832
:5	-5833
▁coast	-5834
▁ƙasar	-5835
▁bott	-5836
onom	-5837
▁Gran	-5838
▁sexual	-5839
▁guaranteed	-5840
▁zan	-5841
▁Ombudsman	-5842
▁Conc	-5843
rant	-5844
▁valid	-5845
▁easily	-5846
▁spiritual	-5847
▁valu	-5848
▁convention	-5849
etic	-5850
▁ikon	-5851
▁mobil	-5852
▁Cur	-5853
▁explan	-5854
:00	-5855
sen	-5856
antar	-5857
▁black	-5858
AB	-5859
▁peaceful	-5860
▁fif	-5861
▁elsewhere	-5862
▁AL	-5863
▁award	-5864
back	-5865
celer	-5866
▁Maced	-5867
mak	-5868
▁opposed	-5869
▁conflicts	-5870
▁search	-5871
▁delegations	-5872
▁90	-5873
▁diver	-5874
▁invited	-5875
▁processing	-5876
-1	-5877
▁covers	-5878
▁kept	-5879
▁signal	-5880
▁Georgia	-5881
▁coordinated	-5882
ondon	-5883
▁calc	-5884
▁50%	-5885
▁Asse	-5886
▁rising	-5887
▁unless	-5888
▁wishes	-5889
▁Kayan	-5890
▁ultimately	-5891
▁wider	-5892
ray	-5893
▁65	-5894
▁Copenhagen	-5895
aman	-5896
▁arrest	-5897
▁procurement	-5898
▁jirgin	-5899
▁48	-5900
▁happens	-5901
▁Authority	-5902
▁stressed	-5903
look	-5904
▁destroy	-5905
▁tariff	-5906
actions	-5907
andon	-5908
igation	-5909
▁absence	-5910
▁Countries	-5911
kaw	-5912
▁reinforce	-5913
▁DG	-5914
▁PC	-5915
▁ikilis	-5916
unub	-5917
ications	-5918
▁rapporteurs	-5919
▁Mosaic	-5920
ching	-5921
▁micro	-5922
/12	-5923
▁ww	-5924
kans	-5925
▁inquiries	-5926
▁primarily	-5927
▁addressing	-5928
▁optim	-5929
▁Mod	-5930
annin	-5931
▁manyan	-5932
▁maza	-5933
67	-5934
▁increases	-5935
▁representative	-5936
▁2,	-5937
▁played	-5938
▁Permanent	-5939
mi	-5940
▁allocated	-5941
▁capable	-5942
▁decline	-5943
▁chain	-5944
▁define	-5945
▁fire	-5946
▁prefer	-5947
▁Industry	-5948
▁www	-5949
47	-5950
▁Services	-5951
▁Organisation	-5952
▁Process	-5953
.000	-5954
▁minorities	-5955
▁harmonisation	-5956
▁secret	-5957
▁preparing	-5958
▁strugg	-5959
▁pet	-5960
▁ayyukan	-5961
▁discharge	-5962
▁Technology	-5963
▁Kor	-5964
board	-5965
▁tried	-5966
ms	-5967
▁Putin	-5968
▁Culture	-5969
▁maintaining	-5970
ato	-5971
▁Safety	-5972
▁equally	-5973
▁intellig	-5974
UT	-5975
▁imag	-5976
enty	-5977
ollar	-5978
▁involves	-5979
▁citizen	-5980
▁passed	-5981
▁believes	-5982
▁respected	-5983
▁double	-5984
▁duties	-5985
▁Ay	-5986
68	-5987
ole	-5988
▁lose	-5989
▁Kamar	-5990
▁London	-5991
▁playing	-5992
▁speakers	-5993
▁reci	-5994
31	-5995
burg	-5996
▁disapp	-5997
▁estimated	-5998
ooth	-5999
▁Business	-6000
▁resolutions	-6001
▁supplement	-6002
▁decl	-6003
▁dism	-6004
urch	-6005
▁felt	-6006
▁qualified	-6007
uese	-6008
▁schools	-6009
▁daidai	-6010
▁Balkans	-6011
▁minority	-6012
▁plants	-6013
▁exception	-6014
▁household	-6015
▁daraj	-6016
▁changing	-6017
▁karfe	-6018
▁Chamber	-6019
9,	-6020
▁kada	-6021
▁Mont	-6022
antarki	-6023
udan	-6024
▁ECB	-6025
▁Waɗ	-6026
▁intends	-6027
▁compatible	-6028
▁Int	-6029
▁applying	-6030
▁CON	-6031
▁Marm	-6032
▁incom	-6033
▁indicated	-6034
▁keeping	-6035
▁Peter	-6036
▁yayin	-6037
▁aviation	-6038
off	-6039
▁eurozone	-6040
ateful	-6041
▁Pers	-6042
▁credibility	-6043
▁zunub	-6044
▁described	-6045
▁Jo	-6046
▁journal	-6047
▁demonstrated	-6048
▁passengers	-6049
▁Aust	-6050
▁halin	-6051
▁Prof	-6052
▁knows	-6053
▁mug	-6054
▁inequ	-6055
▁candidates	-6056
ero	-6057
▁recall	-6058
▁numbers	-6059
▁approx	-6060
▁ƙasa	-6061
▁competent	-6062
pre	-6063
oviet	-6064
ibi	-6065
▁Annex	-6066
▁whatever	-6067
▁intellectual	-6068
ih	-6069
▁retain	-6070
▁cooperate	-6071
▁sin	-6072
oƙ	-6073
▁contained	-6074
▁Portuguese	-6075
UM	-6076
▁save	-6077
▁plenary	-6078
▁background	-6079
▁Leban	-6080
aser	-6081
▁constitutional	-6082
▁kayayyakin	-6083
UK	-6084
▁remove	-6085
uran	-6086
market	-6087
▁labelling	-6088
▁blog	-6089
▁correspon	-6090
▁kawo	-6091
▁Mc	-6092
▁numerous	-6093
ingu	-6094
▁Mis	-6095
................	-6096
▁Polish	-6097
▁someone	-6098
itiative	-6099
▁Code	-6100
orough	-6101
▁justified	-6102
IK	-6103
▁fun	-6104
ley	-6105
▁intend	-6106
▁Assembly	-6107
▁dama	-6108
▁massive	-6109
▁association	-6110
ags	-6111
▁Once	-6112
▁forecast	-6113
▁TV	-6114
usal	-6115
▁Granite	-6116
▁interesting	-6117
/5	-6118
▁sites	-6119
▁Centre	-6120
▁Dutse	-6121
▁About	-6122
▁abandon	-6123
arent	-6124
rated	-6125
▁chap	-6126
▁Macedonia	-6127
▁bound	-6128
▁forg	-6129
▁mother	-6130
▁entitled	-6131
▁Witness	-6132
▁@	-6133
▁father	-6134
▁MEPs	-6135
HA	-6136
▁hannu	-6137
sk	-6138
▁coherent	-6139
▁Women	-6140
▁notes	-6141
▁productivity	-6142
▁bincike	-6143
▁Ɗ	-6144
▁Phil	-6145
▁biggest	-6146
▁shugaban	-6147
ien	-6148
ein	-6149
▁az	-6150
▁Bosnia	-6151
▁compe	-6152
▁actively	-6153
▁Kyoto	-6154
▁solve	-6155
▁holding	-6156
▁kamfanin	-6157
▁happening	-6158
aft	-6159
ustainable	-6160
▁freedoms	-6161
▁cars	-6162
izations	-6163
▁Bu	-6164
▁duba	-6165
▁immigrants	-6166
▁Abin	-6167
▁Support	-6168
▁crimes	-6169
abin	-6170
ivate	-6171
▁sla	-6172
▁Maj	-6173
▁envis	-6174
▁decade	-6175
▁pie	-6176
▁Yi	-6177
▁Non	-6178
ammad	-6179
▁Jer	-6180
▁abokan	-6181
resh	-6182
imi	-6183
▁god	-6184
▁DA	-6185
▁Mic	-6186
ength	-6187
▁savings	-6188
▁running	-6189
▁reported	-6190
▁Elect	-6191
▁abuse	-6192
itizens	-6193
▁Islamic	-6194
tedly	-6195
alities	-6196
▁legitimate	-6197
▁PR	-6198
▁Abu	-6199
▁committees	-6200
▁conducted	-6201
▁(5	-6202
▁claims	-6203
iability	-6204
tal	-6205
▁bid	-6206
▁unique	-6207
▁acceler	-6208
▁Declaration	-6209
▁grateful	-6210
▁vessels	-6211
fl	-6212
▁latter	-6213
▁caca	-6214
▁sales	-6215
▁track	-6216
▁determine	-6217
▁ought	-6218
▁notice	-6219
sibly	-6220
▁iPhone	-6221
▁combined	-6222
EEC	-6223
▁cell	-6224
▁arch	-6225
29	-6226
▁gaban	-6227
▁declared	-6228
▁Oper	-6229
▁dri	-6230
3%	-6231
▁Jos	-6232
▁physical	-6233
level	-6234
▁Treat	-6235
▁larger	-6236
▁exists	-6237
▁abinci	-6238
▁flood	-6239
▁Israeli	-6240
▁Project	-6241
ethe	-6242
▁hak	-6243
den	-6244
▁push	-6245
▁Custom	-6246
▁|	-6247
▁ja	-6248
▁ethnic	-6249
limin	-6250
aza	-6251
▁ƙoƙ	-6252
▁treated	-6253
▁ا	-6254
▁Sin	-6255
▁Som	-6256
LE	-6257
osen	-6258
▁karanta	-6259
uality	-6260
▁prospects	-6261
▁whilst	-6262
▁1997	-6263
▁Commissioners	-6264
▁ƙauna	-6265
iform	-6266
▁Mexic	-6267
ager	-6268
▁toler	-6269
▁amongst	-6270
▁Wata	-6271
▁trend	-6272
▁tso	-6273
▁evalu	-6274
▁bayani	-6275
stan	-6276
hol	-6277
▁penalty	-6278
▁finances	-6279
aron	-6280
osing	-6281
▁protest	-6282
body	-6283
▁register	-6284
▁dram	-6285
▁endorse	-6286
▁Two	-6287
▁repeat	-6288
▁totally	-6289
CO	-6290
▁55	-6291
aves	-6292
▁dign	-6293
▁sabis	-6294
▁slight	-6295
▁encouraged	-6296
▁shift	-6297
opol	-6298
▁quotas	-6299
▁revision	-6300
▁preventing	-6301
▁197	-6302
▁Stand	-6303
▁Jud	-6304
novation	-6305
ibiyar	-6306
▁proved	-6307
ef	-6308
spe	-6309
erland	-6310
▁kalm	-6311
▁gar	-6312
▁Ben	-6313
▁vast	-6314
▁disasters	-6315
SS	-6316
son	-6317
▁territorial	-6318
WA	-6319
atch	-6320
ription	-6321
itage	-6322
▁kull	-6323
▁becomes	-6324
▁Was	-6325
▁king	-6326
▁determination	-6327
▁eyes	-6328
▁constitute	-6329
▁thorough	-6330
▁warning	-6331
▁acquisition	-6332
free	-6333
▁universal	-6334
▁Fil	-6335
▁doct	-6336
▁driving	-6337
2%	-6338
advant	-6339
▁sport	-6340
otal	-6341
▁City	-6342
▁Soviet	-6343
▁disappoint	-6344
▁sovereignty	-6345
▁aure	-6346
▁Van	-6347
sy	-6348
▁appointed	-6349
▁surpl	-6350
▁identity	-6351
▁indicators	-6352
osed	-6353
aire	-6354
1%	-6355
▁features	-6356
▁societies	-6357
bi	-6358
▁worry	-6359
▁faru	-6360
▁considering	-6361
▁showed	-6362
▁Northern	-6363
▁Institute	-6364
nce	-6365
iodiversity	-6366
▁Yanzu	-6367
▁incentives	-6368
leb	-6369
▁delivery	-6370
▁Mult	-6371
▁jur	-6372
▁speaker	-6373
▁Yohanna	-6374
▁equival	-6375
ping	-6376
▁beg	-6377
▁daida	-6378
td	-6379
▁threats	-6380
coin	-6381
▁Soci	-6382
▁Their	-6383
▁suffer	-6384
▁NE	-6385
tered	-6386
EMS	-6387
▁finding	-6388
▁Aut	-6389
▁indicator	-6390
▁Fran	-6391
iding	-6392
▁reaching	-6393
▁communications	-6394
▁Up	-6395
▁sell	-6396
▁decre	-6397
▁Daga	-6398
▁disadvant	-6399
▁NGOs	-6400
▁enhanced	-6401
▁Control	-6402
ng	-6403
▁Who	-6404
▁tonn	-6405
▁manufacturing	-6406
atell	-6407
▁Mart	-6408
ilarly	-6409
etheless	-6410
▁WORD	-6411
▁insp	-6412
▁judge	-6413
▁listen	-6414
▁20%	-6415
acing	-6416
▁Host	-6417
▁Cap	-6418
ko	-6419
▁heavy	-6420
▁congregation	-6421
▁Labour	-6422
▁Youth	-6423
▁Before	-6424
▁earn	-6425
▁Civil	-6426
▁manufacturers	-6427
▁Def	-6428
▁taron	-6429
▁apparent	-6430
▁destruction	-6431
communications	-6432
▁Hol	-6433
while	-6434
▁Legal	-6435
▁gone	-6436
▁Ice	-6437
▁stands	-6438
▁Mac	-6439
▁©	-6440
▁night	-6441
▁retail	-6442
ifies	-6443
▁gani	-6444
lick	-6445
▁Job	-6446
▁tsara	-6447
illance	-6448
mon	-6449
▁admit	-6450
▁shirya	-6451
▁drive	-6452
▁endors	-6453
active	-6454
▁Yin	-6455
▁supervision	-6456
▁belief	-6457
▁Az	-6458
▁Del	-6459
▁duka	-6460
suff	-6461
▁centre	-6462
▁gina	-6463
ica	-6464
nel	-6465
▁Hakika	-6466
▁exclusion	-6467
VID	-6468
▁reliable	-6469
imas	-6470
▁pure	-6471
▁tattauna	-6472
▁ingan	-6473
▁Austral	-6474
▁revised	-6475
):	-6476
▁spoke	-6477
oni	-6478
▁Perhaps	-6479
▁IMF	-6480
▁drawing	-6481
▁benefici	-6482
▁10.	-6483
▁align	-6484
.:	-6485
▁See	-6486
-00	-6487
▁cikakken	-6488
▁experienced	-6489
▁Has	-6490
▁farming	-6491
▁turned	-6492
umi	-6493
▁contrast	-6494
▁unlike	-6495
▁implications	-6496
▁Dar	-6497
▁Obama	-6498
PT	-6499
ented	-6500
▁elig	-6501
iour	-6502
▁Mold	-6503
▁entered	-6504
▁offering	-6505
▁nationals	-6506
omi	-6507
OST	-6508
▁crises	-6509
▁reporting	-6510
ario	-6511
▁id	-6512
▁isol	-6513
celona	-6514
▁taxpay	-6515
▁Belgian	-6516
▁decent	-6517
▁valuable	-6518
▁jar	-6519
▁glad	-6520
▁Without	-6521
ception	-6522
▁iko	-6523
SA	-6524
▁roll	-6525
▁ruling	-6526
▁naturally	-6527
▁satisfactory	-6528
gs	-6529
▁sharing	-6530
▁possibilities	-6531
umping	-6532
▁distin	-6533
oub	-6534
▁).	-6535
7%	-6536
▁examined	-6537
▁abroad	-6538
▁shares	-6539
izes	-6540
▁greenhouse	-6541
▁lov	-6542
lause	-6543
▁survey	-6544
▁acknowled	-6545
▁card	-6546
▁town	-6547
▁apost	-6548
▁hit	-6549
makers	-6550
▁agency	-6551
▁gudanar	-6552
-5	-6553
▁participants	-6554
▁weight	-6555
▁nau	-6556
iyo	-6557
▁maintained	-6558
umn	-6559
▁alkaw	-6560
▁advertising	-6561
4%	-6562
reak	-6563
▁machine	-6564
▁accur	-6565
▁Americans	-6566
ected	-6567
▁dabam	-6568
▁kn	-6569
▁depends	-6570
▁watan	-6571
▁wah	-6572
▁chosen	-6573
▁successfully	-6574
An	-6575
▁lantarki	-6576
utr	-6577
▁unfair	-6578
▁amended	-6579
ountain	-6580
med	-6581
anku	-6582
▁decisive	-6583
▁financed	-6584
ART	-6585
adequ	-6586
▁Bush	-6587
ee	-6588
▁previously	-6589
raint	-6590
▁pharm	-6591
▁bin	-6592
▁Sudan	-6593
▁dole	-6594
▁saka	-6595
▁courts	-6596
▁Guid	-6597
5-0	-6598
▁Yaya	-6599
▁usually	-6600
zz	-6601
▁facts	-6602
▁yarda	-6603
▁mini	-6604
ball	-6605
▁engage	-6606
22	-6607
itzerland	-6608
▁actors	-6609
what	-6610
▁fixed	-6611
▁evening	-6612
bania	-6613
▁bayanai	-6614
▁tsan	-6615
▁moral	-6616
hesion	-6617
ores	-6618
▁figure	-6619
▁restore	-6620
coun	-6621
86	-6622
▁corporate	-6623
▁100%	-6624
▁undertakings	-6625
eds	-6626
▁web	-6627
usion	-6628
▁sacr	-6629
▁dutse	-6630
▁trends	-6631
▁Rule	-6632
▁Barcelona	-6633
▁educational	-6634
▁bless	-6635
▁zaman	-6636
stood	-6637
▁cuts	-6638
▁legally	-6639
▁politically	-6640
▁9.	-6641
▁Ban	-6642
▁10%	-6643
▁rob	-6644
▁percentage	-6645
▁Forex	-6646
▁syn	-6647
▁haske	-6648
▁leads	-6649
▁display	-6650
▁highlighted	-6651
▁suitable	-6652
▁transactions	-6653
▁oral	-6654
▁TO	-6655
orage	-6656
osis	-6657
iyoyin	-6658
▁400	-6659
▁selection	-6660
oyal	-6661
▁Witnesses	-6662
▁smaller	-6663
▁inspect	-6664
▁behaviour	-6665
▁spend	-6666
▁fal	-6667
▁neman	-6668
▁dispute	-6669
▁dynamic	-6670
▁Post	-6671
▁Moroc	-6672
▁Shaid	-6673
▁remained	-6674
▁Amendments	-6675
▁answers	-6676
6%	-6677
agram	-6678
▁drink	-6679
▁Muhammad	-6680
jud	-6681
urar	-6682
▁Does	-6683
▁3,	-6684
▁discipl	-6685
▁yanayi	-6686
▁length	-6687
▁woman	-6688
▁Thirdly	-6689
▁personally	-6690
gent	-6691
▁shaf	-6692
▁reflects	-6693
▁urgently	-6694
▁Ser	-6695
85	-6696
▁Gw	-6697
▁substance	-6698
▁guidance	-6699
utical	-6700
▁Question	-6701
gue	-6702
▁wine	-6703
▁suspend	-6704
▁hana	-6705
RI	-6706
▁bã	-6707
rote	-6708
iscr	-6709
▁amending	-6710
yon	-6711
▁Pan	-6712
▁scen	-6713
▁dollar	-6714
▁kudi	-6715
PA	-6716
COM	-6717
▁seeks	-6718
4-0	-6719
▁Forum	-6720
▁helps	-6721
▁meat	-6722
▁introducing	-6723
▁format	-6724
▁kyauta	-6725
▁Hungarian	-6726
▁Albania	-6727
▁tonnes	-6728
▁Regions	-6729
▁universities	-6730
▁Citizens	-6731
▁cutting	-6732
▁jama	-6733
▁charges	-6734
▁Babu	-6735
ificial	-6736
gov	-6737
▁Mark	-6738
▁inadequ	-6739
▁enabling	-6740
▁preced	-6741
▁uniform	-6742
▁Official	-6743
▁Relations	-6744
▁buildings	-6745
▁surveillance	-6746
44	-6747
iquid	-6748
iru	-6749
▁ITEMS	-6750
▁alama	-6751
uls	-6752
scale	-6753
▁Musa	-6754
ney	-6755
▁EESC	-6756
▁modified	-6757
▁alleg	-6758
▁Management	-6759
xy	-6760
▁apart	-6761
▁Windows	-6762
▁firmly	-6763
▁AG	-6764
athroom	-6765
iciently	-6766
dered	-6767
▁wait	-6768
▁honest	-6769
▁summer	-6770
▁Iceland	-6771
▁covering	-6772
▁**	-6773
▁providers	-6774
/11	-6775
▁settlement	-6776
▁zone	-6777
9%	-6778
can	-6779
▁Stud	-6780
EF	-6781
▁Mene	-6782
▁organizations	-6783
emor	-6784
▁Rome	-6785
oki	-6786
▁Products	-6787
▁crop	-6788
▁=	-6789
▁yiw	-6790
▁allocation	-6791
oke	-6792
▁mad	-6793
▁Digital	-6794
cul	-6795
▁phen	-6796
ospital	-6797
▁remed	-6798
▁command	-6799
▁image	-6800
ansion	-6801
aji	-6802
▁download	-6803
oz	-6804
▁legitim	-6805
▁Bang	-6806
▁centres	-6807
▁computer	-6808
rap	-6809
▁promised	-6810
▁ben	-6811
▁imbal	-6812
▁outstanding	-6813
▁Liberal	-6814
▁Stat	-6815
▁transf	-6816
▁broader	-6817
▁LED	-6818
▁Yadda	-6819
alci	-6820
▁hidima	-6821
▁Switzerland	-6822
iry	-6823
cious	-6824
▁minim	-6825
affirm	-6826
▁Clear	-6827
▁democrat	-6828
urka	-6829
depth	-6830
lease	-6831
▁partly	-6832
ading	-6833
▁samfurin	-6834
▁components	-6835
▁jointly	-6836
▁religion	-6837
▁bann	-6838
▁contrad	-6839
kar	-6840
ishment	-6841
▁models	-6842
▁gyara	-6843
▁supplies	-6844
anan	-6845
▁panel	-6846
▁kansu	-6847
97	-6848
100	-6849
▁Ca	-6850
▁ratification	-6851
▁violations	-6852
▁weakness	-6853
no	-6854
hon	-6855
▁III	-6856
▁tunani	-6857
reshold	-6858
▁hab	-6859
▁1996	-6860
▁150	-6861
▁Art	-6862
▁appropriations	-6863
▁Kirista	-6864
▁disposal	-6865
ancy	-6866
▁tests	-6867
▁Europol	-6868
itle	-6869
▁privile	-6870
▁vent	-6871
▁195	-6872
▁Iranian	-6873
▁contributed	-6874
▁Hel	-6875
▁historic	-6876
▁dignity	-6877
▁Austrian	-6878
▁FOR	-6879
▁servants	-6880
mer	-6881
▁delighted	-6882
▁milk	-6883
▁moved	-6884
▁halitta	-6885
▁Tour	-6886
▁timet	-6887
▁losses	-6888
▁raising	-6889
hr	-6890
▁Berlin	-6891
▁clause	-6892
▁reflected	-6893
▁advantages	-6894
▁participating	-6895
imakon	-6896
▁located	-6897
aut	-6898
ustrial	-6899
roduct	-6900
▁healthy	-6901
▁Zabura	-6902
▁protocol	-6903
▁neighbouring	-6904
li	-6905
▁CF	-6906
▁Board	-6907
▁dependent	-6908
▁achievement	-6909
▁COVID	-6910
▁dan	-6911
▁profit	-6912
▁Gr	-6913
▁communic	-6914
ivered	-6915
▁negotiation	-6916
▁interpretation	-6917
▁Les	-6918
▁biodiversity	-6919
”.	-6920
oted	-6921
obin	-6922
▁threshold	-6923
▁historical	-6924
▁Isa	-6925
▁inj	-6926
▁heaven	-6927
▁littafin	-6928
▁299	-6929
▁constantly	-6930
▁Ra	-6931
arer	-6932
▁loan	-6933
amed	-6934
▁variety	-6935
▁reasoned	-6936
▁transitional	-6937
▁sugar	-6938
▁university	-6939
appe	-6940
▁patent	-6941
▁Lebanon	-6942
▁Through	-6943
▁Cohesion	-6944
▁phenomen	-6945
▁SH	-6946
▁Bit	-6947
place	-6948
▁favor	-6949
▁wrote	-6950
▁timely	-6951
▁FR	-6952
▁notified	-6953
▁equivalent	-6954
▁expansion	-6955
▁CS	-6956
pring	-6957
▁revenue	-6958
dro	-6959
▁pil	-6960
▁greatly	-6961
▁exem	-6962
▁annab	-6963
▁flows	-6964
▁appreciate	-6965
▁Mil	-6966
▁Treaties	-6967
AI	-6968
▁Danish	-6969
▁Object	-6970
▁zane	-6971
▁Micro	-6972
▁budgets	-6973
▁delivered	-6974
car	-6975
▁Kw	-6976
▁mam	-6977
▁kinds	-6978
▁tsarki	-6979
▁vig	-6980
▁Science	-6981
▁1:	-6982
imar	-6983
▁extensive	-6984
ayil	-6985
inku	-6986
▁Pat	-6987
▁teac	-6988
▁carrying	-6989
▁EUROP	-6990
8/	-6991
▁sought	-6992
▁Network	-6993
▁kama	-6994
▁medicines	-6995
▁jer	-6996
▁gizo	-6997
▁Sur	-6998
building	-6999
▁suggested	-7000
▁collection	-7001
unicip	-7002
icate	-7003
▁argument	-7004
▁deficits	-7005
adow	-7006
▁exempt	-7007
▁Mexico	-7008
phone	-7009
▁85	-7010
▁adjustment	-7011
▁understood	-7012
▁deeply	-7013
▁promise	-7014
▁acting	-7015
▁Quality	-7016
▁television	-7017
allel	-7018
▁autonom	-7019
▁transform	-7020
FF	-7021
▁Society	-7022
▁nar	-7023
▁story	-7024
▁EUROST	-7025
▁governing	-7026
▁temper	-7027
▁audi	-7028
stitutional	-7029
▁kark	-7030
▁sale	-7031
▁occasions	-7032
anged	-7033
▁EUROSTAT	-7034
▁reaffirm	-7035
rior	-7036
▁suffered	-7037
▁obtained	-7038
▁Tunis	-7039
ped	-7040
▁TR	-7041
national	-7042
▁favourable	-7043
▁Fundamental	-7044
▁Mach	-7045
▁spoken	-7046
▁celeb	-7047
umar	-7048
▁inev	-7049
▁deterior	-7050
earing	-7051
▁Best	-7052
▁regularly	-7053
CD	-7054
▁Fe	-7055
▁acknowledge	-7056
urt	-7057
▁Consequently	-7058
▁gid	-7059
▁radical	-7060
▁tunanin	-7061
▁Prop	-7062
assa	-7063
▁constitutes	-7064
▁relates	-7065
atal	-7066
▁hada	-7067
was	-7068
reens	-7069
▁susp	-7070
▁pillar	-7071
▁fahimci	-7072
▁amince	-7073
▁Jun	-7074
▁Mot	-7075
▁Competition	-7076
aceutical	-7077
▁wuri	-7078
▁rage	-7079
▁federal	-7080
▁leaving	-7081
▁somewhat	-7082
ilin	-7083
bourg	-7084
Applause	-7085
▁Also	-7086
stream	-7087
▁ports	-7088
▁jami	-7089
ocal	-7090
▁heritage	-7091
vi	-7092
▁hundreds	-7093
▁Light	-7094
▁uns	-7095
▁amsa	-7096
ashing	-7097
ERS	-7098
▁radio	-7099
ographic	-7100
aku	-7101
▁uses	-7102
inin	-7103
▁Econom	-7104
▁conservation	-7105
annual	-7106
▁Heads	-7107
▁united	-7108
anied	-7109
▁quarter	-7110
▁showing	-7111
▁learned	-7112
▁Journal	-7113
▁Japanese	-7114
▁Media	-7115
▁integrity	-7116
▁mul	-7117
▁Mill	-7118
▁Four	-7119
ults	-7120
▁bio	-7121
itative	-7122
▁approve	-7123
ails	-7124
▁York	-7125
▁willingness	-7126
▁Ham	-7127
ont	-7128
▁spring	-7129
66	-7130
▁reconstruction	-7131
▁obliged	-7132
▁Nos	-7133
▁Amurka	-7134
▁testing	-7135
▁cry	-7136
▁BSE	-7137
▁affecting	-7138
asbourg	-7139
▁profits	-7140
▁Ltd	-7141
▁gabatar	-7142
▁Akwai	-7143
▁looks	-7144
▁Manufact	-7145
▁stone	-7146
▁attend	-7147
▁persist	-7148
▁prosec	-7149
▁ruwan	-7150
▁koyar	-7151
▁Depart	-7152
▁Having	-7153
▁producing	-7154
1]	-7155
▁Alliance	-7156
do	-7157
quare	-7158
▁realistic	-7159
ordin	-7160
▁Colle	-7161
▁train	-7162
rust	-7163
▁vacc	-7164
encing	-7165
▁paying	-7166
▁datt	-7167
▁kara	-7168
rett	-7169
itrus	-7170
▁Out	-7171
▁kim	-7172
ental	-7173
▁pleas	-7174
osoph	-7175
▁beings	-7176
▁van	-7177
▁geographical	-7178
We	-7179
▁birth	-7180
▁listed	-7181
▁hannun	-7182
8%	-7183
IDS	-7184
▁Michel	-7185
▁researc	-7186
▁presentation	-7187
▁door	-7188
▁Moldova	-7189
▁elder	-7190
▁arguments	-7191
▁Mafi	-7192
▁airlines	-7193
▁2:	-7194
▁cart	-7195
craft	-7196
▁Lokacin	-7197
▁deliber	-7198
▁categories	-7199
ication	-7200
▁lessons	-7201
▁examination	-7202
arya	-7203
▁hopes	-7204
▁refers	-7205
▁Climate	-7206
coh	-7207
▁formats	-7208
ective	-7209
8,	-7210
▁Tele	-7211
session	-7212
▁exploitation	-7213
yi	-7214
▁ende	-7215
▁Top	-7216
▁shirin	-7217
▁poorest	-7218
▁southern	-7219
oubtedly	-7220
▁picture	-7221
▁whereas	-7222
▁passenger	-7223
▁Baya	-7224
▁surround	-7225
▁Water	-7226
▁diplomatic	-7227
apse	-7228
▁Indones	-7229
▁indirect	-7230
▁music	-7231
▁Good	-7232
▁resource	-7233
▁older	-7234
▁Shai	-7235
▁kowace	-7236
42	-7237
▁forum	-7238
▁wasan	-7239
.5%	-7240
▁gaske	-7241
▁Bi	-7242
UD	-7243
vey	-7244
unist	-7245
▁worst	-7246
▁sufficiently	-7247
pread	-7248
▁emp	-7249
▁gwamn	-7250
▁authorisation	-7251
▁43	-7252
ofin	-7253
▁endeav	-7254
001	-7255
▁Val	-7256
▁items	-7257
rog	-7258
▁maka	-7259
▁waiting	-7260
sych	-7261
sider	-7262
▁sunan	-7263
▁shape	-7264
▁white	-7265
▁remarks	-7266
race	-7267
▁reb	-7268
▁tafi	-7269
MS	-7270
▁fishermen	-7271
▁Alex	-7272
▁definite	-7273
▁launi	-7274
ocation	-7275
atab	-7276
CC	-7277
▁Mobile	-7278
idespread	-7279
▁difficulty	-7280
▁nazarin	-7281
▁suggests	-7282
▁careful	-7283
aling	-7284
▁housing	-7285
▁gradually	-7286
LO	-7287
▁Exper	-7288
▁count	-7289
▁tight	-7290
agor	-7291
▁tsor	-7292
▁clarify	-7293
▁fresh	-7294
▁promises	-7295
EAN	-7296
asha	-7297
imited	-7298
right	-7299
▁receiving	-7300
▁respective	-7301
▁shafin	-7302
▁11.	-7303
▁resistance	-7304
necess	-7305
▁antic	-7306
▁Strasbourg	-7307
▁contributing	-7308
pass	-7309
▁2010.	-7310
▁rational	-7311
▁checks	-7312
▁Instagram	-7313
▁recession	-7314
▁proof	-7315
________	-7316
inians	-7317
▁middle	-7318
liminary	-7319
▁seeing	-7320
▁AD	-7321
▁Prior	-7322
▁books	-7323
43	-7324
▁dig	-7325
▁yara	-7326
▁killed	-7327
▁Socialist	-7328
▁explained	-7329
nam	-7330
▁·	-7331
ether	-7332
ione	-7333
▁39	-7334
▁hik	-7335
▁lending	-7336
▁considerably	-7337
▁depos	-7338
▁urgency	-7339
amba	-7340
▁worship	-7341
▁accident	-7342
▁collaboration	-7343
▁sany	-7344
govina	-7345
▁harmful	-7346
▁lasting	-7347
▁assume	-7348
▁Democratic	-7349
▁populations	-7350
▁Lastly	-7351
▁widespread	-7352
▁Shaiɗan	-7353
▁possibly	-7354
▁accidents	-7355
obi	-7356
▁disag	-7357
Med	-7358
▁screen	-7359
▁brothers	-7360
▁reaction	-7361
▁lal	-7362
maj	-7363
▁tradition	-7364
yright	-7365
▁Reform	-7366
▁fem	-7367
▁wato	-7368
zegovina	-7369
----	-7370
orate	-7371
▁Prodi	-7372
▁Riga	-7373
▁Sk	-7374
istical	-7375
atlantic	-7376
tenance	-7377
▁selected	-7378
rey	-7379
▁insuff	-7380
▁raw	-7381
▁bukata	-7382
irds	-7383
▁obser	-7384
net	-7385
trib	-7386
▁liquid	-7387
▁Wasu	-7388
▁enables	-7389
▁Script	-7390
uhu	-7391
▁Babban	-7392
▁Tsarin	-7393
▁stream	-7394
▁km	-7395
▁spect	-7396
▁funded	-7397
▁explicit	-7398
▁wasa	-7399
▁assure	-7400
▁nevertheless	-7401
ils	-7402
visory	-7403
▁revolution	-7404
▁--	-7405
▁swift	-7406
▁false	-7407
▁organization	-7408
uj	-7409
AND	-7410
alai	-7411
riage	-7412
▁(200	-7413
▁surely	-7414
▁troub	-7415
▁certainty	-7416
▁School	-7417
▁migrants	-7418
▁print	-7419
▁Masu	-7420
▁parallel	-7421
▁sakamakon	-7422
tery	-7423
arters	-7424
▁ilimi	-7425
▁wuce	-7426
lights	-7427
ughter	-7428
▁adalci	-7429
▁prol	-7430
▁complaints	-7431
▁vehicle	-7432
▁farashin	-7433
▁smart	-7434
▁healthcare	-7435
uya	-7436
icing	-7437
jan	-7438
▁faithful	-7439
▁unnecess	-7440
with	-7441
▁accompanied	-7442
▁2000,	-7443
▁impression	-7444
reas	-7445
cyc	-7446
▁shawara	-7447
▁eliminate	-7448
Th	-7449
▁advis	-7450
accen	-7451
▁approaches	-7452
▁environmentally	-7453
7/	-7454
▁Asian	-7455
▁tension	-7456
▁yourself	-7457
▁competitors	-7458
-10	-7459
institutional	-7460
▁(2)	-7461
▁released	-7462
-2013	-7463
arkin	-7464
▁acad	-7465
▁Satan	-7466
abar	-7467
▁koyi	-7468
▁Department	-7469
▁presidential	-7470
▁Mary	-7471
▁tick	-7472
▁taimakon	-7473
▁satisfied	-7474
alis	-7475
▁birnin	-7476
▁prompt	-7477
▁disappe	-7478
▁Montene	-7479
▁tari	-7480
▁neighbours	-7481
▁macroeconomic	-7482
▁hence	-7483
▁storage	-7484
umma	-7485
▁ado	-7486
▁undoubtedly	-7487
oured	-7488
oking	-7489
▁(20	-7490
▁consolidation	-7491
▁»	-7492
asp	-7493
rame	-7494
elie	-7495
▁deserv	-7496
▁dogara	-7497
▁traged	-7498
▁Sil	-7499
▁electoral	-7500
▁Rem	-7501
▁style	-7502
▁expertise	-7503
awon	-7504
▁lura	-7505
astro	-7506
ifest	-7507
▁Det	-7508
▁voters	-7509
▁Innovation	-7510
▁unity	-7511
uous	-7512
▁armed	-7513
▁Shaidun	-7514
▁95	-7515
▁update	-7516
▁civilian	-7517
▁deals	-7518
cker	-7519
▁Data	-7520
▁inadequate	-7521
▁employers	-7522
▁significance	-7523
▁eventually	-7524
▁lib	-7525
ulsory	-7526
quality	-7527
▁partnerships	-7528
iyu	-7529
▁SP	-7530
▁kasuwanci	-7531
▁opposite	-7532
▁pipe	-7533
▁Website	-7534
▁teaching	-7535
van	-7536
▁scr	-7537
▁Constitutional	-7538
▁wuya	-7539
▁Bitrus	-7540
▁researchers	-7541
▁juna	-7542
▁Power	-7543
▁fasaha	-7544
▁Administ	-7545
▁inhab	-7546
▁credible	-7547
▁orient	-7548
▁ƙaunar	-7549
▁Kh	-7550
▁Again	-7551
▁output	-7552
▁Wane	-7553
▁creates	-7554
▁aika	-7555
▁exerc	-7556
▁predict	-7557
▁uncertainty	-7558
▁qualifications	-7559
hem	-7560
▁analy	-7561
▁comfort	-7562
▁cancer	-7563
▁fourth	-7564
▁taxpayers	-7565
atellite	-7566
▁legitimacy	-7567
▁realise	-7568
▁Merg	-7569
▁underlying	-7570
88	-7571
▁40%	-7572
point	-7573
GF	-7574
▁ayyuka	-7575
▁Similarly	-7576
seen	-7577
▁wife	-7578
ugu	-7579
unch	-7580
▁Wani	-7581
▁kullum	-7582
▁preliminary	-7583
▁economically	-7584
conn	-7585
oton	-7586
▁PPE	-7587
▁Ana	-7588
▁Suka	-7589
▁findings	-7590
▁negotiated	-7591
▁registration	-7592
▁Morocco	-7593
▁devices	-7594
abilisation	-7595
gments	-7596
▁Di	-7597
▁jerin	-7598
▁haif	-7599
▁volume	-7600
▁essentially	-7601
▁satisfaction	-7602
gi	-7603
ament	-7604
ho	-7605
ito	-7606
▁College	-7607
▁evident	-7608
arding	-7609
LAF	-7610
soft	-7611
▁Review	-7612
▁engaged	-7613
▁formally	-7614
▁fayil	-7615
77	-7616
▁Road	-7617
▁doubts	-7618
▁fur	-7619
▁mort	-7620
▁inside	-7621
▁marine	-7622
Ar	-7623
alling	-7624
OV	-7625
uce	-7626
▁alcoh	-7627
EX	-7628
eal	-7629
arged	-7630
▁periods	-7631
▁nasara	-7632
69	-7633
attaf	-7634
▁Tai	-7635
▁sen	-7636
▁eastern	-7637
ience	-7638
▁announce	-7639
▁extending	-7640
▁preparations	-7641
itch	-7642
▁granting	-7643
▁Chairman	-7644
▁Initiative	-7645
iant	-7646
▁kasancewa	-7647
▁juris	-7648
▁removed	-7649
▁Montenegro	-7650
▁Kai	-7651
country	-7652
▁deaths	-7653
▁divers	-7654
ogether	-7655
SC	-7656
▁smooth	-7657
▁dangant	-7658
eous	-7659
run	-7660
▁Ah	-7661
salm	-7662
▁timetable	-7663
THER	-7664
▁Lesb	-7665
▁Dauda	-7666
▁user	-7667
▁Ni	-7668
▁ƙara	-7669
▁yankin	-7670
▁Australia	-7671
rahim	-7672
▁Manz	-7673
▁2010,	-7674
▁Defence	-7675
▁cutar	-7676
nes	-7677
▁rah	-7678
▁shirye	-7679
chen	-7680
▁Dani	-7681
▁programs	-7682
▁expensive	-7683
▁kwat	-7684
.0	-7685
▁die	-7686
▁Play	-7687
▁gama	-7688
NL	-7689
▁ruhaniya	-7690
▁bakin	-7691
apers	-7692
▁signs	-7693
▁texts	-7694
inder	-7695
▁privat	-7696
ompl	-7697
▁exchanges	-7698
▁consultations	-7699
▁ordinary	-7700
▁Aika	-7701
▁Maris	-7702
▁inganta	-7703
▁deadline	-7704
▁reass	-7705
▁topic	-7706
▁relief	-7707
▁simplification	-7708
▁wage	-7709
irable	-7710
▁prejud	-7711
▁44	-7712
▁OS	-7713
iest	-7714
▁Fac	-7715
▁hospital	-7716
▁joined	-7717
▁illustr	-7718
▁Lo	-7719
▁divided	-7720
▁zuciya	-7721
▁excluded	-7722
▁Hal	-7723
▁Three	-7724
▁Prophet	-7725
▁pensions	-7726
uhari	-7727
iced	-7728
▁Sat	-7729
▁kaf	-7730
▁Nice	-7731
▁Hakan	-7732
▁scrutin	-7733
▁mutu	-7734
▁goyon	-7735
▁applicant	-7736
▁bada	-7737
▁guide	-7738
▁Karanta	-7739
▁eligible	-7740
▁regarded	-7741
▁authorised	-7742
▁kwamf	-7743
▁Fig	-7744
▁abstain	-7745
▁player	-7746
▁aside	-7747
▁accompl	-7748
fri	-7749
▁nauy	-7750
▁registered	-7751
ecision	-7752
overed	-7753
▁298	-7754
▁Rad	-7755
atsu	-7756
▁Jean	-7757
▁Main	-7758
▁died	-7759
▁AB	-7760
▁surface	-7761
▁aircraft	-7762
▁chemicals	-7763
▁kake	-7764
▁correctly	-7765
▁ƙas	-7766
▁dare	-7767
ultural	-7768
▁dedicated	-7769
▁referring	-7770
▁tackling	-7771
▁faster	-7772
▁rayuwar	-7773
▁enterprise	-7774
6/	-7775
▁kuka	-7776
▁fewer	-7777
▁(0	-7778
▁Conf	-7779
▁Mich	-7780
▁inji	-7781
▁Guidelines	-7782
▁capt	-7783
▁Tax	-7784
▁Full	-7785
▁2008,	-7786
▁Budgets	-7787
▁viable	-7788
AY	-7789
▁hars	-7790
▁surplus	-7791
▁accounting	-7792
uries	-7793
▁Turai	-7794
▁oppose	-7795
aikata	-7796
▁approximately	-7797
iful	-7798
▁horizon	-7799
▁army	-7800
▁quota	-7801
▁scientists	-7802
▁ships	-7803
▁preserve	-7804
▁subjects	-7805
▁Each	-7806
▁Gaza	-7807
▁Tak	-7808
using	-7809
▁Anti	-7810
acce	-7811
ayoyi	-7812
ام	-7813
▁ER	-7814
▁Mess	-7815
▁anticip	-7816
▁concentrate	-7817
▁resulted	-7818
▁kal	-7819
▁sensible	-7820
idar	-7821
▁Vol	-7822
▁cheap	-7823
▁daraja	-7824
▁AM	-7825
-3	-7826
Press	-7827
▁consequence	-7828
▁saving	-7829
▁dā	-7830
▁sending	-7831
vil	-7832
igned	-7833
▁walk	-7834
▁pursued	-7835
▁2009,	-7836
▁riƙa	-7837
▁ƙarfi	-7838
▁airports	-7839
sect	-7840
utor	-7841
▁proud	-7842
regular	-7843
alli	-7844
▁Natural	-7845
▁biyayya	-7846
▁42	-7847
asmus	-7848
▁Buhari	-7849
▁takard	-7850
ighbourhood	-7851
ursday	-7852
▁Center	-7853
▁Current	-7854
akari	-7855
ashion	-7856
▁disagree	-7857
bet	-7858
ان	-7859
ena	-7860
▁occurred	-7861
▁controlled	-7862
▁(19	-7863
aming	-7864
▁collapse	-7865
gic	-7866
▁30%	-7867
▁sports	-7868
▁Ibrahim	-7869
▁zunubi	-7870
▁Palestinians	-7871
▁Slab	-7872
▁factory	-7873
▁experiences	-7874
▁2000.	-7875
hus	-7876
▁Pay	-7877
▁Mas	-7878
▁maintenance	-7879
▁(1	-7880
▁drop	-7881
▁stem	-7882
▁sem	-7883
olesale	-7884
▁recorded	-7885
▁attempts	-7886
▁haz	-7887
▁foster	-7888
▁concentration	-7889
▁cast	-7890
▁bonus	-7891
▁aikace	-7892
iox	-7893
▁none	-7894
▁wanka	-7895
CS	-7896
▁haƙ	-7897
urities	-7898
▁Colomb	-7899
▁princip	-7900
othing	-7901
OD	-7902
eriya	-7903
▁Sustainable	-7904
▁4,	-7905
▁box	-7906
▁tort	-7907
▁managing	-7908
attu	-7909
▁2007.	-7910
▁Os	-7911
well	-7912
word	-7913
▁eye	-7914
▁nine	-7915
▁lob	-7916
▁wise	-7917
▁Ref	-7918
▁haɗ	-7919
▁pharmaceutical	-7920
▁flag	-7921
▁perfectly	-7922
▁Hong	-7923
▁chapter	-7924
▁unemployed	-7925
unin	-7926
▁Cam	-7927
▁considerations	-7928
▁***	-7929
▁Congress	-7930
uster	-7931
▁gask	-7932
▁affects	-7933
▁killing	-7934
▁endorsed	-7935
aur	-7936
▁jihar	-7937
▁shaida	-7938
▁Ayy	-7939
▁Down	-7940
▁incomp	-7941
▁fuels	-7942
▁Manufacturer	-7943
▁و	-7944
teen	-7945
appro	-7946
▁rely	-7947
▁ideal	-7948
▁failing	-7949
▁Alal	-7950
▁recover	-7951
▁battle	-7952
▁Thursday	-7953
▁emission	-7954
bl	-7955
icked	-7956
▁arise	-7957
▁Libya	-7958
▁USD	-7959
▁shawarar	-7960
▁functions	-7961
aci	-7962
bul	-7963
iagn	-7964
like	-7965
▁Tal	-7966
▁commission	-7967
otion	-7968
▁kaya	-7969
▁Peace	-7970
▁pattern	-7971
ɗewa	-7972
▁Total	-7973
▁abokin	-7974
ulf	-7975
stein	-7976
osophy	-7977
▁preserv	-7978
▁zamanin	-7979
▁recognize	-7980
▁Hu	-7981
▁spl	-7982
▁2007,	-7983
▁choices	-7984
▁suspect	-7985
▁symbol	-7986
▁indicate	-7987
▁journalists	-7988
arni	-7989
▁param	-7990
▁Stabilisation	-7991
ifin	-7992
▁Abub	-7993
▁aids	-7994
▁Ibran	-7995
▁slightly	-7996
▁Pack	-7997
▁holy	-7998
▁prec	-7999
▁enem	-8000
ennium	-8001
▁Atlantic	-8002
▁sacrif	-8003
▁feeling	-8004
▁generations	-8005
▁Ji	-8006
arun	-8007
▁250	-8008
break	-8009
▁pace	-8010
▁Kalmar	-8011
▁turning	-8012
▁category	-8013
▁withdraw	-8014
▁investigations	-8015
▁Among	-8016
▁Stock	-8017
luding	-8018
▁constitu	-8019
▁Opin	-8020
omat	-8021
▁observed	-8022
▁negotiate	-8023
’.	-8024
▁wadannan	-8025
tra	-8026
▁section	-8027
▁labarin	-8028
▁ham	-8029
▁compr	-8030
▁aikata	-8031
▁humans	-8032
▁conform	-8033
▁Jam	-8034
▁diss	-8035
ancin	-8036
▁Steel	-8037
▁touch	-8038
ocin	-8039
▁kew	-8040
▁associations	-8041
eib	-8042
▁hus	-8043
▁railway	-8044
itect	-8045
▁persec	-8046
law	-8047
ador	-8048
▁iri	-8049
comings	-8050
▁shakka	-8051
ceived	-8052
▁Working	-8053
▁imagine	-8054
▁1994	-8055
ocational	-8056
▁enhancing	-8057
▁undermine	-8058
▁characteristics	-8059
23	-8060
▁din	-8061
▁derog	-8062
▁mistake	-8063
▁exceptional	-8064
Comm	-8065
▁defe	-8066
discr	-8067
▁openness	-8068
▁Prom	-8069
▁founded	-8070
▁complicated	-8071
▁Sen	-8072
▁partial	-8073
▁insufficient	-8074
▁120	-8075
▁falling	-8076
ahar	-8077
chmark	-8078
▁south	-8079
▁revealed	-8080
▁movements	-8081
▁accessible	-8082
▁underlined	-8083
▁Industrial	-8084
▁compulsory	-8085
▁2009.	-8086
▁undertaking	-8087
▁waya	-8088
▁island	-8089
”,	-8090
▁watch	-8091
▁shadow	-8092
▁standing	-8093
▁attractive	-8094
▁reductions	-8095
▁casino	-8096
▁updated	-8097
▁focusing	-8098
▁programming	-8099
ukaka	-8100
▁Freedom	-8101
inihin	-8102
▁cycle	-8103
▁Parliamentary	-8104
ey	-8105
▁ratified	-8106
olf	-8107
ideos	-8108
▁unit	-8109
▁Hy	-8110
omet	-8111
▁wasanni	-8112
▁straight	-8113
▁supposed	-8114
▁Sar	-8115
▁Karfe	-8116
▁pilot	-8117
▁interm	-8118
▁Cal	-8119
▁renewed	-8120
▁Solid	-8121
▁substantially	-8122
pper	-8123
▁fails	-8124
41	-8125
▁Abd	-8126
▁2008.	-8127
▁discrimin	-8128
water	-8129
▁Resolution	-8130
allam	-8131
iyoyi	-8132
▁Online	-8133
▁necessarily	-8134
▁completion	-8135
pir	-8136
▁Lead	-8137
change	-8138
▁Enter	-8139
▁Gir	-8140
▁shortcomings	-8141
▁taro	-8142
▁looked	-8143
▁Company	-8144
ighb	-8145
▁sanin	-8146
unk	-8147
agers	-8148
▁gold	-8149
▁penalties	-8150
▁ram	-8151
▁strik	-8152
▁achievements	-8153
▁piece	-8154
▁3:	-8155
▁fre	-8156
DC	-8157
▁Mulkin	-8158
state	-8159
▁adverse	-8160
▁prevail	-8161
▁codecision	-8162
▁POL	-8163
▁pled	-8164
▁datab	-8165
▁socio	-8166
▁liability	-8167
hand	-8168
▁Bol	-8169
▁irregular	-8170
▁Kasa	-8171
▁asset	-8172
astr	-8173
▁12.	-8174
asin	-8175
▁Jac	-8176
▁compete	-8177
▁feature	-8178
▁wild	-8179
▁tsaye	-8180
▁restrictive	-8181
/15	-8182
▁yield	-8183
▁Muslim	-8184
▁80%	-8185
TM	-8186
ufi	-8187
itin	-8188
▁psych	-8189
▁borrow	-8190
▁sadarwa	-8191
▁mountain	-8192
▁names	-8193
▁genuinely	-8194
▁assessed	-8195
▁disputes	-8196
PC	-8197
▁kusan	-8198
▁fass	-8199
istance	-8200
▁Neighbourhood	-8201
▁Son	-8202
▁Recommend	-8203
▁whereby	-8204
▁TAC	-8205
ariat	-8206
▁Finn	-8207
▁gather	-8208
▁friendly	-8209
▁Mak	-8210
▁Found	-8211
▁input	-8212
▁envisaged	-8213
▁shock	-8214
▁tsaya	-8215
▁2004,	-8216
udu	-8217
▁Mosc	-8218
▁2005,	-8219
▁friend	-8220
▁fata	-8221
▁600	-8222
▁Moses	-8223
▁hosting	-8224
▁jurisd	-8225
▁suppliers	-8226
▁EEA	-8227
▁Well	-8228
▁Madrid	-8229
▁pursuing	-8230
▁bul	-8231
▁generate	-8232
▁connected	-8233
▁Kan	-8234
▁hyp	-8235
▁emphasised	-8236
▁tsawon	-8237
▁kowa	-8238
▁secondly	-8239
▁Web	-8240
▁mall	-8241
sequent	-8242
▁ministry	-8243
▁reserves	-8244
rect	-8245
▁2006,	-8246
▁Directives	-8247
▁causing	-8248
▁representing	-8249
▁sons	-8250
orous	-8251
▁struggle	-8252
▁modernisation	-8253
▁phot	-8254
▁honour	-8255
▁refugee	-8256
rum	-8257
▁ICT	-8258
▁faɗa	-8259
▁arz	-8260
▁gained	-8261
▁inclusive	-8262
▁highlights	-8263
html	-8264
▁sana	-8265
▁tabbata	-8266
▁WordPress	-8267
▁Shug	-8268
utt	-8269
:0	-8270
aris	-8271
eesc	-8272
tegration	-8273
▁informal	-8274
▁conciliation	-8275
▁Erasmus	-8276
▁prisoners	-8277
▁repeatedly	-8278
mala	-8279
▁beef	-8280
▁freely	-8281
▁solely	-8282
▁Gold	-8283
▁wages	-8284
▁grants	-8285
imbab	-8286
▁Church	-8287
-8	-8288
▁shortly	-8289
▁noise	-8290
▁broadcast	-8291
▁OTHER	-8292
▁graph	-8293
▁liter	-8294
icht	-8295
imbabwe	-8296
▁hardly	-8297
▁inhabit	-8298
▁Eff	-8299
eping	-8300
▁elderly	-8301
ucin	-8302
▁potentially	-8303
▁airport	-8304
▁EUROPEAN	-8305
▁northern	-8306
▁puts	-8307
won	-8308
▁demanding	-8309
eg	-8310
▁Sanya	-8311
▁twenty	-8312
allon	-8313
▁tsaro	-8314
▁sar	-8315
▁glob	-8316
▁undertake	-8317
▁translation	-8318
▁briefly	-8319
otechn	-8320
▁games	-8321
▁stimulate	-8322
▁Herzegovina	-8323
▁film	-8324
▁sink	-8325
▁wis	-8326
▁attached	-8327
▁Ce	-8328
▁Categ	-8329
▁phenomenon	-8330
▁alarm	-8331
▁persu	-8332
▁transposition	-8333
▁bish	-8334
Sh	-8335
▁Li	-8336
cher	-8337
▁Zimbabwe	-8338
▁residence	-8339
96	-8340
▁Capital	-8341
▁Ish	-8342
▁Prov	-8343
▁couple	-8344
▁sustained	-8345
inent	-8346
▁Pos	-8347
▁respecting	-8348
▁Daniel	-8349
▁60%	-8350
rovers	-8351
OW	-8352
ECD	-8353
▁mit	-8354
▁Father	-8355
▁Alb	-8356
compet	-8357
ordinary	-8358
▁ton	-8359
▁born	-8360
▁sight	-8361
▁Tare	-8362
▁inequality	-8363
▁presenting	-8364
BR	-8365
mo	-8366
▁muku	-8367
ordination	-8368
...]	-8369
▁bearing	-8370
▁beneficial	-8371
▁vac	-8372
inger	-8373
▁arising	-8374
/09	-8375
▁plays	-8376
▁rank	-8377
oos	-8378
▁fort	-8379
▁2006.	-8380
eches	-8381
▁rare	-8382
▁sarra	-8383
uti	-8384
trans	-8385
▁kuna	-8386
▁respects	-8387
▁competences	-8388
▁trig	-8389
ainless	-8390
▁Governments	-8391
/05	-8392
usalem	-8393
▁Rather	-8394
▁containing	-8395
▁motsa	-8396
▁Spring	-8397
▁unnecessary	-8398
▁tsari	-8399
▁zero	-8400
▁chairman	-8401
▁47	-8402
▁refused	-8403
▁directed	-8404
▁territories	-8405
strö	-8406
obody	-8407
▁shop	-8408
▁constraint	-8409
▁recommended	-8410
▁erad	-8411
▁assessments	-8412
ror	-8413
▁files	-8414
▁Train	-8415
▁fairly	-8416
▁coordinate	-8417
▁NA	-8418
▁subsequent	-8419
▁Look	-8420
▁breach	-8421
oha	-8422
▁Jerusalem	-8423
▁resum	-8424
▁female	-8425
▁exclus	-8426
ƙe	-8427
▁IV	-8428
ales	-8429
▁Tar	-8430
▁joy	-8431
iliar	-8432
erate	-8433
▁almaj	-8434
▁stages	-8435
dden	-8436
arawa	-8437
▁baƙin	-8438
▁jim	-8439
known	-8440
▁popul	-8441
▁CH	-8442
▁Il	-8443
▁zur	-8444
▁Matta	-8445
▁dream	-8446
▁transmission	-8447
▁underp	-8448
▁guaranteeing	-8449
ström	-8450
▁encourages	-8451
ector	-8452
▁Saudi	-8453
▁cash	-8454
▁regardless	-8455
▁buga	-8456
▁begun	-8457
OU	-8458
▁sauki	-8459
▁sauri	-8460
▁Objective	-8461
ITY	-8462
▁BE	-8463
▁imbalances	-8464
▁HIV	-8465
▁fat	-8466
HS	-8467
orry	-8468
▁combination	-8469
BAT	-8470
▁simplify	-8471
▁Adv	-8472
▁wak	-8473
▁brid	-8474
KI	-8475
ros	-8476
rict	-8477
▁lie	-8478
▁zafi	-8479
▁endeavour	-8480
▁intentions	-8481
▁citizenship	-8482
▁foundations	-8483
▁Jord	-8484
▁ownership	-8485
ón	-8486
ARD	-8487
cho	-8488
▁ON	-8489
▁Dub	-8490
▁pool	-8491
▁Tourism	-8492
▁EA	-8493
▁served	-8494
▁biya	-8495
▁error	-8496
▁yanke	-8497
▁reserve	-8498
▁dep	-8499
▁blue	-8500
▁annex	-8501
▁audit	-8502
▁Child	-8503
▁heading	-8504
iferation	-8505
500	-8506
▁NEW	-8507
▁donors	-8508
▁venture	-8509
ƙila	-8510
▁46	-8511
▁Gab	-8512
▁creative	-8513
▁enlarged	-8514
▁replaced	-8515
▁hali	-8516
▁Presidents	-8517
▁jira	-8518
▁crypt	-8519
▁shipping	-8520
▁bra	-8521
▁maha	-8522
▁regulated	-8523
▁depr	-8524
lements	-8525
▁1980	-8526
▁color	-8527
▁2004.	-8528
▁Cuba	-8529
▁frequently	-8530
▁Know	-8531
▁taimake	-8532
▁Machine	-8533
▁taimako	-8534
▁relate	-8535
▁maf	-8536
▁2005.	-8537
▁transit	-8538
▁righteous	-8539
▁Tatt	-8540
▁neighb	-8541
ede	-8542
how	-8543
▁Ant	-8544
▁bus	-8545
▁tragedy	-8546
▁publication	-8547
fo	-8548
▁EMU	-8549
▁teachers	-8550
▁prophe	-8551
▁mamaki	-8552
▁Ok	-8553
▁rac	-8554
▁GMOs	-8555
▁Sad	-8556
iment	-8557
▁phil	-8558
▁signing	-8559
▁victory	-8560
▁unanimously	-8561
▁Mean	-8562
ristian	-8563
▁mi	-8564
▁shigar	-8565
▁dictators	-8566
iji	-8567
▁reward	-8568
▁Mald	-8569
uminum	-8570
▁drivers	-8571
isp	-8572
▁Kong	-8573
▁sheep	-8574
autiful	-8575
▁dominant	-8576
ipped	-8577
▁cope	-8578
▁debating	-8579
▁location	-8580
▁VII	-8581
▁manuf	-8582
▁Eth	-8583
Mediterranean	-8584
▁Jami	-8585
▁tang	-8586
▁APP	-8587
▁prime	-8588
▁Questions	-8589
▁suggestions	-8590
▁rid	-8591
▁coherence	-8592
BA	-8593
▁resc	-8594
▁roads	-8595
▁Round	-8596
▁Tunisia	-8597
▁marasa	-8598
▁responses	-8599
▁era	-8600
isual	-8601
▁ratio	-8602
▁tragic	-8603
▁alcohol	-8604
inational	-8605
▁pand	-8606
▁controvers	-8607
▁2003,	-8608
▁thousand	-8609
▁41	-8610
▁taɓa	-8611
▁concession	-8612
rencies	-8613
▁Solar	-8614
▁domain	-8615
-4	-8616
▁upg	-8617
▁ineff	-8618
TE	-8619
▁gross	-8620
▁marked	-8621
▁beneficiaries	-8622
ado	-8623
ivation	-8624
▁Viet	-8625
▁sudden	-8626
▁fleet	-8627
▁theme	-8628
St	-8629
▁attain	-8630
▁imported	-8631
▁automatically	-8632
87	-8633
prise	-8634
▁girls	-8635
▁3%	-8636
▁boy	-8637
▁Indonesia	-8638
▁comparison	-8639
vy	-8640
▁Fort	-8641
▁marriage	-8642
▁Federation	-8643
▁harmonised	-8644
Is	-8645
▁sauƙi	-8646
▁Argent	-8647
▁Tem	-8648
▁clarity	-8649
▁wadanda	-8650
erce	-8651
▁1.5	-8652
▁Link	-8653
▁OLAF	-8654
friendly	-8655
▁fan	-8656
▁conven	-8657
▁confidential	-8658
▁crops	-8659
▁TH	-8660
ikan	-8661
inter	-8662
stuff	-8663
▁albarka	-8664
orge	-8665
whel	-8666
▁bukatun	-8667
▁ƙarin	-8668
▁utmost	-8669
▁worrying	-8670
▁sanar	-8671
▁Subject	-8672
▁ikilisiya	-8673
▁ƙarshe	-8674
▁Doha	-8675
kind	-8676
▁foremost	-8677
▁transfers	-8678
▁estimates	-8679
▁Solidarity	-8680
esa	-8681
imed	-8682
ressed	-8683
lication	-8684
▁COUN	-8685
▁apostle	-8686
pel	-8687
▁stead	-8688
▁justify	-8689
irar	-8690
▁autumn	-8691
▁Kur	-8692
itate	-8693
▁alongside	-8694
acen	-8695
▁spite	-8696
Bet	-8697
▁PART	-8698
▁falls	-8699
▁(4	-8700
olin	-8701
▁Syn	-8702
▁strike	-8703
MENT	-8704
▁ƙi	-8705
ensa	-8706
▁delays	-8707
▁deserves	-8708
ault	-8709
▁Supp	-8710
▁ɗauki	-8711
▁regimes	-8712
▁infrastructures	-8713
ige	-8714
▁bottom	-8715
▁disabled	-8716
▁purchase	-8717
udd	-8718
▁zauna	-8719
▁kok	-8720
▁center	-8721
▁succeeded	-8722
▁0,	-8723
▁benchmark	-8724
▁readability	-8725
RC	-8726
orb	-8727
▁knew	-8728
▁2003.	-8729
▁Alger	-8730
▁guard	-8731
▁reconciliation	-8732
ael	-8733
▁Hausa	-8734
▁Impro	-8735
▁Small	-8736
ography	-8737
▁prayer	-8738
▁mem	-8739
antly	-8740
▁Binci	-8741
▁articles	-8742
▁56	-8743
▁Nov	-8744
▁Greens	-8745
▁hikima	-8746
▁interpre	-8747
▁destroyed	-8748
▁facilitating	-8749
esh	-8750
fani	-8751
opard	-8752
▁Burma	-8753
▁canja	-8754
▁homes	-8755
▁argue	-8756
▁Tib	-8757
▁unpre	-8758
▁overwhel	-8759
▁dro	-8760
▁premium	-8761
▁returned	-8762
▁productive	-8763
▁wuta	-8764
▁stance	-8765
▁violation	-8766
▁privacy	-8767
▁kil	-8768
▁focuses	-8769
▁threatened	-8770
adan	-8771
raid	-8772
ommod	-8773
▁kare	-8774
Presse	-8775
▁foundation	-8776
si	-8777
▁temperature	-8778
▁accountability	-8779
rier	-8780
▁sara	-8781
▁demographic	-8782
▁representation	-8783
▁purely	-8784
hips	-8785
▁Sing	-8786
5)	-8787
▁Finnish	-8788
▁Opinion	-8789
▁regrett	-8790
▁division	-8791
yx	-8792
án	-8793
▁fulfilled	-8794
OC	-8795
▁ambition	-8796
ALL	-8797
▁Nic	-8798
▁kur	-8799
terest	-8800
▁outbreak	-8801
utun	-8802
▁Naz	-8803
▁Rob	-8804
cient	-8805
▁organic	-8806
▁Maldives	-8807
▁Ukrainian	-8808
▁explanation	-8809
▁capabilities	-8810
▁Training	-8811
▁efficiently	-8812
▁bayin	-8813
▁recyc	-8814
▁scand	-8815
▁consulted	-8816
▁appointment	-8817
3/	-8818
▁declare	-8819
kara	-8820
▁hanyoyin	-8821
▁MP	-8822
uled	-8823
▁promoted	-8824
▁multinational	-8825
▁ball	-8826
▁rufe	-8827
▁2001,	-8828
▁Duniya	-8829
▁binciken	-8830
▁infringements	-8831
▁kill	-8832
▁speeches	-8833
▁burn	-8834
▁ingancin	-8835
▁outlined	-8836
▁Gida	-8837
▁component	-8838
▁inhabitants	-8839
▁Bre	-8840
omatik	-8841
▁extrem	-8842
▁Fer	-8843
▁gamb	-8844
▁stimul	-8845
▁Yugoslavia	-8846
▁5,	-8847
▁unw	-8848
▁wisdom	-8849
▁distingu	-8850
▁Ty	-8851
▁devast	-8852
▁presents	-8853
▁ruhu	-8854
▁broadly	-8855
▁manifest	-8856
▁transatlantic	-8857
▁believed	-8858
abe	-8859
▁49	-8860
▁Aik	-8861
▁examining	-8862
ternoon	-8863
larations	-8864
Am	-8865
real	-8866
ounted	-8867
policy	-8868
etically	-8869
▁Kasuwanci	-8870
▁investing	-8871
ACH	-8872
hew	-8873
▁definitely	-8874
89	-8875
▁fell	-8876
▁kiy	-8877
▁gano	-8878
▁Key	-8879
▁adm	-8880
▁file	-8881
▁ageing	-8882
astricht	-8883
▁consent	-8884
▁terrorists	-8885
▁OECD	-8886
ovisual	-8887
▁troops	-8888
regional	-8889
▁bonds	-8890
▁teach	-8891
▁integrate	-8892
▁kwa	-8893
▁yes	-8894
▁Park	-8895
▁municip	-8896
▁addresses	-8897
▁incentive	-8898
▁withdrawal	-8899
df	-8900
▁pleasure	-8901
▁Moscow	-8902
▁Airline	-8903
,"	-8904
▁taw	-8905
▁1992	-8906
▁plug	-8907
▁tashi	-8908
roes	-8909
▁gane	-8910
▁habit	-8911
▁bincika	-8912
top	-8913
raham	-8914
tering	-8915
▁sched	-8916
▁Technical	-8917
▁61	-8918
▁Gene	-8919
▁mutuwa	-8920
▁£	-8921
▁Fab	-8922
▁engagement	-8923
▁reinforced	-8924
▁fita	-8925
▁u	-8926
ENTS	-8927
▁Fit	-8928
▁DEBAT	-8929
▁narrow	-8930
▁moreover	-8931
▁Political	-8932
▁Ang	-8933
URE	-8934
▁Please	-8935
▁gwajin	-8936
▁redund	-8937
▁Washing	-8938
▁jeopard	-8939
berg	-8940
▁haifar	-8941
▁hung	-8942
▁vocational	-8943
VC	-8944
asion	-8945
hered	-8946
▁faces	-8947
au	-8948
▁jour	-8949
▁Annabi	-8950
▁coastal	-8951
▁automatic	-8952
agn	-8953
turn	-8954
▁cease	-8955
ɓe	-8956
▁tempt	-8957
▁commod	-8958
▁zamani	-8959
▁map	-8960
ingly	-8961
▁initially	-8962
conf	-8963
NA	-8964
alia	-8965
tical	-8966
▁Scient	-8967
▁Bari	-8968
▁Maastricht	-8969
▁discipline	-8970
▁alternatives	-8971
under	-8972
▁treaties	-8973
▁violent	-8974
▁intelligence	-8975
cap	-8976
▁shan	-8977
▁confront	-8978
▁bur	-8979
▁bomb	-8980
▁afternoon	-8981
oses	-8982
▁economics	-8983
▁debated	-8984
iled	-8985
▁Card	-8986
assion	-8987
▁labarai	-8988
illa	-8989
▁north	-8990
▁Ev	-8991
isma	-8992
▁anx	-8993
▁afraid	-8994
▁gradual	-8995
▁familiar	-8996
ocr	-8997
▁2002,	-8998
▁irre	-8999
▁Microsoft	-9000
▁littattaf	-9001
▁safeguards	-9002
▁availability	-9003
▁gizon	-9004
▁deserve	-9005
-15	-9006
wered	-9007
▁Barn	-9008
▁audio	-9009
▁interim	-9010
▁profound	-9011
ibai	-9012
▁ast	-9013
▁lok	-9014
▁ensures	-9015
▁accommod	-9016
▁initiated	-9017
▁kamfan	-9018
▁architect	-9019
anz	-9020
▁demonst	-9021
▁Communities	-9022
▁2002.	-9023
▁abada	-9024
▁Week	-9025
▁mere	-9026
▁multiple	-9027
▁restricted	-9028
asting	-9029
▁losing	-9030
ams	-9031
▁Kamf	-9032
▁demonstrates	-9033
5,	-9034
▁detri	-9035
▁dispar	-9036
▁kwatanta	-9037
▁mandatory	-9038
▁households	-9039
▁incorporated	-9040
TERN	-9041
▁diagn	-9042
▁fallen	-9043
▁extraordinary	-9044
▁COMM	-9045
▁unlikely	-9046
▁Iraqi	-9047
▁twice	-9048
▁wadda	-9049
▁Nord	-9050
▁Had	-9051
▁MAR	-9052
▁disse	-9053
▁arrangement	-9054
▁MED	-9055
▁Hist	-9056
▁intervene	-9057
▁SE	-9058
otten	-9059
▁Annual	-9060
▁urges	-9061
pers	-9062
ishin	-9063
▁Game	-9064
▁heat	-9065
▁koma	-9066
lation	-9067
▁Should	-9068
▁iska	-9069
▁gidaj	-9070
pair	-9071
ashar	-9072
stanbul	-9073
▁arrived	-9074
▁observers	-9075
▁inn	-9076
▁Bathroom	-9077
▁diox	-9078
▁Humanitarian	-9079
▁Land	-9080
▁rough	-9081
▁Partic	-9082
▁tariffs	-9083
▁declarations	-9084
UB	-9085
rich	-9086
▁Mech	-9087
▁urged	-9088
▁soil	-9089
▁loyal	-9090
▁appreciation	-9091
▁Jin	-9092
▁gains	-9093
athy	-9094
▁catch	-9095
▁sister	-9096
▁comparable	-9097
ellow	-9098
▁feas	-9099
irt	-9100
▁Jose	-9101
▁Armen	-9102
▁garga	-9103
▁owing	-9104
▁modest	-9105
mosp	-9106
ewar	-9107
▁Clearly	-9108
▁Organization	-9109
▁unb	-9110
paper	-9111
▁Open	-9112
▁sand	-9113
▁Meanwhile	-9114
▁conventions	-9115
▁administrations	-9116
ela	-9117
urare	-9118
▁race	-9119
orient	-9120
▁Within	-9121
▁strictly	-9122
▁executive	-9123
▁exemption	-9124
▁symp	-9125
▁expos	-9126
▁campaigns	-9127
▁customer	-9128
▁isa	-9129
▁chief	-9130
▁Maritime	-9131
▁accurate	-9132
▁satellite	-9133
security	-9134
▁Kat	-9135
▁EX	-9136
bean	-9137
▁fears	-9138
▁ignore	-9139
▁abolition	-9140
▁disciples	-9141
▁exposed	-9142
▁entering	-9143
▁stip	-9144
▁chair	-9145
ista	-9146
▁tank	-9147
▁unions	-9148
ibly	-9149
▁riga	-9150
▁Appro	-9151
▁serving	-9152
▁bude	-9153
▁blame	-9154
ids	-9155
orne	-9156
▁internationally	-9157
▁defining	-9158
▁experiencing	-9159
▁70%	-9160
▁lawy	-9161
▁invite	-9162
idden	-9163
▁Hence	-9164
▁Geneva	-9165
▁Download	-9166
▁interview	-9167
ques	-9168
UE	-9169
▁99	-9170
aired	-9171
ointed	-9172
▁umurn	-9173
▁distributed	-9174
▁dele	-9175
▁euros	-9176
▁necessity	-9177
▁statistical	-9178
▁supplementary	-9179
▁Kada	-9180
▁wars	-9181
▁kwanaki	-9182
▁aw	-9183
husi	-9184
▁enfor	-9185
▁Jordan	-9186
▁batun	-9187
▁selling	-9188
▁Washington	-9189
▁Ext	-9190
▁babb	-9191
▁retire	-9192
▁missing	-9193
▁vary	-9194
▁senior	-9195
stuffs	-9196
akai	-9197
▁personnel	-9198
▁fix	-9199
▁pact	-9200
▁ziyar	-9201
(1)	-9202
▁daina	-9203
▁scrutiny	-9204
▁stresses	-9205
▁Log	-9206
▁rik	-9207
alisar	-9208
▁Ol	-9209
▁Six	-9210
▁Wed	-9211
▁blind	-9212
▁2007-2013	-9213
▁displaced	-9214
stat	-9215
orinth	-9216
▁Watch	-9217
▁expense	-9218
▁unpreced	-9219
▁importantly	-9220
▁PL	-9221
▁Heb	-9222
▁alh	-9223
▁veget	-9224
▁everywhere	-9225
▁bureaucracy	-9226
akky	-9227
▁quote	-9228
▁AS	-9229
▁prevented	-9230
iro	-9231
osm	-9232
▁fito	-9233
▁warming	-9234
▁distance	-9235
▁producer	-9236
▁suspended	-9237
▁systematic	-9238
▁exclusively	-9239
fit	-9240
elong	-9241
▁root	-9242
▁soul	-9243
cription	-9244
itus	-9245
▁ethical	-9246
roductive	-9247
cience	-9248
▁ƙarfin	-9249
▁corner	-9250
▁Ru	-9251
▁consists	-9252
▁Previous	-9253
arked	-9254
▁siff	-9255
▁Customs	-9256
▁Implement	-9257
▁APC	-9258
▁route	-9259
▁hanyoyi	-9260
▁Agricultural	-9261
zb	-9262
▁kudin	-9263
untu	-9264
▁swe	-9265
▁secondary	-9266
lymp	-9267
iyyar	-9268
▁PROC	-9269
▁merger	-9270
▁Juncker	-9271
▁Step	-9272
▁Tibet	-9273
▁poly	-9274
▁posts	-9275
▁mayar	-9276
▁Corpor	-9277
rs	-9278
▁epid	-9279
exist	-9280
▁Blue	-9281
▁Taiwan	-9282
▁lesson	-9283
▁Interior	-9284
▁Agreements	-9285
▁underlines	-9286
holm	-9287
oler	-9288
▁Consider	-9289
▁Beach	-9290
▁tangible	-9291
▁progressive	-9292
unate	-9293
▁facility	-9294
▁scenario	-9295
▁EP	-9296
▁mos	-9297
develop	-9298
regulation	-9299
llor	-9300
▁corresponding	-9301
▁Cross	-9302
▁Istanbul	-9303
▁recognized	-9304
76	-9305
▁mix	-9306
▁Gwamn	-9307
ervative	-9308
▁dramatic	-9309
▁reviewed	-9310
ienna	-9311
▁Ange	-9312
Co	-9313
jen	-9314
Christian	-9315
▁assessing	-9316
▁2020.	-9317
▁ceiling	-9318
▁accordingly	-9319
▁Lie	-9320
ophob	-9321
▁escal	-9322
▁mostly	-9323
▁Budgetary	-9324
▁judgments	-9325
▁Foundation	-9326
ORT	-9327
▁uphold	-9328
fund	-9329
▁professionals	-9330
▁unprecedented	-9331
▁finds	-9332
▁Mah	-9333
▁gwi	-9334
▁STAT	-9335
▁pose	-9336
GE	-9337
ublin	-9338
▁dak	-9339
▁Apple	-9340
▁usual	-9341
▁burdens	-9342
▁supervisory	-9343
▁saman	-9344
▁topics	-9345
▁Nonetheless	-9346
aint	-9347
▁enthusi	-9348
▁Directorate	-9349
▁fashion	-9350
▁hydro	-9351
▁CN	-9352
racies	-9353
▁Video	-9354
▁Would	-9355
▁Bon	-9356
▁mah	-9357
▁bran	-9358
pection	-9359
▁identification	-9360
ANTS	-9361
gar	-9362
▁Access	-9363
▁bindiga	-9364
▁observe	-9365
▁employed	-9366
-6	-9367
apore	-9368
▁frag	-9369
▁removal	-9370
▁Indian	-9371
▁underline	-9372
FIN	-9373
mat	-9374
▁mm	-9375
inki	-9376
▁farkon	-9377
▁Kim	-9378
▁imposing	-9379
UC	-9380
rend	-9381
▁Kal	-9382
▁Timoth	-9383
▁proven	-9384
▁vill	-9385
▁Olymp	-9386
▁cibiyar	-9387
▁intensive	-9388
▁ear	-9389
▁handling	-9390
▁terrible	-9391
▁contributes	-9392
oya	-9393
▁resur	-9394
▁hazard	-9395
▁constraints	-9396
▁evil	-9397
▁farms	-9398
▁forests	-9399
▁confirms	-9400
oms	-9401
▁1993	-9402
osystem	-9403
▁stations	-9404
vo	-9405
ws	-9406
▁Jon	-9407
▁mab	-9408
ander	-9409
▁Creat	-9410
▁decentral	-9411
▁nav	-9412
▁Terr	-9413
▁string	-9414
▁visited	-9415
▁controll	-9416
▁acceptance	-9417
Tube	-9418
ocur	-9419
▁Wanda	-9420
▁Š	-9421
▁Yahud	-9422
▁sassa	-9423
organ	-9424
▁glass	-9425
▁holds	-9426
▁organise	-9427
▁Multi	-9428
▁ambata	-9429
▁season	-9430
▁emerged	-9431
▁atmosp	-9432
▁patient	-9433
▁PARTIC	-9434
▁mataki	-9435
iversary	-9436
▁Casino	-9437
▁Priority	-9438
▁Rub	-9439
▁driven	-9440
▁Regarding	-9441
▁inspection	-9442
▁Mats	-9443
▁Test	-9444
deb	-9445
ATIONS	-9446
▁Operational	-9447
▁Hosting	-9448
▁subsequently	-9449
▁mã	-9450
▁Ap	-9451
▁wood	-9452
▁recognises	-9453
▁tan	-9454
▁everybody	-9455
mal	-9456
▁offices	-9457
▁fundament	-9458
print	-9459
▁agrees	-9460
oko	-9461
zal	-9462
matic	-9463
cean	-9464
▁shafa	-9465
▁supplier	-9466
▁marks	-9467
▁raises	-9468
▁kokarin	-9469
▁eat	-9470
aikace	-9471
▁bangaskiya	-9472
▁horizontal	-9473
.'	-9474
zen	-9475
iban	-9476
arkar	-9477
▁incomes	-9478
iminal	-9479
▁ended	-9480
▁torture	-9481
▁condemned	-9482
▁bango	-9483
▁heads	-9484
▁flight	-9485
▁Articles	-9486
▁virtually	-9487
▁Frid	-9488
fall	-9489
▁EFTA	-9490
▁doll	-9491
▁refuse	-9492
▁instruct	-9493
▁concludes	-9494
▁interventions	-9495
utors	-9496
▁kanka	-9497
▁Progress	-9498
▁exclusive	-9499
▁reflection	-9500
▁Jar	-9501
▁regulate	-9502
▁thanking	-9503
▁encoun	-9504
▁accompany	-9505
▁Onyx	-9506
▁genetically	-9507
inda	-9508
▁cra	-9509
▁REL	-9510
▁dok	-9511
▁weaknesses	-9512
▁miliyan	-9513
▁PARTICIP	-9514
▁drafting	-9515
▁regulators	-9516
inar	-9517
▁arb	-9518
▁textile	-9519
▁pandemic	-9520
▁intermedi	-9521
ibbean	-9522
▁planet	-9523
▁visible	-9524
pectives	-9525
rical	-9526
▁GB	-9527
▁yayi	-9528
ECT	-9529
▁surprised	-9530
iba	-9531
▁newly	-9532
▁Laser	-9533
▁wahala	-9534
▁Abraham	-9535
▁vit	-9536
▁nomin	-9537
▁parad	-9538
▁arziki	-9539
▁jurisdiction	-9540
hou	-9541
▁4:	-9542
▁IG	-9543
enses	-9544
heart	-9545
eper	-9546
▁Hany	-9547
▁Fisch	-9548
▁Thanks	-9549
▁acknowledged	-9550
map	-9551
▁shif	-9552
▁Sever	-9553
▁Change	-9554
▁sayar	-9555
▁resort	-9556
▁Michael	-9557
▁telecom	-9558
▁permitted	-9559
▁(0)	-9560
financing	-9561
▁25%	-9562
▁accum	-9563
▁device	-9564
isi	-9565
▁alia	-9566
▁Vienna	-9567
▁duration	-9568
▁Set	-9569
▁Apart	-9570
▁mankind	-9571
▁fragment	-9572
▁consistently	-9573
udes	-9574
▁hasken	-9575
▁raba	-9576
▁cells	-9577
▁leaves	-9578
▁clearer	-9579
▁foreseen	-9580
itably	-9581
▁Mulki	-9582
▁diff	-9583
▁5%	-9584
ategic	-9585
ictures	-9586
▁George	-9587
▁joining	-9588
isha	-9589
▁Rev	-9590
▁ties	-9591
ounded	-9592
aftisma	-9593
annes	-9594
▁2013.	-9595
▁brand	-9596
▁robust	-9597
▁preaching	-9598
▁Millennium	-9599
▁definitive	-9600
elled	-9601
ancies	-9602
▁videos	-9603
largement	-9604
ns	-9605
CIL	-9606
▁thr	-9607
▁Singapore	-9608
allace	-9609
▁Dublin	-9610
▁beautiful	-9611
▁adequately	-9612
▁Congo	-9613
▁enabled	-9614
▁Psalm	-9615
▁Tam	-9616
▁tape	-9617
▁minute	-9618
▁interconn	-9619
rag	-9620
▁Use	-9621
▁awarded	-9622
▁Wr	-9623
▁equity	-9624
OG	-9625
▁Left	-9626
including	-9627
▁GN	-9628
▁NL	-9629
itan	-9630
▁Hab	-9631
▁Dukkan	-9632
▁seemed	-9633
agu	-9634
haust	-9635
▁Street	-9636
▁policymakers	-9637
▁Galile	-9638
goti	-9639
▁Att	-9640
▁Ken	-9641
▁sul	-9642
▁mash	-9643
ologies	-9644
▁publicly	-9645
ijing	-9646
▁karkashin	-9647
▁PARTICIPANTS	-9648
▁Marg	-9649
utrition	-9650
▁5:	-9651
▁dun	-9652
▁Burea	-9653
▁magn	-9654
▁reviews	-9655
▁Palestine	-9656
▁Fax	-9657
▁ang	-9658
▁kuɗi	-9659
▁sorry	-9660
▁broadband	-9661
▁generated	-9662
▁Vietnam	-9663
▁adaptation	-9664
isan	-9665
▁haɗin	-9666
▁remote	-9667
▁Southern	-9668
▁distortions	-9669
▁Scot	-9670
▁alher	-9671
▁praise	-9672
▁Fischler	-9673
bin	-9674
oting	-9675
▁keen	-9676
▁banned	-9677
▁victim	-9678
▁ecosystem	-9679
▁principal	-9680
irka	-9681
▁Note	-9682
▁traditions	-9683
iwon	-9684
▁graphics	-9685
essor	-9686
▁vers	-9687
▁Region	-9688
agg	-9689
▁allies	-9690
▁iron	-9691
▁Ishaya	-9692
idential	-9693
▁counterpart	-9694
ushed	-9695
▁helpful	-9696
?"	-9697
▁Book	-9698
swered	-9699
▁bak	-9700
▁invites	-9701
▁akw	-9702
▁Univers	-9703
▁desirable	-9704
▁Jews	-9705
▁impet	-9706
▁channels	-9707
▁Whe	-9708
▁Bitcoin	-9709
▁recipro	-9710
TC	-9711
▁م	-9712
umber	-9713
▁2021	-9714
uwancin	-9715
▁tickets	-9716
▁publications	-9717
▁90%	-9718
▁cig	-9719
▁reservations	-9720
▁title	-9721
▁girman	-9722
▁football	-9723
’,	-9724
ictions	-9725
▁ainihin	-9726
▁mainstream	-9727
icin	-9728
▁bond	-9729
▁incident	-9730
▁hoped	-9731
▁watsa	-9732
▁tsanani	-9733
▁Merger	-9734
▁nake	-9735
▁Otherwise	-9736
▁routes	-9737
▁Argentina	-9738
▁Caribbean	-9739
▁listening	-9740
▁unilateral	-9741
▁ecological	-9742
ARE	-9743
esides	-9744
▁anniversary	-9745
▁tel	-9746
▁fifth	-9747
▁godiya	-9748
▁Medical	-9749
▁dismiss	-9750
▁inquiry	-9751
▁husband	-9752
▁kashi	-9753
▁attrib	-9754
▁Stockholm	-9755
▁cet	-9756
rance	-9757
rating	-9758
▁managers	-9759
enth	-9760
inery	-9761
ecutive	-9762
▁lists	-9763
▁meets	-9764
erted	-9765
▁ran	-9766
▁mutumin	-9767
▁requiring	-9768
▁asks	-9769
▁grown	-9770
▁freight	-9771
▁organized	-9772
▁preventive	-9773
▁gudun	-9774
ape	-9775
ananan	-9776
▁adapted	-9777
▁implies	-9778
▁matsalar	-9779
Al	-9780
▁Real	-9781
▁preca	-9782
▁Mutane	-9783
▁neighbourhood	-9784
iny	-9785
▁fitar	-9786
▁pione	-9787
▁impetus	-9788
▁assembly	-9789
▁Tom	-9790
ometer	-9791
▁(3	-9792
ailand	-9793
▁solar	-9794
▁devoted	-9795
▁surrounding	-9796
▁EL	-9797
▁Nav	-9798
▁Ray	-9799
▁Suna	-9800
▁almajir	-9801
▁mistakes	-9802
IES	-9803
being	-9804
▁Aiki	-9805
trade	-9806
▁enshr	-9807
▁defeat	-9808
▁neglect	-9809
▁dalla	-9810
▁marginal	-9811
lad	-9812
▁Islands	-9813
2/	-9814
▁mota	-9815
▁cultures	-9816
lims	-9817
▁zabi	-9818
itored	-9819
▁expressing	-9820
:30	-9821
▁CP	-9822
▁shekarar	-9823
▁artificial	-9824
▁Rober	-9825
otechnology	-9826
▁continuous	-9827
olved	-9828
▁util	-9829
▁Environmental	-9830
▁band	-9831
▁Beijing	-9832
FI	-9833
ilawa	-9834
▁Kano	-9835
▁Chance	-9836
▁specified	-9837
ossil	-9838
▁List	-9839
▁fron	-9840
▁2001.	-9841
▁Prize	-9842
▁Life	-9843
▁revenues	-9844
▁kiyaye	-9845
▁mixed	-9846
▁surprise	-9847
▁consistency	-9848
▁distinction	-9849
▁Him	-9850
▁samuwa	-9851
▁Marmaris	-9852
iku	-9853
warewa	-9854
▁bidiyo	-9855
▁entity	-9856
▁messages	-9857
▁biyan	-9858
▁Fourth	-9859
accession	-9860
▁evaluate	-9861
79	-9862
(2)	-9863
▁academic	-9864
AIR	-9865
play	-9866
▁POLIC	-9867
▁mental	-9868
▁postal	-9869
▁kungiyar	-9870
xBet	-9871
▁ƙun	-9872
▁Socialists	-9873
▁punishment	-9874
▁bureaucratic	-9875
DG	-9876
▁Mechanism	-9877
▁Recommendation	-9878
arce	-9879
▁haɗa	-9880
▁shap	-9881
▁atomatik	-9882
▁simplified	-9883
▁1999,	-9884
▁COUNCIL	-9885
▁student	-9886
▁scheduled	-9887
▁accelerate	-9888
▁Disc	-9889
▁gwada	-9890
▁jagor	-9891
▁sauti	-9892
▁Ayyukan	-9893
▁entities	-9894
▁responded	-9895
anner	-9896
▁acted	-9897
▁Bureau	-9898
▁complaint	-9899
▁surprising	-9900
▁Asht	-9901
▁donor	-9902
▁mahim	-9903
arkokin	-9904
▁station	-9905
▁career	-9906
▁globalization	-9907
▁Carl	-9908
▁unjust	-9909
▁heavily	-9910
▁certific	-9911
▁monitored	-9912
▁Camb	-9913
▁Friday	-9914
▁PDP	-9915
▁packaging	-9916
▁Blog	-9917
▁plus	-9918
▁fines	-9919
tenstein	-9920
▁fassara	-9921
ARS	-9922
▁engineering	-9923
▁Arch	-9924
uraren	-9925
▁Monitor	-9926
▁confron	-9927
▁entrepreneurs	-9928
▁tsab	-9929
▁overse	-9930
▁drafted	-9931
▁counterfe	-9932
▁1000	-9933
▁Haka	-9934
▁Hamas	-9935
▁indicates	-9936
▁Martin	-9937
▁daɗewa	-9938
▁procedural	-9939
▁write	-9940
▁7,	-9941
scrib	-9942
▁Gidan	-9943
▁Design	-9944
pdf	-9945
▁struck	-9946
▁plastic	-9947
yo	-9948
cor	-9949
▁13,	-9950
▁match	-9951
▁°	-9952
undering	-9953
▁appeared	-9954
▁James	-9955
▁outset	-9956
▁Several	-9957
▁gambling	-9958
▁delivering	-9959
fur	-9960
uts	-9961
unal	-9962
▁sphere	-9963
▁sectoral	-9964
▁conce	-9965
▁sharp	-9966
▁diverse	-9967
ilipp	-9968
habilit	-9969
carbon	-9970
▁commend	-9971
▁establishes	-9972
▁discl	-9973
▁argued	-9974
NG	-9975
▁Reding	-9976
▁famous	-9977
▁Scientific	-9978
odin	-9979
▁dark	-9980
▁Scotland	-9981
isite	-9982
ushen	-9983
▁camp	-9984
▁recycling	-9985
cs	-9986
▁backing	-9987
▁certification	-9988
ROV	-9989
▁+35	-9990
▁inject	-9991
▁avoiding	-9992
▁kway	-9993
▁grand	-9994
▁avo	-9995
elect	-9996
▁Bakin	-9997
▁Matthew	-9998
agon	-9999
▁coverage	-10000
▁preparatory	-10001
▁transnational	-10002
▁6,	-10003
▁Ins	-10004
▁Mel	-10005
▁Arabia	-10006
▁1%	-10007
ultane	-10008
▁Goals	-10009
▁dalilin	-10010
▁stimulus	-10011
▁brut	-10012
iwatar	-10013
▁maganar	-10014
rison	-10015
▁units	-10016
▁Monday	-10017
▁serves	-10018
▁placing	-10019
▁remarkable	-10020
oba	-10021
▁Gh	-10022
▁Pie	-10023
▁wake	-10024
▁symbolic	-10025
▁aiming	-10026
▁plural	-10027
▁humanity	-10028
chtenstein	-10029
MA	-10030
▁laying	-10031
VD	-10032
▁Metal	-10033
▁regrettable	-10034
▁Yar	-10035
▁wire	-10036
erties	-10037
▁mugunta	-10038
zek	-10039
▁José	-10040
▁maxim	-10041
▁SO	-10042
▁dollars	-10043
▁pressures	-10044
▁Nem	-10045
▁phr	-10046
warai	-10047
▁chat	-10048
▁deem	-10049
▁avoided	-10050
▁adjustments	-10051
ikh	-10052
och	-10053
▁Nass	-10054
▁Get	-10055
amban	-10056
▁listened	-10057
ƙon	-10058
▁58	-10059
▁(10	-10060
▁warmly	-10061
▁Hearing	-10062
▁ensured	-10063
▁identifying	-10064
▁relationships	-10065
▁430	-10066
▁tur	-10067
▁OSCE	-10068
▁bapt	-10069
▁kammala	-10070
ius	-10071
unctioning	-10072
▁conviction	-10073
▁consolidate	-10074
▁Liechtenstein	-10075
▁hat	-10076
▁trials	-10077
▁Kaz	-10078
▁lacking	-10079
▁Ali	-10080
▁denied	-10081
▁bari	-10082
ceding	-10083
rative	-10084
▁currencies	-10085
icted	-10086
tallace	-10087
▁occupation	-10088
▁lowest	-10089
▁murder	-10090
▁exceptions	-10091
▁instability	-10092
▁BR	-10093
▁tough	-10094
▁NOT	-10095
▁doss	-10096
rading	-10097
▁counsel	-10098
▁consultative	-10099
▁Muslims	-10100
▁ali	-10101
▁meantime	-10102
▁buƙ	-10103
iques	-10104
▁Rest	-10105
▁Country	-10106
▁matakin	-10107
▁conventional	-10108
▁Syrian	-10109
▁errors	-10110
▁fossil	-10111
▁rating	-10112
▁transferred	-10113
▁Parties	-10114
▁followers	-10115
78	-10116
adu	-10117
▁Rail	-10118
▁ITA	-10119
▁karatu	-10120
▁Economy	-10121
▁Picture	-10122
▁audiovisual	-10123
▁observation	-10124
inch	-10125
itiveness	-10126
▁unanimous	-10127
Wh	-10128
▁McC	-10129
▁catal	-10130
▁injin	-10131
ISO	-10132
▁flights	-10133
▁Criminal	-10134
▁yawancin	-10135
▁ax	-10136
atawa	-10137
▁Executive	-10138
▁reiterate	-10139
▁perspectives	-10140
reaching	-10141
▁click	-10142
▁approves	-10143
▁depending	-10144
▁ƙy	-10145
usun	-10146
icious	-10147
▁dattawa	-10148
rav	-10149
352)	-10150
▁kasuwa	-10151
▁Eurostat	-10152
GB	-10153
▁kā	-10154
▁observations	-10155
ilu	-10156
▁ep	-10157
▁gwaji	-10158
▁exploit	-10159
▁gaps	-10160
▁Guine	-10161
▁virus	-10162
▁lõ	-10163
▁kom	-10164
otic	-10165
▁Ret	-10166
comes	-10167
▁tattoo	-10168
▁Kamfanin	-10169
▁behavior	-10170
05	-10171
▁SOL	-10172
▁dual	-10173
▁zaɓi	-10174
▁exhaust	-10175
▁warrant	-10176
▁assurance	-10177
aina	-10178
stone	-10179
▁Mand	-10180
▁momentum	-10181
▁ultimate	-10182
▁86	-10183
▁Fif	-10184
▁maƙ	-10185
▁deployment	-10186
des	-10187
▁LE	-10188
ucas	-10189
▁margin	-10190
▁removing	-10191
▁Max	-10192
▁recip	-10193
▁Communist	-10194
erally	-10195
▁database	-10196
▁evolution	-10197
▁conversion	-10198
▁64	-10199
elson	-10200
itudes	-10201
▁medicine	-10202
det	-10203
▁Luka	-10204
▁answered	-10205
▁ambitions	-10206
▁Hig	-10207
▁originally	-10208
74	-10209
inka	-10210
chain	-10211
▁profile	-10212
▁autonomy	-10213
▁coalition	-10214
▁Fact	-10215
iciary	-10216
▁2012.	-10217
▁Bayani	-10218
▁ub	-10219
▁tum	-10220
▁clin	-10221
ivated	-10222
▁Figures	-10223
▁decrease	-10224
▁Sak	-10225
▁tawali	-10226
▁formed	-10227
▁matasa	-10228
▁retirement	-10229
discrimination	-10230
rown	-10231
▁Ƙari	-10232
▁Waɗanne	-10233
▁sarrafa	-10234
▁WIT	-10235
▁overwhelming	-10236
▁safeguarding	-10237
REE	-10238
onin	-10239
▁empt	-10240
▁2013,	-10241
▁Force	-10242
▁transformation	-10243
AH	-10244
crib	-10245
▁Ashton	-10246
▁Against	-10247
annu	-10248
▁Jew	-10249
viously	-10250
▁Galileo	-10251
▁dalibai	-10252
atibility	-10253
▁disadvantaged	-10254
/06	-10255
ctic	-10256
▁130	-10257
▁ric	-10258
ussions	-10259
▁accused	-10260
▁cryptocur	-10261
▁ange	-10262
▁hidimar	-10263
▁Ul	-10264
▁Dok	-10265
▁nag	-10266
▁1999.	-10267
▁claimed	-10268
0000	-10269
▁Imm	-10270
▁club	-10271
▁scandal	-10272
▁Statute	-10273
▁baftisma	-10274
EST	-10275
redit	-10276
▁AIDS	-10277
igrant	-10278
▁kunne	-10279
▁channel	-10280
▁Building	-10281
ipher	-10282
▁2015.	-10283
▁Could	-10284
▁fiber	-10285
▁theory	-10286
▁Romanian	-10287
▁continuation	-10288
mai	-10289
▁ECHO	-10290
▁devote	-10291
athan	-10292
▁interoper	-10293
▁53	-10294
▁Sand	-10295
▁sees	-10296
ermost	-10297
▁2011,	-10298
▁agents	-10299
▁POLICY	-10300
▁kasashen	-10301
▁Thailand	-10302
▁indication	-10303
▁(3)	-10304
▁Until	-10305
▁assured	-10306
▁anointed	-10307
▁tab	-10308
▁unequ	-10309
▁zones	-10310
▁basically	-10311
▁DC	-10312
oric	-10313
finance	-10314
▁Cibiyar	-10315
▁02	-10316
▁dand	-10317
▁aqu	-10318
▁2011.	-10319
▁desper	-10320
▁earthqu	-10321
▁operator	-10322
▁Ren	-10323
▁Korean	-10324
▁Pacific	-10325
▁illness	-10326
▁soldiers	-10327
▁wonderful	-10328
▁Chancellor	-10329
lu	-10330
usse	-10331
▁ignored	-10332
sess	-10333
▁grat	-10334
untuɓi	-10335
▁teams	-10336
▁rejection	-10337
▁simultane	-10338
▁onto	-10339
▁pret	-10340
▁lived	-10341
▁wording	-10342
ios	-10343
erge	-10344
ugen	-10345
akkyawan	-10346
▁closure	-10347
mann	-10348
▁Zai	-10349
▁residents	-10350
ANN	-10351
▁survival	-10352
urg	-10353
asken	-10354
risis	-10355
▁Fam	-10356
▁Jirgin	-10357
▁YouTube	-10358
▁PH	-10359
▁Nan	-10360
oshin	-10361
▁canc	-10362
▁biyar	-10363
▁foods	-10364
/04	-10365
▁15%	-10366
▁Fushi	-10367
▁capacities	-10368
▁confidentiality	-10369
▁canza	-10370
▁innoc	-10371
▁shari	-10372
▁inspired	-10373
▁KA	-10374
▁named	-10375
▁Philipp	-10376
▁unlimited	-10377
uren	-10378
▁Amaz	-10379
▁pages	-10380
▁dangers	-10381
▁matattu	-10382
▁exposure	-10383
▁normally	-10384
▁investigate	-10385
▁PS	-10386
zalika	-10387
▁disabilities	-10388
uz	-10389
emen	-10390
▁Ec	-10391
▁Start	-10392
▁operates	-10393
▁nonetheless	-10394
▁Gud	-10395
▁jini	-10396
▁reput	-10397
▁inspections	-10398
which	-10399
▁biof	-10400
▁pestic	-10401
▁viewed	-10402
▁reserved	-10403
▁rehabilit	-10404
▁fill	-10405
▁remedy	-10406
▁pressing	-10407
▁Lin	-10408
▁Price	-10409
▁racism	-10410
▁complementary	-10411
▁CoR	-10412
▁dispro	-10413
▁Manzanni	-10414
▁Kana	-10415
▁minds	-10416
duction	-10417
▁workforce	-10418
far	-10419
▁14.	-10420
eness	-10421
▁diam	-10422
nesday	-10423
▁aspir	-10424
controlled	-10425
▁notification	-10426
▁lõk	-10427
▁prud	-10428
▁Allahn	-10429
▁arrive	-10430
▁letters	-10431
▁feelings	-10432
▁wherever	-10433
ulla	-10434
▁gaf	-10435
▁unch	-10436
establ	-10437
ãn	-10438
VIT	-10439
ihu	-10440
▁Cost	-10441
arians	-10442
▁Tool	-10443
▁loving	-10444
ubar	-10445
▁Chile	-10446
▁VI	-10447
▁posed	-10448
▁magani	-10449
▁limiting	-10450
▁wurare	-10451
▁defending	-10452
▁Lam	-10453
▁52	-10454
▁CC	-10455
▁iyalin	-10456
essional	-10457
▁tensions	-10458
ubb	-10459
awun	-10460
▁fees	-10461
▁weather	-10462
ensu	-10463
▁nemi	-10464
▁[...]	-10465
▁resili	-10466
▁Likewise	-10467
▁platforms	-10468
▁suggestion	-10469
▁15.	-10470
▁Allahu	-10471
▁Others	-10472
▁concentrated	-10473
IONS	-10474
▁fari	-10475
▁cards	-10476
▁moves	-10477
▁taught	-10478
▁Barnier	-10479
▁stopped	-10480
HU	-10481
▁od	-10482
▁square	-10483
▁reverse	-10484
▁explicitly	-10485
▁Nai	-10486
▁tik	-10487
▁13.	-10488
▁PAG	-10489
▁buying	-10490
▁enjoyed	-10491
▁kimiyya	-10492
▁lõkacin	-10493
▁badly	-10494
▁tested	-10495
ustration	-10496
▁96	-10497
ullah	-10498
▁seat	-10499
istrib	-10500
▁dumping	-10501
▁Obviously	-10502
▁88	-10503
ogen	-10504
▁Hoto	-10505
▁mala	-10506
▁roba	-10507
ulates	-10508
cos	-10509
lor	-10510
otive	-10511
▁prag	-10512
72	-10513
lers	-10514
ivities	-10515
▁annually	-10516
▁sacrifice	-10517
لا	-10518
▁Vis	-10519
KA	-10520
▁noon	-10521
▁shame	-10522
▁maimakon	-10523
▁tolerance	-10524
dec	-10525
azin	-10526
ups	-10527
▁Pen	-10528
utral	-10529
▁Long	-10530
▁dawo	-10531
▁label	-10532
▁adding	-10533
▁pending	-10534
▁Administration	-10535
power	-10536
▁shel	-10537
▁skin	-10538
▁window	-10539
▁defense	-10540
▁missions	-10541
▁forecasts	-10542
▁launching	-10543
▁democracies	-10544
▁Fas	-10545
ocate	-10546
▁worthy	-10547
▁forgotten	-10548
▁Ing	-10549
▁Case	-10550
▁watanni	-10551
dr	-10552
▁trace	-10553
▁Forest	-10554
▁button	-10555
▁Yahudawa	-10556
▁trillion	-10557
/08	-10558
tax	-10559
enger	-10560
▁nobody	-10561
IFE	-10562
▁Cash	-10563
▁ɗaukaka	-10564
▁attended	-10565
▁east	-10566
▁acquire	-10567
▁drinking	-10568
beit	-10569
opoly	-10570
▁juya	-10571
▁safer	-10572
▁broken	-10573
usterity	-10574
▁Algeria	-10575
▁Fa	-10576
▁kanmu	-10577
▁stick	-10578
▁store	-10579
▁images	-10580
▁judges	-10581
/01	-10582
▁frank	-10583
▁transmit	-10584
▁Wednesday	-10585
▁("	-10586
▁grave	-10587
▁lalle	-10588
▁ministerial	-10589
▁Afr	-10590
▁disappear	-10591
▁Arm	-10592
warar	-10593
▁Person	-10594
▁Respon	-10595
▁justification	-10596
amai	-10597
aren	-10598
▁wave	-10599
▁isolation	-10600
▁q	-10601
▁10,	-10602
venth	-10603
▁Maria	-10604
▁clarification	-10605
addam	-10606
eting	-10607
▁wicked	-10608
▁Certain	-10609
▁civilians	-10610
bank	-10611
irye	-10612
sues	-10613
arden	-10614
human	-10615
▁alle	-10616
irus	-10617
▁Level	-10618
▁depth	-10619
▁reinforcing	-10620
TR	-10621
▁imperative	-10622
▁ruk	-10623
▁Joseph	-10624
▁PROCESS	-10625
argo	-10626
▁Bell	-10627
▁Charl	-10628
▁orders	-10629
▁accepting	-10630
▁concessions	-10631
▁05	-10632
▁74	-10633
▁700	-10634
▁sallam	-10635
irty	-10636
▁Have	-10637
▁manip	-10638
▁ƙoƙarin	-10639
It	-10640
adar	-10641
▁dismant	-10642
▁takardar	-10643
erbai	-10644
ounce	-10645
▁APPROV	-10646
▁globally	-10647
▁criterion	-10648
▁Luk	-10649
Parliament	-10650
71	-10651
▁06	-10652
ours	-10653
▁Lou	-10654
▁bill	-10655
▁recruit	-10656
▁Nigerian	-10657
▁Migration	-10658
erman	-10659
▁dauki	-10660
▁oppon	-10661
92	-10662
AV	-10663
hua	-10664
▁Off	-10665
▁bamb	-10666
▁Donald	-10667
pled	-10668
ulia	-10669
▁cire	-10670
▁respectively	-10671
▁zuciy	-10672
▁fires	-10673
▁cleared	-10674
▁misalin	-10675
▁recalled	-10676
/4	-10677
win	-10678
uan	-10679
▁fir	-10680
▁Enlargement	-10681
▁AFF	-10682
health	-10683
نی	-10684
/16	-10685
▁Sem	-10686
▁Tamb	-10687
▁Better	-10688
▁acquired	-10689
▁dependence	-10690
▁sch	-10691
93	-10692
94	-10693
▁coins	-10694
▁Guinea	-10695
▁orientation	-10696
ORK	-10697
▁dõ	-10698
▁lit	-10699
▁1991	-10700
▁intelligent	-10701
▁1970	-10702
fringe	-10703
▁promotes	-10704
akh	-10705
▁controversial	-10706
▁ends	-10707
through	-10708
▁backed	-10709
▁visas	-10710
▁66	-10711
oked	-10712
▁nauyi	-10713
▁anywhere	-10714
▁recommends	-10715
DR	-10716
▁Ram	-10717
▁bold	-10718
▁runs	-10719
▁spot	-10720
▁APPROVED	-10721
fire	-10722
▁hes	-10723
▁Cert	-10724
▁hazardous	-10725
petr	-10726
▁gun	-10727
▁publish	-10728
▁survive	-10729
▁Globalisation	-10730
▁specification	-10731
pons	-10732
balgs	-10733
▁cold	-10734
▁abuses	-10735
▁Lear	-10736
▁Take	-10737
▁veter	-10738
▁closing	-10739
▁genetic	-10740
▁pursuant	-10741
▁lamba	-10742
▁logic	-10743
▁attach	-10744
▁contem	-10745
▁trouble	-10746
▁incompatible	-10747
▁transportation	-10748
▁cim	-10749
▁ster	-10750
▁rescue	-10751
▁possess	-10752
▁pig	-10753
▁emerge	-10754
▁lifelong	-10755
▁quantity	-10756
▁Jamus	-10757
▁hearts	-10758
▁deposit	-10759
▁structured	-10760
▁tara	-10761
▁consequently	-10762
ella	-10763
▁gets	-10764
▁spec	-10765
-12	-10766
▁Bow	-10767
▁Private	-10768
▁incorporate	-10769
BC	-10770
▁Fron	-10771
▁layi	-10772
▁2012,	-10773
▁tribute	-10774
▁apparently	-10775
FOR	-10776
ardo	-10777
unar	-10778
▁towns	-10779
▁securities	-10780
arke	-10781
iciency	-10782
▁Together	-10783
▁convince	-10784
outs	-10785
▁commented	-10786
fortunate	-10787
▁austerity	-10788
▁biological	-10789
▁Vene	-10790
▁ajiya	-10791
▁halaka	-10792
reme	-10793
▁Gode	-10794
▁lays	-10795
▁solved	-10796
▁Concern	-10797
▁spectrum	-10798
case	-10799
▁karfi	-10800
▁Hasken	-10801
▁zuciyar	-10802
▁damaging	-10803
▁ƴ	-10804
▁2030	-10805
▁Hack	-10806
lean	-10807
atten	-10808
▁strive	-10809
▁thoughts	-10810
iop	-10811
▁sincerely	-10812
▁disproportion	-10813
▁04	-10814
▁kuke	-10815
▁metal	-10816
▁Instru	-10817
▁deeper	-10818
▁8,	-10819
alon	-10820
▁Eur	-10821
▁alihi	-10822
▁capita	-10823
▁criminals	-10824
▁inevitable	-10825
oshi	-10826
▁ƙarya	-10827
▁ƙwarai	-10828
As	-10829
▁01	-10830
▁Soft	-10831
▁Kroes	-10832
▁sentence	-10833
▁unanimity	-10834
aded	-10835
serv	-10836
▁ƴan	-10837
▁Deleg	-10838
▁weigh	-10839
▁sakamako	-10840
cape	-10841
▁History	-10842
▁essence	-10843
▁unfortunate	-10844
▁Sund	-10845
▁cosm	-10846
iko	-10847
▁Wire	-10848
▁2020,	-10849
▁yanki	-10850
justice	-10851
▁makarant	-10852
▁atmosphere	-10853
isms	-10854
▁Sky	-10855
▁Lamb	-10856
▁sick	-10857
▁centuries	-10858
ny	-10859
anye	-10860
ouch	-10861
▁Romawa	-10862
AIRS	-10863
▁flu	-10864
elsinki	-10865
▁dangantaka	-10866
▁Tsaro	-10867
environment	-10868
▁Vlad	-10869
▁nufi	-10870
▁imprison	-10871
▁kirki	-10872
▁matsa	-10873
▁akwatin	-10874
▁advances	-10875
▁commentators	-10876
▁Representatives	-10877
ares	-10878
elve	-10879
▁magaz	-10880
ophobia	-10881
▁damuwa	-10882
▁confusion	-10883
▁responding	-10884
▁(%	-10885
aker	-10886
anke	-10887
▁10:	-10888
▁jawo	-10889
▁Haram	-10890
▁Verhe	-10891
/03	-10892
xit	-10893
This	-10894
▁11,	-10895
▁PVC	-10896
opher	-10897
▁rhet	-10898
▁holid	-10899
▁Conver	-10900
ummai	-10901
▁AFFAIRS	-10902
▁journey	-10903
▁prerequ	-10904
▁communicate	-10905
▁SS	-10906
▁carriers	-10907
▁judiciary	-10908
▁resolving	-10909
▁Competitiveness	-10910
▁tu	-10911
unte	-10912
▁Naj	-10913
▁Amb	-10914
oning	-10915
▁2015,	-10916
▁faruwa	-10917
ilingual	-10918
▁Azerbai	-10919
zy	-10920
▁Mo	-10921
abric	-10922
▁dogon	-10923
▁Scriptures	-10924
▁infect	-10925
GH	-10926
Sa	-10927
/02	-10928
▁	-10929
▁dimin	-10930
▁floods	-10931
▁ib	-10932
▁caught	-10933
▁perpetr	-10934
▁Shugaban	-10935
▁distinct	-10936
2]	-10937
/07	-10938
/98	-10939
▁Copyright	-10940
▁composition	-10941
▁2.5	-10942
chnya	-10943
▁Zamu	-10944
▁volat	-10945
▁hunger	-10946
▁misle	-10947
▁Trading	-10948
▁bishara	-10949
▁2%	-10950
▁Saul	-10951
▁DEBATED	-10952
▁council	-10953
▁Verheugen	-10954
▁disappointed	-10955
gl	-10956
salla	-10957
▁impacts	-10958
ml	-10959
enter	-10960
▁deadlines	-10961
kel	-10962
ɗai	-10963
▁gan	-10964
jejen	-10965
▁empty	-10966
▁toxic	-10967
atories	-10968
▁battery	-10969
▁charged	-10970
▁sle	-10971
▁alkawari	-10972
igen	-10973
▁horo	-10974
▁Democracy	-10975
▁encouragement	-10976
*,	-10977
ioned	-10978
▁goma	-10979
▁brain	-10980
▁allowances	-10981
▁76	-10982
▁AR	-10983
▁Langu	-10984
▁Travel	-10985
▁revers	-10986
EAS	-10987
month	-10988
lining	-10989
lusions	-10990
IE	-10991
▁finish	-10992
▁tabbaci	-10993
▁Chechnya	-10994
ofi	-10995
after	-10996
▁crow	-10997
▁liss	-10998
▁Panel	-10999
▁Shiga	-11000
▁invested	-11001
▁obstacle	-11002
▁kõ	-11003
ourse	-11004
antawa	-11005
▁samfur	-11006
▁gwiwa	-11007
▁ratify	-11008
roduction	-11009
▁Helsinki	-11010
UP	-11011
▁gift	-11012
▁deny	-11013
▁pays	-11014
uction	-11015
▁talked	-11016
comp	-11017
▁lingu	-11018
▁shiri	-11019
▁worker	-11020
▁explore	-11021
rary	-11022
▁gal	-11023
▁integral	-11024
▁installations	-11025
rations	-11026
▁doctors	-11027
▁Ɗan	-11028
▁hall	-11029
arantee	-11030
▁fragile	-11031
▁invitation	-11032
84	-11033
uis	-11034
▁196	-11035
▁Tari	-11036
▁iyali	-11037
▁Engine	-11038
▁ancient	-11039
▁Facility	-11040
▁expanding	-11041
aph	-11042
aton	-11043
▁Huk	-11044
▁Daya	-11045
▁visits	-11046
▁Whether	-11047
▁Lesbiyan	-11048
▁CD	-11049
▁rayuw	-11050
▁convey	-11051
▁analyses	-11052
▁Task	-11053
▁cyber	-11054
▁inher	-11055
▁divide	-11056
▁quantitative	-11057
life	-11058
▁pump	-11059
▁jimre	-11060
▁Ig	-11061
▁tsark	-11062
▁stringent	-11063
uit	-11064
ãwa	-11065
▁Club	-11066
▁handle	-11067
▁saukar	-11068
▁Colombia	-11069
▁alliance	-11070
▁sections	-11071
▁Statement	-11072
NS	-11073
▁Gas	-11074
alima	-11075
▁bayanan	-11076
▁seconds	-11077
▁outcomes	-11078
▁Anal	-11079
▁satisfy	-11080
▁tsoron	-11081
▁sincere	-11082
▁telecoms	-11083
asi	-11084
China	-11085
jojin	-11086
▁Allow	-11087
▁prophet	-11088
▁sabuwar	-11089
▁summary	-11090
sheet	-11091
▁gases	-11092
▁costly	-11093
▁daidaita	-11094
▁equipped	-11095
▁earm	-11096
▁incur	-11097
▁western	-11098
▁liquidity	-11099
▁coordinating	-11100
ƙo	-11101
▁lend	-11102
▁commun	-11103
▁koyarwa	-11104
▁advocate	-11105
elt	-11106
▁__	-11107
igar	-11108
acerb	-11109
▁mill	-11110
▁England	-11111
▁pillars	-11112
▁saved	-11113
▁6:	-11114
▁mitig	-11115
oriented	-11116
▁Communications	-11117
▁escape	-11118
▁EGF	-11119
▁Hon	-11120
▁Aids	-11121
TERNAL	-11122
▁termin	-11123
▁[1]	-11124
▁memory	-11125
▁owners	-11126
▁rubutu	-11127
▁exacerb	-11128
▁Led	-11129
▁repression	-11130
ache	-11131
▁albeit	-11132
▁babbar	-11133
▁intense	-11134
▁Dialogue	-11135
▁acid	-11136
▁aiwatar	-11137
▁conscience	-11138
▁Frank	-11139
rengthen	-11140
olly	-11141
▁Sir	-11142
▁rout	-11143
▁Hebrew	-11144
▁differ	-11145
innitus	-11146
▁Kit	-11147
▁Zan	-11148
▁blow	-11149
▁ending	-11150
▁inevitably	-11151
insa	-11152
▁portf	-11153
▁Armenia	-11154
▁forestry	-11155
▁outermost	-11156
▁54	-11157
▁shr	-11158
▁logical	-11159
▁Sy	-11160
ishi	-11161
▁gudu	-11162
▁Radio	-11163
▁Though	-11164
▁machines	-11165
bsites	-11166
▁intoler	-11167
▁matsala	-11168
▁medicinal	-11169
▁translated	-11170
arr	-11171
▁securing	-11172
▁Assistance	-11173
▁meaningful	-11174
▁objections	-11175
OB	-11176
tiers	-11177
▁Chair	-11178
▁driver	-11179
▁expanded	-11180
MW	-11181
acity	-11182
▁Diam	-11183
▁disreg	-11184
▁overlook	-11185
▁mãsu	-11186
Article	-11187
▁navigation	-11188
▁persecution	-11189
▁iz	-11190
▁Did	-11191
▁Ferre	-11192
▁disparities	-11193
arku	-11194
lock	-11195
▁Boko	-11196
▁fert	-11197
▁elders	-11198
▁impede	-11199
▁openly	-11200
▁precaution	-11201
▁FA	-11202
▁travelling	-11203
/?	-11204
▁WHO	-11205
▁Term	-11206
▁Factory	-11207
▁disturb	-11208
▁prolong	-11209
▁9:	-11210
eters	-11211
▁Abuja	-11212
▁director	-11213
▁tambayoyi	-11214
gr	-11215
▁AT	-11216
▁zã	-11217
▁+352	-11218
anning	-11219
▁tarihi	-11220
▁PE	-11221
▁Wann	-11222
▁islands	-11223
▁detention	-11224
Un	-11225
anas	-11226
▁seed	-11227
▁Still	-11228
▁tashar	-11229
▁moderate	-11230
▁collected	-11231
itis	-11232
▁asali	-11233
▁GPS	-11234
▁tail	-11235
holder	-11236
▁trip	-11237
▁Darfur	-11238
condition	-11239
▁execution	-11240
▁economists	-11241
lang	-11242
inding	-11243
▁Urush	-11244
▁phones	-11245
▁Somalia	-11246
▁refusal	-11247
▁socially	-11248
▁cens	-11249
ispens	-11250
▁Memor	-11251
▁adopts	-11252
ifferent	-11253
▁seekers	-11254
ƙar	-11255
ergies	-11256
▁0.0	-11257
▁Expl	-11258
▁Accession	-11259
▁Urushalima	-11260
▁departments	-11261
aken	-11262
▁ɗin	-11263
▁dukkan	-11264
▁clauses	-11265
▁renewal	-11266
▁adadin	-11267
▁Children	-11268
▁bututu	-11269
▁airline	-11270
▁roughly	-11271
▁clothing	-11272
▁enshrined	-11273
▁91	-11274
▁fate	-11275
▁Incre	-11276
▁Advert	-11277
▁fundamentally	-11278
▁dioxide	-11279
CF	-11280
SK	-11281
▁unde	-11282
essment	-11283
▁tattalin	-11284
▁emphasises	-11285
otton	-11286
▁reim	-11287
▁realize	-11288
▁abstained	-11289
▁quantities	-11290
▁privatisation	-11291
▁horm	-11292
asures	-11293
▁ƙoƙari	-11294
▁Johannes	-11295
-7	-11296
ii	-11297
food	-11298
ajiya	-11299
▁yiwu	-11300
▁repair	-11301
▁protests	-11302
▁marar	-11303
▁pursuit	-11304
▁tag	-11305
▁telling	-11306
▁whenever	-11307
▁promising	-11308
information	-11309
igo	-11310
eded	-11311
▁unp	-11312
▁cyan	-11313
▁Refuge	-11314
▁destination	-11315
SV	-11316
aper	-11317
▁taba	-11318
▁Robert	-11319
▁Venezu	-11320
▁bayanin	-11321
▁fasahar	-11322
▁determining	-11323
front	-11324
▁liber	-11325
▁bigger	-11326
▁Strategic	-11327
▁End	-11328
▁Nob	-11329
lling	-11330
arraba	-11331
▁Grand	-11332
▁Gy	-11333
assan	-11334
▁mara	-11335
▁Super	-11336
▁tarayya	-11337
▁suspension	-11338
▁manufacture	-11339
▁inequalities	-11340
▁16.	-11341
▁Young	-11342
appropri	-11343
▁knowing	-11344
▁ƙarshen	-11345
▁boosting	-11346
▁affordable	-11347
▁Haiti	-11348
attun	-11349
▁haih	-11350
▁kwal	-11351
▁gang	-11352
▁girm	-11353
▁describe	-11354
▁mutually	-11355
▁officers	-11356
▁railways	-11357
▁techniques	-11358
ãni	-11359
▁eg	-11360
ivest	-11361
proof	-11362
▁1997,	-11363
▁notion	-11364
▁(6	-11365
▁deterioration	-11366
▁PSE	-11367
▁pick	-11368
▁kyawun	-11369
▁generous	-11370
arma	-11371
▁LIFE	-11372
▁baby	-11373
▁Sport	-11374
▁forever	-11375
▁immunity	-11376
▁USB	-11377
▁kawar	-11378
▁split	-11379
▁League	-11380
▁expects	-11381
▁integrating	-11382
▁nationality	-11383
▁Cath	-11384
▁bankrupt	-11385
▁aer	-11386
▁kat	-11387
▁trem	-11388
▁borne	-11389
▁governed	-11390
▁shafukan	-11391
asc	-11392
▁Above	-11393
GR	-11394
▁Kam	-11395
▁wan	-11396
▁camps	-11397
▁ingred	-11398
▁swiftly	-11399
▁mace	-11400
▁tallace	-11401
▁challenging	-11402
▁Aj	-11403
▁FIS	-11404
▁faɗi	-11405
▁Fabra	-11406
pendent	-11407
▁Vladim	-11408
▁indispens	-11409
▁Hor	-11410
▁returns	-11411
▁shafaff	-11412
▁alkawarin	-11413
és	-11414
door	-11415
▁Holy	-11416
▁desired	-11417
▁Azerbaijan	-11418
▁foodstuffs	-11419
▁multiannual	-11420
dule	-11421
▁Sams	-11422
▁lalata	-11423
▁pricing	-11424
▁tambaya	-11425
cr	-11426
▁ki	-11427
Russ	-11428
▁Lag	-11429
▁Moh	-11430
itics	-11431
▁Ethiop	-11432
▁tikiti	-11433
▁protectionism	-11434
82	-11435
▁KO	-11436
raud	-11437
▁Hall	-11438
▁contest	-11439
▁offences	-11440
▁produces	-11441
▁Bat	-11442
▁DVD	-11443
▁Ayuba	-11444
▁champ	-11445
▁vigil	-11446
▁adults	-11447
oreboard	-11448
▁issuing	-11449
▁complied	-11450
▁PROCESSED	-11451
▁IGC	-11452
▁entail	-11453
▁officially	-11454
▁prote	-11455
▁Comments	-11456
▁explains	-11457
▁Ministerial	-11458
▁wane	-11459
▁ruled	-11460
▁stood	-11461
▁wutar	-11462
astrous	-11463
▁combine	-11464
▁subsidiary	-11465
ford	-11466
▁dry	-11467
▁jaw	-11468
▁lag	-11469
▁machinery	-11470
ema	-11471
▁Amfani	-11472
▁inganci	-11473
Yan	-11474
▁202	-11475
▁Tor	-11476
▁dõmin	-11477
▁filin	-11478
üb	-11479
▁rock	-11480
▁Neelie	-11481
▁resumed	-11482
quest	-11483
▁opens	-11484
▁switch	-11485
▁shareholders	-11486
addamar	-11487
▁default	-11488
▁monopoly	-11489
otics	-11490
letter	-11491
▁karshe	-11492
quarters	-11493
▁receives	-11494
respective	-11495
▁disastrous	-11496
raf	-11497
cles	-11498
ugur	-11499
-2020	-11500
plete	-11501
▁Leon	-11502
social	-11503
For	-11504
▁jari	-11505
▁cattle	-11506
▁licens	-11507
▁fostering	-11508
▁circulation	-11509
▁Implementation	-11510
burse	-11511
▁Gulf	-11512
▁rose	-11513
ocations	-11514
HER	-11515
ICE	-11516
▁gode	-11517
▁miƙa	-11518
▁mercy	-11519
▁~	-11520
600	-11521
▁Eco	-11522
▁slaughter	-11523
/14	-11524
▁(9	-11525
▁kul	-11526
▁Drug	-11527
▁Philip	-11528
▁neutral	-11529
barometer	-11530
▁pipeline	-11531
▁reputation	-11532
▁systematically	-11533
▁congratulations	-11534
doc	-11535
▁analyse	-11536
▁prejudice	-11537
▁unchanged	-11538
▁ɓang	-11539
igu	-11540
2010	-11541
▁12,	-11542
▁Much	-11543
▁mine	-11544
▁tender	-11545
assador	-11546
▁absurd	-11547
▁karin	-11548
▁rehabilitation	-11549
▁signals	-11550
▁everyday	-11551
▁announcement	-11552
▁indispensable	-11553
▁MU	-11554
▁Sha	-11555
▁hur	-11556
sector	-11557
▁patents	-11558
▁Electric	-11559
IO	-11560
▁Gi	-11561
▁0.5	-11562
▁Kawa	-11563
▁Marmara	-11564
MT	-11565
def	-11566
▁alt	-11567
▁Name	-11568
▁propag	-11569
ROM	-11570
▁Based	-11571
▁monopol	-11572
▁biofuels	-11573
▁benefited	-11574
▁restriction	-11575
▁mira	-11576
▁fought	-11577
▁betting	-11578
▁Artificial	-11579
GA	-11580
▁rot	-11581
▁Jana	-11582
▁fault	-11583
▁alheri	-11584
▁kariya	-11585
▁kingdom	-11586
▁matsaloli	-11587
▁Conclusions	-11588
pone	-11589
▁Yak	-11590
▁+0000	-11591
▁dairy	-11592
mination	-11593
▁Monitoring	-11594
▁dictatorship	-11595
odes	-11596
▁12:	-11597
akwal	-11598
▁Patten	-11599
▁albark	-11600
▁bridge	-11601
ivestock	-11602
▁privilege	-11603
▁correction	-11604
▁separation	-11605
mun	-11606
▁51	-11607
▁ila	-11608
ressing	-11609
▁Waɗannan	-11610
▁expresses	-11611
▁Acad	-11612
▁Sign	-11613
ady	-11614
▁lux	-11615
owned	-11616
herent	-11617
▁alike	-11618
▁Stainless	-11619
▁Categories	-11620
▁dup	-11621
▁Priv	-11622
▁Color	-11623
▁deriv	-11624
▁signature	-11625
▁frame	-11626
▁cancell	-11627
▁arrested	-11628
▁mahimmanci	-11629
cf	-11630
ogi	-11631
▁Si	-11632
▁FIN	-11633
▁Rasha	-11634
▁jikin	-11635
▁kaɗai	-11636
▁smoking	-11637
▁rigorous	-11638
▁broadcasting	-11639
▁threaten	-11640
▁abandoned	-11641
▁dad	-11642
▁kunn	-11643
▁Bir	-11644
▁emot	-11645
▁motions	-11646
▁deciding	-11647
▁Enterprise	-11648
▁compatibility	-11649
▁gat	-11650
▁sir	-11651
▁debts	-11652
▁grass	-11653
▁absorb	-11654
▁worried	-11655
▁Najeriya	-11656
uru	-11657
▁87	-11658
▁UR	-11659
unes	-11660
EMENT	-11661
81	-11662
CA	-11663
artar	-11664
▁Table	-11665
▁powder	-11666
▁enemies	-11667
▁Register	-11668
box	-11669
eli	-11670
▁Pur	-11671
antin	-11672
▁Exam	-11673
▁Amazon	-11674
▁preferences	-11675
iol	-11676
▁tuba	-11677
CL	-11678
▁Cold	-11679
▁Trust	-11680
▁sheet	-11681
official	-11682
ava	-11683
▁Pop	-11684
▁Synd	-11685
utting	-11686
▁detain	-11687
▁courses	-11688
uters	-11689
▁kwarewa	-11690
▁postpon	-11691
▁isolated	-11692
▁Ibraniyawa	-11693
▁mouth	-11694
▁7:	-11695
awus	-11696
izer	-11697
page	-11698
▁sums	-11699
frastruct	-11700
▁attitudes	-11701
ALE	-11702
ratt	-11703
▁touc	-11704
▁mulki	-11705
▁postpone	-11706
▁interference	-11707
ikak	-11708
icter	-11709
ayoyin	-11710
▁sauke	-11711
▁feeding	-11712
▁billions	-11713
▁ID	-11714
▁110	-11715
class	-11716
▁stre	-11717
iances	-11718
▁bases	-11719
▁linguistic	-11720
▁sym	-11721
▁shawar	-11722
▁peripher	-11723
▁demonstration	-11724
aden	-11725
lled	-11726
afiyar	-11727
▁tells	-11728
▁fulfill	-11729
▁overview	-11730
▁prohibited	-11731
Go	-11732
/97	-11733
fen	-11734
▁900	-11735
ician	-11736
▁reluct	-11737
▁outlook	-11738
cur	-11739
▁birds	-11740
▁passing	-11741
300	-11742
▁MIN	-11743
ounds	-11744
▁du	-11745
News	-11746
▁websites	-11747
▁Israelites	-11748
lesh	-11749
▁Sah	-11750
▁dauke	-11751
lov	-11752
held	-11753
▁Afis	-11754
▁fabric	-11755
▁kasuwar	-11756
▁tackled	-11757
ASH	-11758
hai	-11759
▁Site	-11760
▁manzo	-11761
▁Saddam	-11762
▁yiwuwa	-11763
▁clients	-11764
▁supporters	-11765
▁Eurobarometer	-11766
▁92	-11767
▁male	-11768
ilitary	-11769
▁Expert	-11770
▁Jewish	-11771
▁houses	-11772
▁wholesale	-11773
▁preserving	-11774
▁threatening	-11775
GS	-11776
inu	-11777
▁Catal	-11778
▁shugab	-11779
▁licence	-11780
▁licences	-11781
▁cul	-11782
▁abund	-11783
▁conditional	-11784
OFIN	-11785
▁menene	-11786
▁records	-11787
▁sarki	-11788
▁Isaiah	-11789
rick	-11790
▁Box	-11791
▁amaz	-11792
lessly	-11793
▁mining	-11794
▁warned	-11795
▁ƙwa	-11796
▁pregn	-11797
▁throw	-11798
▁Piebalgs	-11799
▁Guarantee	-11800
bn	-11801
ider	-11802
▁xen	-11803
▁cool	-11804
rection	-11805
▁geopol	-11806
▁alleged	-11807
ogues	-11808
▁star	-11809
econom	-11810
▁enact	-11811
▁impart	-11812
▁innocent	-11813
imer	-11814
onial	-11815
europe	-11816
orship	-11817
▁Manuel	-11818
▁demanded	-11819
opoul	-11820
▁depl	-11821
urorin	-11822
▁alive	-11823
▁cerem	-11824
▁affirm	-11825
▁jima	-11826
▁Overall	-11827
▁initiate	-11828
BD	-11829
▁9,	-11830
▁rect	-11831
▁qualities	-11832
▁winners	-11833
▁interior	-11834
▁kwamfuta	-11835
▁Bulgarian	-11836
▁obtaining	-11837
▁Sarki	-11838
▁feels	-11839
▁elimination	-11840
CR	-11841
nd	-11842
▁mint	-11843
licate	-11844
▁reminded	-11845
▁returning	-11846
▁accountable	-11847
▁Indic	-11848
▁Tso	-11849
▁Quran	-11850
▁coinc	-11851
▁jakar	-11852
inations	-11853
▁telephone	-11854
!!	-11855
po	-11856
compl	-11857
inton	-11858
▁nuni	-11859
▁Yemen	-11860
▁Former	-11861
▁phrase	-11862
--------	-11863
▁Consumers	-11864
▁viability	-11865
▁Blu	-11866
▁song	-11867
▁kiwon	-11868
▁bamban	-11869
▁cheaper	-11870
▁routine	-11871
▁concepts	-11872
▁Lalle	-11873
▁recalls	-11874
▁textiles	-11875
91	-11876
pes	-11877
faff	-11878
/2001	-11879
▁raga	-11880
▁kwana	-11881
▁tasiri	-11882
▁Looking	-11883
▁tremend	-11884
▁marm	-11885
gra	-11886
▁Cypri	-11887
consist	-11888
▁statute	-11889
▁furthermore	-11890
▁poorer	-11891
▁permits	-11892
ubu	-11893
▁Sri	-11894
▁Trib	-11895
▁Farawa	-11896
▁Olympic	-11897
▁finished	-11898
think	-11899
▁breat	-11900
▁dashi	-11901
▁Everyone	-11902
oe	-11903
oes	-11904
▁Foot	-11905
▁prize	-11906
▁launin	-11907
▁Samsung	-11908
▁excellence	-11909
▁ideological	-11910
▁Solom	-11911
▁solving	-11912
▁kalmomin	-11913
▁diplomacy	-11914
▁laundering	-11915
isons	-11916
▁Almas	-11917
▁abort	-11918
▁supplied	-11919
▁electrical	-11920
▁11:	-11921
▁wal	-11922
▁alam	-11923
papers	-11924
▁complexity	-11925
Ya	-11926
arci	-11927
▁1998,	-11928
▁bread	-11929
ifiable	-11930
▁aluminum	-11931
▁Future	-11932
▁street	-11933
▁provider	-11934
▁rhetoric	-11935
▁reiterated	-11936
ker	-11937
Host	-11938
ilashin	-11939
cile	-11940
▁Imam	-11941
▁Kurd	-11942
keeping	-11943
▁Gender	-11944
▁underpin	-11945
▁diversification	-11946
vance	-11947
▁TRAN	-11948
▁Earth	-11949
wasound	-11950
▁Adjust	-11951
▁Shirin	-11952
▁compare	-11953
▁beneficiary	-11954
▁Koy	-11955
▁tube	-11956
▁Currently	-11957
▁aggreg	-11958
▁conformity	-11959
/6	-11960
oj	-11961
hard	-11962
debate	-11963
▁Shafin	-11964
unsa	-11965
▁cable	-11966
▁emergence	-11967
oye	-11968
esty	-11969
▁Farm	-11970
▁Share	-11971
▁processed	-11972
▁irregularities	-11973
▁chose	-11974
infringe	-11975
▁indications	-11976
Sp	-11977
OME	-11978
▁Pra	-11979
lasting	-11980
▁tushen	-11981
▁dossier	-11982
▁volunte	-11983
All	-11984
▁Tas	-11985
vation	-11986
employment	-11987
▁prosperous	-11988
▁ɓata	-11989
▁slave	-11990
aikacen	-11991
▁fishery	-11992
competition	-11993
obile	-11994
▁baƙi	-11995
▁asusun	-11996
▁twelve	-11997
SI	-11998
xbet	-11999
▁daidait	-12000
▁copyright	-12001
▁workplace	-12002
▁autonomous	-12003
(2	-12004
▁\	-12005
▁57	-12006
▁infring	-12007
▁chapters	-12008
He	-12009
▁Ten	-12010
dalla	-12011
▁Tuna	-12012
▁Unit	-12013
▁secular	-12014
▁substit	-12015
▁bol	-12016
▁daɗin	-12017
▁tsare	-12018
▁intensify	-12019
▁evol	-12020
▁detect	-12021
▁starts	-12022
▁trained	-12023
▁(7	-12024
▁cycl	-12025
▁rasa	-12026
soever	-12027
▁Staff	-12028
▁Treas	-12029
commission	-12030
▁perceived	-12031
▁correspond	-12032
achi	-12033
▁Maur	-12034
▁Philosophy	-12035
▁description	-12036
▁hol	-12037
first	-12038
▁Kare	-12039
▁Local	-12040
▁Manzo	-12041
dumping	-12042
▁deemed	-12043
▁drafts	-12044
CIAL	-12045
▁ASE	-12046
▁calm	-12047
▁acute	-12048
▁Sarkin	-12049
▁Equality	-12050
LT	-12051
(3)	-12052
abo	-12053
cif	-12054
▁Wel	-12055
▁raj	-12056
▁Monti	-12057
▁CFSP	-12058
▁manz	-12059
▁river	-12060
▁innovations	-12061
grow	-12062
▁Tags	-12063
▁kore	-12064
▁owned	-12065
▁Solana	-12066
▁enforced	-12067
▁opponents	-12068
▁participated	-12069
▁bitcoin	-12070
▁discover	-12071
▁stricter	-12072
Ph	-12073
▁defici	-12074
▁sayarwa	-12075
/3	-12076
akk	-12077
▁conj	-12078
▁Number	-12079
▁tashin	-12080
▁kwakwal	-12081
▁livestock	-12082
andum	-12083
osure	-12084
income	-12085
▁Yahaya	-12086
idencies	-12087
▁measured	-12088
▁Anna	-12089
▁annul	-12090
▁Caucas	-12091
▁assign	-12092
▁HD	-12093
▁ASEAN	-12094
▁designated	-12095
▁boom	-12096
▁liberalization	-12097
tex	-12098
▁2014,	-12099
▁stabilisation	-12100
▁Blair	-12101
▁procla	-12102
▁thoroughly	-12103
▁Institutions	-12104
▁characterised	-12105
IZ	-12106
odia	-12107
▁KYA	-12108
▁seats	-12109
▁karfin	-12110
▁tattoos	-12111
▁Governor	-12112
▁dabb	-12113
▁ciwon	-12114
▁liked	-12115
▁inland	-12116
▁Janairu	-12117
▁wholeheart	-12118
▁Hen	-12119
▁Hans	-12120
▁gadi	-12121
▁digiri	-12122
▁invent	-12123
▁refund	-12124
▁streets	-12125
▁witnessed	-12126
ido	-12127
▁doors	-12128
▁iyaye	-12129
Mar	-12130
▁hack	-12131
▁Dubai	-12132
▁guided	-12133
▁entrust	-12134
▁wuraren	-12135
▁sympathy	-12136
83	-12137
fish	-12138
▁Games	-12139
▁imani	-12140
▁mortg	-12141
▁excuse	-12142
▁filled	-12143
="2.	-12144
zing	-12145
▁halaye	-12146
▁master	-12147
▁harvest	-12148
▁underway	-12149
▁performed	-12150
10.	-12151
▁MA	-12152
▁Sake	-12153
▁laser	-12154
▁precautionary	-12155
▁fib	-12156
▁juy	-12157
pling	-12158
▁Rich	-12159
▁compromises	-12160
ILL	-12161
wer	-12162
▁229	-12163
▁park	-12164
▁whatsoever	-12165
▁Regulations	-12166
▁Professional	-12167
rov	-12168
date	-12169
▁purchasing	-12170
▁requesting	-12171
kh	-12172
anu	-12173
▁Xi	-12174
▁Kus	-12175
▁4303	-12176
▁references	-12177
▁differently	-12178
▁load	-12179
asoned	-12180
ronics	-12181
▁laifi	-12182
aikatan	-12183
▁Petitions	-12184
▁projected	-12185
▁frameworks	-12186
▁eliminating	-12187
▁-0.	-12188
Americ	-12189
public	-12190
▁embargo	-12191
▁Exchange	-12192
▁explanations	-12193
379	-12194
▁IR	-12195
▁Pap	-12196
▁wai	-12197
icies	-12198
rogen	-12199
▁gargaɗi	-12200
▁withdrawn	-12201
▁exemptions	-12202
▁manufa	-12203
▁mulkin	-12204
▁Counter	-12205
amination	-12206
▁tinnitus	-12207
▁escalation	-12208
▁installation	-12209
▁ol	-12210
orthy	-12211
▁Concerning	-12212
▁fulfilling	-12213
emy	-12214
cury	-12215
onian	-12216
uwatsu	-12217
▁Professor	-12218
▁incidents	-12219
▁congratulating	-12220
tes	-12221
rage	-12222
▁lock	-12223
▁reun	-12224
▁mahaif	-12225
▁slowly	-12226
▁convers	-12227
▁commodity	-12228
="1.	-12229
▁Mission	-12230
▁immense	-12231
▁controlling	-12232
shore	-12233
▁Kuna	-12234
▁hats	-12235
▁plain	-12236
▁ranka	-12237
▁Written	-12238
▁devastating	-12239
▁composed	-12240
▁reactions	-12241
▁concluding	-12242
/13	-12243
ilty	-12244
laud	-12245
▁Adamu	-12246
▁Chief	-12247
▁Jacques	-12248
IST	-12249
ville	-12250
▁CONT	-12251
▁wors	-12252
▁dates	-12253
▁Dutsen	-12254
▁plugin	-12255
▁modernise	-12256
EEA	-12257
issible	-12258
▁disrupt	-12259
▁paragraphs	-12260
▁Acts	-12261
▁Biyu	-12262
▁lobby	-12263
▁reper	-12264
▁stagn	-12265
▁Master	-12266
▁inconsist	-12267
▁GA	-12268
▁sn	-12269
▁copy	-12270
▁chances	-12271
▁formula	-12272
▁misunder	-12273
▁discovered	-12274
▁simultaneously	-12275
cio	-12276
tech	-12277
▁ƙarni	-12278
▁contra	-12279
▁exclude	-12280
▁irrespective	-12281
**	-12282
uncin	-12283
▁Aviation	-12284
▁gathered	-12285
▁underest	-12286
▁kanan	-12287
▁allevi	-12288
▁duniyar	-12289
▁Hague	-12290
▁translate	-12291
▁ay	-12292
(200	-12293
ouble	-12294
▁Almasihu	-12295
▁practically	-12296
ipp	-12297
unting	-12298
▁modes	-12299
▁belongs	-12300
▁subscrib	-12301
bed	-12302
cen	-12303
cosur	-12304
yanmar	-12305
▁preferred	-12306
].	-12307
ilai	-12308
▁Cub	-12309
adays	-12310
wanda	-12311
▁Show	-12312
▁2017,	-12313
▁cryptocurrency	-12314
ATT	-12315
▁cuta	-12316
▁Clinton	-12317
▁severely	-12318
▁frequency	-12319
▁Wad	-12320
▁roles	-12321
▁Markets	-12322
UST	-12323
▁BMW	-12324
▁gor	-12325
▁stories	-12326
▁FX	-12327
xual	-12328
▁riƙe	-12329
▁honor	-12330
▁Brexit	-12331
▁finger	-12332
▁strikes	-12333
▁pm	-12334
▁Bid	-12335
▁haɓ	-12336
ƙashin	-12337
▁Model	-12338
▁height	-12339
▁irrespon	-12340
▁8:	-12341
▁mo	-12342
▁Phone	-12343
▁undermining	-12344
▁dramatically	-12345
▁Um	-12346
▁Dom	-12347
▁gag	-12348
▁storm	-12349
▁pesticides	-12350
________________	-12351
[1]	-12352
icon	-12353
wood	-12354
▁Right	-12355
▁landf	-12356
▁democratically	-12357
55	-12358
city	-12359
▁lin	-12360
▁Yawan	-12361
▁umarn	-12362
▁amfana	-12363
▁reflecting	-12364
alar	-12365
▁Win	-12366
▁Square	-12367
▁makaranta	-12368
▁veterinary	-12369
ATE	-12370
ounced	-12371
▁incred	-12372
▁themes	-12373
▁convert	-12374
▁mergers	-12375
▁Platform	-12376
▁CR	-12377
http	-12378
▁REC	-12379
▁Sama	-12380
▁flaw	-12381
▁halt	-12382
▁unres	-12383
ranging	-12384
▁Whilst	-12385
▁hukumar	-12386
▁painful	-12387
▁Jonathan	-12388
▁Syndicate	-12389
sm	-12390
▁fee	-12391
eline	-12392
▁Irin	-12393
▁wucin	-12394
▁Hanyar	-12395
iman	-12396
▁kid	-12397
▁1998.	-12398
▁married	-12399
▁Accordingly	-12400
▁62	-12401
▁Sati	-12402
▁ease	-12403
▁Candid	-12404
▁sensit	-12405
▁bathroom	-12406
▁impressive	-12407
ayyar	-12408
▁rain	-12409
▁Broad	-12410
▁exhib	-12411
▁smugg	-12412
▁cigare	-12413
▁speaks	-12414
▁feasible	-12415
▁aspirations	-12416
rets	-12417
umba	-12418
▁Conn	-12419
▁memb	-12420
▁tact	-12421
itrust	-12422
▁Medic	-12423
igenous	-12424
▁Haruna	-12425
▁assumed	-12426
▁windows	-12427
▁preservation	-12428
,,	-12429
▁FS	-12430
AIDS	-12431
▁Taj	-12432
▁Camp	-12433
▁tens	-12434
raphic	-12435
▁Binciken	-12436
▁dimensions	-12437
?”	-12438
▁63	-12439
▁PM	-12440
▁ido	-12441
funded	-12442
▁Natura	-12443
▁landsc	-12444
▁Programmes	-12445
iane	-12446
▁SIS	-12447
▁magance	-12448
energy	-12449
▁fifteen	-12450
▁silence	-12451
▁schedule	-12452
aje	-12453
made	-12454
▁bag	-12455
uesday	-12456
▁schol	-12457
▁ƙunshi	-12458
TF	-12459
isk	-12460
▁sunã	-12461
▁garin	-12462
▁investor	-12463
▁declining	-12464
▁readiness	-12465
▁bed	-12466
▁zar	-12467
▁novel	-12468
▁subjected	-12469
BER	-12470
▁Ell	-12471
▁Anton	-12472
▁Cikin	-12473
▁intra	-12474
▁kalmar	-12475
▁authoritarian	-12476
bert	-12477
▁Alp	-12478
employed	-12479
rd	-12480
▁Turn	-12481
▁overl	-12482
list	-12483
▁CNC	-12484
▁Dem	-12485
ulous	-12486
sch	-12487
▁haƙuri	-12488
▁Limited	-12489
▁kananan	-12490
▁matsaka	-12491
ouses	-12492
▁kome	-12493
▁Fabrairu	-12494
▁earthquake	-12495
ULT	-12496
inj	-12497
uer	-12498
▁Po	-12499
▁sins	-12500
▁expenses	-12501
Af	-12502
onav	-12503
▁Jade	-12504
▁feet	-12505
▁biotechnology	-12506
▁irr	-12507
▁Neither	-12508
▁formation	-12509
▁transpose	-12510
uga	-12511
alan	-12512
fast	-12513
▁Kya	-12514
▁Nak	-12515
▁deepening	-12516
▁Functioning	-12517
▁geopolitical	-12518
LIN	-12519
▁photos	-12520
▁suddenly	-12521
▁accompanying	-12522
▁pul	-12523
▁tawa	-12524
▁Equal	-12525
▁nazari	-12526
▁insecurity	-12527
frastructure	-12528
▁True	-12529
▁adam	-12530
▁seas	-12531
compass	-12532
▁render	-12533
▁traders	-12534
▁stret	-12535
▁indirectly	-12536
▁cha	-12537
▁zasu	-12538
▁offset	-12539
▁karshen	-12540
▁misleading	-12541
▁limitations	-12542
NE	-12543
nik	-12544
▁Tok	-12545
▁hoc	-12546
▁taka	-12547
▁Class	-12548
▁mutuwar	-12549
▁Material	-12550
▁siy	-12551
-2014	-12552
▁Malays	-12553
OK	-12554
▁ter	-12555
▁Make	-12556
ighter	-12557
olding	-12558
▁Which	-12559
▁foresee	-12560
▁kindness	-12561
IKIN	-12562
▁tri	-12563
▁hotel	-12564
▁jam	-12565
▁kewaye	-12566
▁jiragen	-12567
mentioned	-12568
LC	-12569
ota	-12570
▁Thess	-12571
▁flesh	-12572
▁ƙyale	-12573
▁margins	-12574
ferential	-12575
▁consolidated	-12576
))	-12577
▁Nag	-12578
▁Move	-12579
▁kusk	-12580
▁Merkel	-12581
▁yellow	-12582
▁frequent	-12583
▁Revolution	-12584
▁Bern	-12585
▁proportionate	-12586
▁elab	-12587
▁prominent	-12588
▁department	-12589
ded	-12590
iracy	-12591
▁17.	-12592
speed	-12593
▁Swiss	-12594
▁financially	-12595
hy	-12596
▁Iy	-12597
▁Mid	-12598
▁mart	-12599
▁abolished	-12600
▁believers	-12601
▁restoring	-12602
▁08	-12603
atom	-12604
▁75%	-12605
useum	-12606
▁Tile	-12607
▁garg	-12608
▁connections	-12609
▁flat	-12610
▁glory	-12611
▁reveal	-12612
▁extract	-12613
▁architecture	-12614
▁democratisation	-12615
▁Body	-12616
▁abst	-12617
astics	-12618
▁darajar	-12619
▁precious	-12620
▁shortage	-12621
▁applicants	-12622
▁prohibition	-12623
▁140	-12624
▁Kad	-12625
▁mugun	-12626
▁pretext	-12627
▁pushing	-12628
▁Caucasus	-12629
▁Wholesale	-12630
▁297	-12631
▁2016,	-12632
▁kyaut	-12633
▁gidajen	-12634
▁harmonise	-12635
▁tuf	-12636
teries	-12637
▁180	-12638
▁mode	-12639
uthors	-12640
orously	-12641
▁Nordic	-12642
emocratic	-12643
▁belonging	-12644
▁fuskantar	-12645
▁continuity	-12646
▁350	-12647
▁rejo	-12648
▁saya	-12649
imedia	-12650
▁Nuclear	-12651
▁cikinsu	-12652
▁uncontrolled	-12653
▁REACH	-12654
▁sympt	-12655
▁arbitr	-12656
▁cututt	-12657
▁guilty	-12658
specific	-12659
▁existed	-12660
▁deployed	-12661
▁contradict	-12662
▁methodology	-12663
/7	-12664
▁(14	-12665
▁deaf	-12666
▁Integration	-12667
ASS	-12668
reb	-12669
▁edge	-12670
▁toll	-12671
▁Import	-12672
▁hukunci	-12673
▁aggressive	-12674
lets	-12675
▁von	-12676
▁delayed	-12677
▁Abdullah	-12678
▁Companies	-12679
▁reiterates	-12680
▁Timor	-12681
▁positively	-12682
64	-12683
Toc	-12684
apter	-12685
▁luxury	-12686
▁pieces	-12687
▁Tuesday	-12688
ãy	-12689
▁72	-12690
▁reperc	-12691
▁optimistic	-12692
osi	-12693
imal	-12694
▁asc	-12695
icide	-12696
vency	-12697
▁Making	-12698
▁stating	-12699
▁tendency	-12700
▁tsakiyar	-12701
initiative	-12702
▁clarified	-12703
▁pragmatic	-12704
▁philosophy	-12705
olio	-12706
▁Nas	-12707
▁poses	-12708
▁reads	-12709
▁Assessment	-12710
▁derogation	-12711
▁inappropri	-12712
ernity	-12713
▁tsofaff	-12714
anti	-12715
itar	-12716
▁Kow	-12717
▁handled	-12718
▁imperial	-12719
▁patterns	-12720
weg	-12721
▁09	-12722
lades	-12723
▁1989	-12724
▁Smart	-12725
▁rigid	-12726
▁deploy	-12727
▁likita	-12728
▁rubutun	-12729
▁newspaper	-12730
▁(12	-12731
▁2014.	-12732
▁Ferrero	-12733
news	-12734
▁aro	-12735
▁compensate	-12736
-9	-12737
▁BUS	-12738
eless	-12739
▁Luke	-12740
▁malaria	-12741
▁heavenly	-12742
▁suit	-12743
▁Ocean	-12744
▁Source	-12745
▁brutal	-12746
▁lalace	-12747
ned	-12748
best	-12749
▁Big	-12750
▁fayiloli	-12751
▁pointing	-12752
▁capitalism	-12753
ACE	-12754
▁zag	-12755
▁abun	-12756
▁Brand	-12757
▁utter	-12758
▁weekly	-12759
▁Scanner	-12760
▁occupied	-12761
▁appearance	-12762
▁simplifying	-12763
▁repercussions	-12764
▁Pass	-12765
▁Saint	-12766
▁fushi	-12767
▁corrid	-12768
▁kyakkyawan	-12769
suwa	-12770
▁Jack	-12771
pected	-12772
▁Balkan	-12773
▁sauraron	-12774
▁relevance	-12775
▁Line	-12776
asinos	-12777
otonou	-12778
▁salon	-12779
▁weaken	-12780
▁emphasize	-12781
UND	-12782
▁tam	-12783
▁validity	-12784
▁cooperative	-12785
▁18.	-12786
▁kamfanoni	-12787
▁15,	-12788
▁Cre	-12789
build	-12790
▁guje	-12791
▁breed	-12792
iration	-12793
itorial	-12794
▁Negoti	-12795
▁taimakawa	-12796
▁disadvantage	-12797
▁$1	-12798
▁Fat	-12799
▁Gon	-12800
▁SAN	-12801
abbin	-12802
▁asib	-12803
▁sada	-12804
▁Sunday	-12805
▁bayyan	-12806
▁Advertise	-12807
▁restoration	-12808
▁prerequisite	-12809
usta	-12810
▁Bugu	-12811
▁tsoro	-12812
▁degrees	-12813
▁ziyarci	-12814
▁estimate	-12815
▁realities	-12816
▁derivatives	-12817
▁Eb	-12818
▁vib	-12819
▁matsayi	-12820
▁energies	-12821
▁disability	-12822
ãf	-12823
cript	-12824
▁kāre	-12825
▁zuba	-12826
aldner	-12827
▁antibi	-12828
▁discriminatory	-12829
▁Type	-12830
▁begins	-12831
▁reveals	-12832
▁Es	-12833
ulty	-12834
ecess	-12835
▁2050	-12836
▁Arabic	-12837
▁leverage	-12838
fan	-12839
ssen	-12840
▁Cast	-12841
▁Hann	-12842
▁Kall	-12843
▁hect	-12844
▁weld	-12845
assili	-12846
▁genoc	-12847
▁adjusted	-12848
tte	-12849
▁Nep	-12850
▁Obs	-12851
terror	-12852
▁Email	-12853
▁roots	-12854
▁convincing	-12855
▁intr	-12856
▁loved	-12857
▁Recent	-12858
▁arises	-12859
▁wished	-12860
cultural	-12861
▁targeting	-12862
velation	-12863
▁failures	-12864
▁reformed	-12865
▁advocates	-12866
▁proportionality	-12867
▁Venezuela	-12868
▁detriment	-12869
▁illegally	-12870
oga	-12871
▁Hand	-12872
▁Cikak	-12873
▁Supreme	-12874
▁predecess	-12875
▁Fortunately	-12876
gal	-12877
▁OP	-12878
pere	-12879
▁CRI	-12880
▁Tro	-12881
▁las	-12882
▁Bill	-12883
▁Malm	-12884
▁shut	-12885
▁zaune	-12886
atorium	-12887
▁Consult	-12888
▁lawyers	-12889
▁Wataƙila	-12890
▁breaches	-12891
ín	-12892
uli	-12893
waya	-12894
▁(00	-12895
▁CFP	-12896
▁Thom	-12897
▁zaka	-12898
▁dacewa	-12899
▁Brother	-12900
▁exploited	-12901
▁dil	-12902
▁Tabb	-12903
▁yaƙi	-12904
▁enemy	-12905
▁Resort	-12906
▁attempting	-12907
▁introduces	-12908
▁Secretariat	-12909
▁littattafai	-12910
iev	-12911
▁(18	-12912
▁-1.	-12913
▁grew	-12914
▁unre	-12915
▁Space	-12916
▁tsohon	-12917
▁footing	-12918
▁Standard	-12919
▁persuade	-12920
▁conferences	-12921
▁accessibility	-12922
asy	-12923
utious	-12924
▁Timothy	-12925
▁substantive	-12926
retion	-12927
▁adult	-12928
▁excise	-12929
▁voices	-12930
▁gwamnatin	-12931
▁tremendous	-12932
▁nit	-12933
inned	-12934
armament	-12935
▁Misalai	-12936
▁charging	-12937
appy	-12938
atri	-12939
▁koda	-12940
▁Nobel	-12941
▁zafin	-12942
▁Turanci	-12943
▁Councils	-12944
▁studying	-12945
nis	-12946
▁Deb	-12947
▁lam	-12948
▁Shar	-12949
▁hide	-12950
▁Advis	-12951
▁punish	-12952
commerce	-12953
▁girmama	-12954
▁Ful	-12955
▁1997.	-12956
▁earmarked	-12957
ingo	-12958
▁hoto	-12959
▁gaining	-12960
▁hospitals	-12961
▁counterparts	-12962
ANA	-12963
imation	-12964
▁Faransa	-12965
▁Kurdish	-12966
▁frontiers	-12967
▁ikilisiyar	-12968
▁Christopher	-12969
▁interpreted	-12970
▁problematic	-12971
▁flee	-12972
▁Taking	-12973
▁thinks	-12974
▁Lesbian	-12975
▁competing	-12976
73	-12977
iture	-12978
▁attaches	-12979
▁magazine	-12980
▁Banglades	-12981
▁Candidate	-12982
▁ANN	-12983
emics	-12984
legisl	-12985
▁Dukan	-12986
▁Vladimir	-12987
▁clinical	-12988
▁commerce	-12989
▁provisional	-12990
▁recruitment	-12991
▁Fi	-12992
▁Nuw	-12993
▁Yaƙ	-12994
▁jir	-12995
▁drag	-12996
▁mako	-12997
▁unex	-12998
issues	-12999
▁repay	-13000
▁Software	-13001
▁TA	-13002
▁films	-13003
ilation	-13004
▁presum	-13005
▁Besides	-13006
▁instructed	-13007
355	-13008
alt	-13009
jer	-13010
nerg	-13011
▁branch	-13012
▁notify	-13013
▁Cotonou	-13014
▁salaries	-13015
asse	-13016
▁cotton	-13017
Con	-13018
ago	-13019
auty	-13020
▁Gama	-13021
▁Flore	-13022
▁alter	-13023
Waldner	-13024
obe	-13025
▁baw	-13026
allin	-13027
▁disg	-13028
▁lift	-13029
▁peak	-13030
new	-13031
paid	-13032
▁Irm	-13033
▁exit	-13034
▁ajiye	-13035
Qu	-13036
▁19.	-13037
erved	-13038
▁incor	-13039
▁Opport	-13040
▁exceeded	-13041
don	-13042
lead	-13043
▁Abb	-13044
▁iOS	-13045
giene	-13046
▁accus	-13047
▁reforming	-13048
roliferation	-13049
▁standardisation	-13050
/18/	-13051
▁obey	-13052
confidential	-13053
▁PCB	-13054
▁zarg	-13055
▁alarming	-13056
▁epidemic	-13057
▁wataƙila	-13058
▁Majalisar	-13059
▁judgement	-13060
▁nationalism	-13061
ACK	-13062
▁2.0	-13063
▁River	-13064
▁dokokin	-13065
▁Russians	-13066
▁koyarwar	-13067
▁ƙungiyar	-13068
/17	-13069
õda	-13070
▁Ruwa	-13071
▁Order	-13072
assiliou	-13073
▁preference	-13074
HR	-13075
uɗ	-13076
▁1996,	-13077
▁servant	-13078
▁simpler	-13079
▁adapting	-13080
▁transposed	-13081
▁BA	-13082
▁porn	-13083
▁vice	-13084
▁Kenya	-13085
▁Abubuwan	-13086
▁recognising	-13087
▁OR	-13088
fold	-13089
▁gam	-13090
▁iyak	-13091
▁mita	-13092
▁danna	-13093
▁settle	-13094
▁empower	-13095
▁capability	-13096
")	-13097
ATA	-13098
▁Ik	-13099
▁gine	-13100
▁Border	-13101
▁wishing	-13102
▁Wallström	-13103
-30	-13104
▁Form	-13105
▁doesn	-13106
▁occurs	-13107
▁disregard	-13108
63	-13109
gun	-13110
such	-13111
▁bath	-13112
▁furn	-13113
▁derived	-13114
▁proliferation	-13115
400	-13116
uum	-13117
okes	-13118
▁ARE	-13119
▁Sani	-13120
▁embry	-13121
▁salama	-13122
▁lifting	-13123
▁parameters	-13124
▁fã	-13125
▁FREE	-13126
▁sends	-13127
▁scarce	-13128
▁Plastic	-13129
▁tonight	-13130
▁Kasuwancin	-13131
▁replacement	-13132
len	-13133
raw	-13134
▁Rot	-13135
▁weaker	-13136
▁tarihin	-13137
CP	-13138
Rule	-13139
▁Motor	-13140
▁Regul	-13141
vanized	-13142
aculture	-13143
▁gaskata	-13144
▁ceremony	-13145
▁Rio	-13146
▁Wat	-13147
▁Kara	-13148
▁Pala	-13149
astrop	-13150
▁risen	-13151
vimas	-13152
▁drew	-13153
▁2016.	-13154
Id	-13155
almon	-13156
▁ilimin	-13157
▁fathers	-13158
▁heating	-13159
▁heavens	-13160
▁creativity	-13161
yin	-13162
rapy	-13163
▁ware	-13164
▁Autom	-13165
▁Husse	-13166
▁cloud	-13167
▁firist	-13168
▁monthly	-13169
▁departure	-13170
▁conducting	-13171
▁persistent	-13172
BS	-13173
ür	-13174
tan	-13175
uated	-13176
rattini	-13177
▁hidden	-13178
▁karant	-13179
▁tempor	-13180
▁59	-13181
reals	-13182
▁Yank	-13183
▁Police	-13184
▁Santer	-13185
▁Sheikh	-13186
▁Reserve	-13187
FP	-13188
lyn	-13189
stim	-13190
vote	-13191
▁Dim	-13192
▁pride	-13193
limited	-13194
▁bangask	-13195
▁unified	-13196
▁bambanta	-13197
▁Oil	-13198
Russia	-13199
▁Integ	-13200
▁strange	-13201
existence	-13202
▁premature	-13203
▁PP	-13204
ajin	-13205
▁1995,	-13206
▁harass	-13207
▁Satumba	-13208
▁decoration	-13209
▁Comb	-13210
▁weapon	-13211
▁Section	-13212
ün	-13213
▁Shen	-13214
onavirus	-13215
▁Taxation	-13216
▁ingredients	-13217
dated	-13218
eding	-13219
iforn	-13220
▁Jobs	-13221
▁Naturally	-13222
▁hopefully	-13223
Pl	-13224
hot	-13225
agaba	-13226
▁9001	-13227
▁banana	-13228
▁Nuwamba	-13229
▁advisory	-13230
▁breaking	-13231
▁slowdown	-13232
▁vaccines	-13233
6-0	-13234
▁veto	-13235
▁ranging	-13236
▁umurnin	-13237
▁reception	-13238
▁enthusiasm	-13239
▁definitions	-13240
ahn	-13241
odi	-13242
rants	-13243
▁typical	-13244
▁virtual	-13245
▁Measures	-13246
▁corporations	-13247
IGH	-13248
▁Ep	-13249
zbek	-13250
▁Say	-13251
▁Wood	-13252
▁addini	-13253
▁Solomon	-13254
▁profitable	-13255
▁Application	-13256
▁index	-13257
Graphic	-13258
▁Meeting	-13259
ete	-13260
▁Od	-13261
▁ALDE	-13262
▁Audi	-13263
▁wayar	-13264
▁ɗauke	-13265
▁discretion	-13266
▁undermined	-13267
62	-13268
▁ESF	-13269
▁Dokar	-13270
▁matakan	-13271
relations	-13272
▁decreased	-13273
▁Team	-13274
▁bought	-13275
atherine	-13276
▁Systems	-13277
efficient	-13278
▁Christmas	-13279
▁comparative	-13280
xygen	-13281
▁Tiles	-13282
▁disin	-13283
▁upper	-13284
▁hinder	-13285
▁Liberals	-13286
▁identifies	-13287
▁understandable	-13288
▁sã	-13289
▁Block	-13290
▁Gaskiya	-13291
▁readers	-13292
▁sarauta	-13293
▁Maimakon	-13294
▁doka	-13295
▁Tampere	-13296
vic	-13297
king	-13298
▁(4)	-13299
▁546	-13300
▁Bai	-13301
▁relax	-13302
▁Modern	-13303
▁Hussein	-13304
▁credits	-13305
▁Description	-13306
▁preferential	-13307
▁inappropriate	-13308
▁14:	-13309
▁cow	-13310
taking	-13311
▁CIKIN	-13312
▁remun	-13313
▁upcoming	-13314
▁«	-13315
▁dokar	-13316
▁Weekly	-13317
▁resume	-13318
▁summar	-13319
▁Hukumar	-13320
▁mobilise	-13321
▁Instrument	-13322
▁distortion	-13323
▁experiment	-13324
afawa	-13325
▁keeps	-13326
▁bakwai	-13327
▁conjunction	-13328
▁Cup	-13329
▁Uku	-13330
ongue	-13331
▁merit	-13332
▁entails	-13333
▁reduces	-13334
▁indigenous	-13335
▁scene	-13336
▁Frontex	-13337
▁tourist	-13338
▁cautious	-13339
▁creditors	-13340
▁traceability	-13341
ias	-13342
▁jig	-13343
▁Prem	-13344
▁Athen	-13345
▁janye	-13346
▁pushed	-13347
▁populist	-13348
▁1960	-13349
▁kwanan	-13350
▁Corinth	-13351
▁2000-200	-13352
▁Thessalon	-13353
▁catastrop	-13354
▁dominated	-13355
▁Philippines	-13356
▁demonstrating	-13357
VA	-13358
lis	-13359
INESS	-13360
▁merits	-13361
▁governor	-13362
han	-13363
▁prayers	-13364
▁Catholic	-13365
▁petition	-13366
▁Fir	-13367
▁Flo	-13368
▁Low	-13369
▁draws	-13370
▁plenty	-13371
▁Comment	-13372
▁ofishin	-13373
▁20.	-13374
▁ams	-13375
▁studied	-13376
▁takarda	-13377
▁assumption	-13378
▁ecosystems	-13379
▁moratorium	-13380
▁instructions	-13381
▁Infrastructure	-13382
▁organis	-13383
▁restored	-13384
▁radiation	-13385
▁Strengthen	-13386
▁possession	-13387
▁TEN	-13388
▁turns	-13389
▁winning	-13390
▁ƙarƙashin	-13391
▁accelerated	-13392
utan	-13393
addun	-13394
▁benefiting	-13395
▁calculated	-13396
AST	-13397
▁Mata	-13398
▁aged	-13399
idodin	-13400
▁2018.	-13401
▁Scott	-13402
▁overs	-13403
ilaterally	-13404
▁motivated	-13405
▁successes	-13406
▁typically	-13407
emi	-13408
▁bail	-13409
▁dies	-13410
▁suspic	-13411
▁authors	-13412
▁charter	-13413
▁divisions	-13414
▁redistrib	-13415
flow	-13416
▁Ven	-13417
▁shida	-13418
▁Barack	-13419
▁ingant	-13420
▁blocked	-13421
▁deprived	-13422
▁dissemination	-13423
enti	-13424
▁maɓ	-13425
akawa	-13426
▁Cart	-13427
▁Mash	-13428
▁norms	-13429
▁exempl	-13430
▁kilomet	-13431
▁settled	-13432
▁Californ	-13433
▁partially	-13434
▁suspected	-13435
▁RO	-13436
allo	-13437
▁BER	-13438
▁yun	-13439
adian	-13440
▁Spir	-13441
anical	-13442
economy	-13443
▁papers	-13444
▁ɗaukan	-13445
▁gratitude	-13446
02	-13447
▁77	-13448
long	-13449
rypt	-13450
▁Ide	-13451
▁Okt	-13452
▁hakkin	-13453
▁subsidy	-13454
▁younger	-13455
▁encompass	-13456
iety	-13457
pher	-13458
▁til	-13459
space	-13460
▁ƙananan	-13461
▁hankalin	-13462
??	-13463
TON	-13464
ulz	-13465
alaxy	-13466
ollah	-13467
▁baki	-13468
▁ceto	-13469
▁bikin	-13470
▁recital	-13471
▁Advocate	-13472
▁confronted	-13473
sur	-13474
▁biom	-13475
▁remit	-13476
intensive	-13477
▁inherent	-13478
▁threatens	-13479
dis	-13480
▁Aw	-13481
prises	-13482
▁Camer	-13483
▁Louis	-13484
▁sirri	-13485
▁harder	-13486
▁daɗa	-13487
▁pron	-13488
▁Lanka	-13489
▁founding	-13490
UTA	-13491
▁(€	-13492
▁Dam	-13493
▁Ros	-13494
▁cas	-13495
▁YORK	-13496
▁hidim	-13497
▁likewise	-13498
▁RELATIONS	-13499
▁sentiment	-13500
="3.	-13501
▁squ	-13502
▁bears	-13503
▁Afrilu	-13504
▁Littafin	-13505
▁screening	-13506
▁breakthrough	-13507
▁(8	-13508
▁Old	-13509
▁zab	-13510
▁Zeal	-13511
▁abolish	-13512
▁priorit	-13513
▁Interest	-13514
▁Mercosur	-13515
▁genocide	-13516
▁automotive	-13517
▁Gra	-13518
iated	-13519
▁teku	-13520
▁unus	-13521
▁Click	-13522
▁Title	-13523
▁sanyi	-13524
▁buƙatar	-13525
▁personality	-13526
▁speculation	-13527
zl	-13528
col	-13529
zhe	-13530
▁li	-13531
▁Ric	-13532
▁Jane	-13533
iguous	-13534
▁Brown	-13535
▁Royal	-13536
▁Unlike	-13537
▁completing	-13538
én	-13539
▁Lu	-13540
enza	-13541
▁GSP	-13542
▁Kol	-13543
▁Kun	-13544
▁ther	-13545
▁Roman	-13546
▁fitarwa	-13547
▁resident	-13548
▁sessions	-13549
▁Alexander	-13550
▁Adjustment	-13551
▁{	-13552
urday	-13553
argain	-13554
▁deeds	-13555
▁iyaka	-13556
▁Recovery	-13557
▁daughter	-13558
UG	-13559
▁Five	-13560
▁kari	-13561
▁lambar	-13562
▁minors	-13563
▁synerg	-13564
▁umarnin	-13565
▁approving	-13566
▁precedent	-13567
▁regulating	-13568
▁reliability	-13569
▁1)	-13570
▁Yus	-13571
▁Mari	-13572
▁Mass	-13573
anensa	-13574
▁damages	-13575
▁Specific	-13576
undi	-13577
shiry	-13578
▁organisms	-13579
▁STR	-13580
asive	-13581
▁Love	-13582
▁wear	-13583
▁Guard	-13584
▁hatred	-13585
▁legacy	-13586
▁pollut	-13587
▁tsabta	-13588
▁Republican	-13589
▁demonstrations	-13590
step	-13591
laude	-13592
▁Family	-13593
▁Detector	-13594
ille	-13595
▁turb	-13596
lihood	-13597
▁shocks	-13598
▁yaushe	-13599
▁Privacy	-13600
▁purchases	-13601
▁Nuna	-13602
▁cike	-13603
▁shah	-13604
▁memor	-13605
▁gabata	-13606
▁classes	-13607
▁cultivation	-13608
KE	-13609
/199	-13610
▁fro	-13611
▁Higher	-13612
▁Particip	-13613
iel	-13614
▁Miss	-13615
▁Liber	-13616
▁refrain	-13617
▁replacing	-13618
▁eliminated	-13619
En	-13620
▁cib	-13621
▁zah	-13622
▁Dang	-13623
▁Kawai	-13624
▁church	-13625
▁chaired	-13626
▁hygiene	-13627
▁impartial	-13628
▁maz	-13629
▁Docu	-13630
▁Made	-13631
▁amfanin	-13632
▁guiding	-13633
▁BUSINESS	-13634
▁assigned	-13635
▁shopping	-13636
▁conservative	-13637
DS	-13638
lla	-13639
▁adds	-13640
▁Arctic	-13641
▁Airport	-13642
▁surpluses	-13643
▁newspapers	-13644
],	-13645
▁20,	-13646
▁Dur	-13647
▁SCH	-13648
▁gurb	-13649
▁regain	-13650
▁Disamba	-13651
▁Taliban	-13652
▁portfolio	-13653
-11	-13654
atai	-13655
▁21.	-13656
▁Gib	-13657
itives	-13658
ounder	-13659
▁famfo	-13660
▁breast	-13661
▁conscious	-13662
ere	-13663
▁03	-13664
▁Dist	-13665
oultry	-13666
▁ciyar	-13667
general	-13668
▁judged	-13669
▁harmony	-13670
▁passion	-13671
▁incorrect	-13672
BAN	-13673
SME	-13674
▁hel	-13675
▁Joshua	-13676
▁worksh	-13677
▁Managing	-13678
▁downturn	-13679
▁activists	-13680
▁mortality	-13681
amma	-13682
▁dial	-13683
▁Lafiya	-13684
▁decides	-13685
▁tabbacin	-13686
▁weakened	-13687
▁reaffirmed	-13688
01	-13689
▁Sure	-13690
▁gari	-13691
▁gora	-13692
▁1996.	-13693
▁dubawa	-13694
▁propaganda	-13695
ogo	-13696
oty	-13697
link	-13698
ylon	-13699
▁Han	-13700
▁tit	-13701
etics	-13702
ercial	-13703
▁spons	-13704
▁deepen	-13705
▁arrival	-13706
▁kalmomi	-13707
TP	-13708
ĩm	-13709
▁Ent	-13710
▁tunt	-13711
▁Uzbek	-13712
▁treas	-13713
▁tsada	-13714
▁Between	-13715
▁damaged	-13716
▁Bangladesh	-13717
oven	-13718
▁nom	-13719
▁sing	-13720
▁2017.	-13721
▁roadmap	-13722
▁fahimtar	-13723
▁shoulder	-13724
▁striking	-13725
▁derogations	-13726
asan	-13727
▁Fri	-13728
▁Hell	-13729
▁iPad	-13730
▁Times	-13731
▁harsh	-13732
▁Danube	-13733
▁temple	-13734
▁insisted	-13735
▁superior	-13736
▁spreading	-13737
▁livelihood	-13738
icci	-13739
sufa	-13740
▁226	-13741
▁fad	-13742
▁une	-13743
▁kadan	-13744
▁Schulz	-13745
▁(15	-13746
▁gig	-13747
▁embra	-13748
▁linking	-13749
mad	-13750
▁muh	-13751
remlin	-13752
▁Works	-13753
▁auren	-13754
▁Malaysia	-13755
▁nutrition	-13756
▁Corporation	-13757
chi	-13758
▁Gun	-13759
▁Pas	-13760
▁mail	-13761
▁Marine	-13762
decision	-13763
▁delicate	-13764
▁packages	-13765
▁tambayar	-13766
▁transpos	-13767
%)	-13768
▁eager	-13769
▁maganin	-13770
▁Frattini	-13771
▁contractual	-13772
IVE	-13773
aun	-13774
▁flour	-13775
▁shawarw	-13776
▁assisted	-13777
▁Catherine	-13778
▁manufactured	-13779
▁occupational	-13780
▁Imp	-13781
▁Sark	-13782
▁Waste	-13783
▁coven	-13784
▁Senate	-13785
▁mercury	-13786
▁declined	-13787
▁tattaunawa	-13788
▁14,	-13789
▁axis	-13790
▁Yanar	-13791
▁assert	-13792
▁Treasury	-13793
▁Bag	-13794
▁Mom	-13795
endar	-13796
▁milest	-13797
▁ordered	-13798
▁Ethiopia	-13799
▁realised	-13800
▁assisting	-13801
▁almajiransa	-13802
▁Cin	-13803
▁girl	-13804
▁Music	-13805
▁mineral	-13806
▁fuskanta	-13807
▁ideology	-13808
coni	-13809
▁ECOFIN	-13810
PN	-13811
▁SEC	-13812
cases	-13813
▁rufi	-13814
▁tsun	-13815
▁reproductive	-13816
tail	-13817
▁rememb	-13818
▁Saturday	-13819
▁intensity	-13820
▁classification	-13821
▁jit	-13822
anium	-13823
ratory	-13824
▁Kazakh	-13825
▁Superv	-13826
▁hotuna	-13827
▁sharply	-13828
▁gaskiyar	-13829
▁habitats	-13830
▁majagaba	-13831
▁radioactive	-13832
ás	-13833
IYA	-13834
▁-2.	-13835
▁Way	-13836
▁bil	-13837
▁SARS	-13838
▁nurs	-13839
▁kiran	-13840
▁corrupt	-13841
▁outline	-13842
airer	-13843
▁Canc	-13844
etooth	-13845
▁bawan	-13846
▁maida	-13847
shiryen	-13848
▁TRANSP	-13849
bursement	-13850
▁admitted	-13851
▁Resources	-13852
▁0%	-13853
▁ash	-13854
▁admin	-13855
▁tebur	-13856
▁Academy	-13857
▁Position	-13858
▁describes	-13859
▁vegetables	-13860
▁deliberately	-13861
▁Cond	-13862
▁Dole	-13863
▁Jagor	-13864
▁lacks	-13865
▁revol	-13866
▁Tsohon	-13867
▁yourselves	-13868
imm	-13869
iza	-13870
itology	-13871
▁proves	-13872
▁warnings	-13873
/8	-13874
▁org	-13875
▁Less	-13876
▁tsai	-13877
abinet	-13878
▁canje	-13879
▁cruel	-13880
▁bargain	-13881
▁stimulating	-13882
isen	-13883
▁Kab	-13884
▁Visa	-13885
▁pull	-13886
▁Shang	-13887
▁Judgment	-13888
OND	-13889
USS	-13890
▁07	-13891
▁Lar	-13892
▁nin	-13893
▁zeal	-13894
▁fairness	-13895
▁mutanensa	-13896
▁deregulation	-13897
Ra	-13898
▁CM	-13899
▁eco	-13900
▁hair	-13901
▁mada	-13902
▁Urban	-13903
▁guess	-13904
▁Oktoba	-13905
▁entertain	-13906
▁strengthens	-13907
Ad	-13908
▁79	-13909
ildo	-13910
toine	-13911
▁fadi	-13912
pendence	-13913
▁Kremlin	-13914
CoV	-13915
2019	-13916
eken	-13917
▁Viv	-13918
-14	-13919
▁1.2	-13920
▁codes	-13921
▁apolog	-13922
▁engaging	-13923
▁appalling	-13924
▁strongest	-13925
▁courageous	-13926
▁Institution	-13927
ua	-13928
/00	-13929
▁intim	-13930
▁embrace	-13931
▁marking	-13932
▁exporters	-13933
▁gathering	-13934
▁73	-13935
▁Ash	-13936
▁Bus	-13937
▁accepts	-13938
▁relocation	-13939
▁Conciliation	-13940
,00	-13941
▁kit	-13942
▁Kash	-13943
▁zahiri	-13944
▁reaffirms	-13945
▁California	-13946
umes	-13947
▁Dal	-13948
▁TRA	-13949
▁stepping	-13950
▁resilience	-13951
▁exert	-13952
▁Gudanar	-13953
▁halayen	-13954
▁synergies	-13955
▁constituency	-13956
bel	-13957
tage	-13958
ammed	-13959
▁Confed	-13960
▁unrest	-13961
▁extends	-13962
▁replied	-13963
900	-13964
▁NO	-13965
icks	-13966
gered	-13967
▁maybe	-13968
▁gwamnati	-13969
▁visiting	-13970
▁contradiction	-13971
interest	-13972
▁Pictures	-13973
▁visitors	-13974
only	-13975
onym	-13976
▁Lamy	-13977
▁Terms	-13978
▁institute	-13979
▁wholeheartedly	-13980
▁TS	-13981
▁Got	-13982
▁quo	-13983
▁Infl	-13984
▁forb	-13985
onders	-13986
▁seize	-13987
▁deficiencies	-13988
Le	-13989
▁GR	-13990
▁Mug	-13991
▁Poly	-13992
shirye	-13993
▁Jihar	-13994
▁Zealand	-13995
▁minimal	-13996
▁tafiyar	-13997
ervatives	-13998
▁Opportunities	-13999
hare	-14000
▁16,	-14001
▁Auto	-14002
▁brows	-14003
▁katin	-14004
▁Stones	-14005
▁timing	-14006
▁monopolies	-14007
sub	-14008
rine	-14009
▁ice	-14010
▁ƙud	-14011
▁Live	-14012
rupted	-14013
▁Baron	-14014
▁Emerg	-14015
▁cartel	-14016
▁consulting	-14017
hn	-14018
▁13:	-14019
▁Yusuf	-14020
▁cereals	-14021
▁privileged	-14022
-13	-14023
usp	-14024
▁HE	-14025
5-00	-14026
▁Wil	-14027
orious	-14028
▁incon	-14029
▁samaniya	-14030
▁Gar	-14031
▁rab	-14032
mancin	-14033
▁proport	-14034
▁mir	-14035
▁Call	-14036
▁inex	-14037
▁ridic	-14038
▁nauyin	-14039
stimulia	-14040
▁Cambodia	-14041
▁blessing	-14042
▁recovered	-14043
▁Unofficial	-14044
stimuliavimas	-14045
UMA	-14046
cfm	-14047
ysis	-14048
▁lev	-14049
▁dubu	-14050
▁shed	-14051
▁sooner	-14052
▁vessel	-14053
▁engines	-14054
▁internally	-14055
▁matsalolin	-14056
▁struggling	-14057
acks	-14058
owed	-14059
▁(16	-14060
group	-14061
▁geared	-14062
▁Instance	-14063
▁kazalika	-14064
▁overseas	-14065
TD	-14066
▁lobb	-14067
▁begen	-14068
▁elite	-14069
▁barrier	-14070
▁poultry	-14071
▁shafaffu	-14072
▁thematic	-14073
:21	-14074
rea	-14075
▁fly	-14076
field	-14077
uwansa	-14078
▁ANNEX	-14079
▁resid	-14080
▁ɗauka	-14081
▁Bethel	-14082
▁resign	-14083
▁winter	-14084
▁fruitful	-14085
▁Daw	-14086
▁fuska	-14087
▁applaud	-14088
▁Israelis	-14089
▁improves	-14090
▁maintains	-14091
▁jet	-14092
▁Care	-14093
▁Holm	-14094
▁Safe	-14095
▁menu	-14096
▁Kafin	-14097
▁hadin	-14098
▁olive	-14099
▁refusing	-14100
▁versions	-14101
▁independently	-14102
▁SW	-14103
ando	-14104
▁fet	-14105
anians	-14106
▁bashi	-14107
▁secured	-14108
▁horr	-14109
▁soph	-14110
▁Screen	-14111
▁affair	-14112
▁classified	-14113
SR	-14114
ez	-14115
ears	-14116
▁RES	-14117
▁zazz	-14118
uwanmu	-14119
▁Audio	-14120
▁Franc	-14121
▁quiet	-14122
▁fleets	-14123
▁siyasa	-14124
▁superv	-14125
▁balances	-14126
▁favorite	-14127
▁protective	-14128
▁jun	-14129
▁Using	-14130
▁adhere	-14131
▁mothers	-14132
▁remedies	-14133
▁samfurori	-14134
▁eradication	-14135
VER	-14136
ɓar	-14137
▁pup	-14138
▁fili	-14139
▁tace	-14140
▁Yayin	-14141
▁iyakar	-14142
12.	-14143
mod	-14144
▁(24	-14145
▁hij	-14146
erred	-14147
▁None	-14148
▁hudu	-14149
▁Origin	-14150
▁tables	-14151
▁skilled	-14152
▁Malmström	-14153
DER	-14154
ozy	-14155
ulu	-14156
▁Serbian	-14157
▁fuskanci	-14158
▁prescrib	-14159
▁Jav	-14160
▁kaɗan	-14161
▁obedi	-14162
▁Island	-14163
▁Survey	-14164
▁Kalmomin	-14165
▁xenophobia	-14166
▁distinguish	-14167
▁psychological	-14168
sche	-14169
illar	-14170
▁coff	-14171
▁anger	-14172
▁bananas	-14173
▁tawagar	-14174
ordinated	-14175
▁Musamman	-14176
▁abortion	-14177
▁appreciated	-14178
▁aquaculture	-14179
GO	-14180
anes	-14181
▁tuk	-14182
▁Near	-14183
▁Sche	-14184
▁divor	-14185
▁kanta	-14186
▁neuro	-14187
▁wholly	-14188
▁dangane	-14189
wordpress	-14190
▁Category	-14191
▁releases	-14192
▁organising	-14193
▁Rou	-14194
▁Tag	-14195
Afric	-14196
roots	-14197
▁fairer	-14198
Community	-14199
▁choosing	-14200
▁destabil	-14201
▁exercising	-14202
▁MAI	-14203
▁anch	-14204
▁mild	-14205
▁rinj	-14206
▁temporarily	-14207
▁vague	-14208
▁allocate	-14209
sau	-14210
▁damu	-14211
owered	-14212
▁Galaxy	-14213
▁restraint	-14214
eda	-14215
iche	-14216
▁18,	-14217
▁OEM	-14218
▁Notice	-14219
▁Chemical	-14220
▁karantawa	-14221
▁accomplished	-14222
CT	-14223
▁ع	-14224
▁98	-14225
▁Rah	-14226
▁Package	-14227
▁Palacio	-14228
▁province	-14229
61	-14230
▁78	-14231
▁regen	-14232
▁yunwa	-14233
▁headed	-14234
▁haihuwa	-14235
▁Mobility	-14236
▁Whatever	-14237
compliance	-14238
▁emphasized	-14239
MAN	-14240
ests	-14241
▁450	-14242
▁bloc	-14243
▁Jacob	-14244
▁Asylum	-14245
▁Tarihi	-14246
▁kwanakin	-14247
▁violated	-14248
-25	-14249
Pal	-14250
anger	-14251
▁Phot	-14252
▁yard	-14253
external	-14254
▁covenant	-14255
▁Taim	-14256
▁echo	-14257
▁circle	-14258
▁chronic	-14259
▁disarmament	-14260
GY	-14261
DGs	-14262
▁Hüb	-14263
▁adj	-14264
ystal	-14265
▁alert	-14266
▁rival	-14267
▁Hübner	-14268
▁Peters	-14269
▁caution	-14270
▁agreeing	-14271
▁baptized	-14272
▁perception	-14273
DI	-14274
▁ped	-14275
▁Gram	-14276
▁Series	-14277
▁Unless	-14278
▁lafiyar	-14279
▁Eurojust	-14280
osevic	-14281
▁perman	-14282
▁equitable	-14283
.’	-14284
euv	-14285
▁fo	-14286
▁17,	-14287
▁Joe	-14288
▁UNION	-14289
▁resett	-14290
▁condemnation	-14291
▁Rap	-14292
apsed	-14293
owski	-14294
▁Vict	-14295
▁gark	-14296
▁gefen	-14297
▁imply	-14298
▁Harkokin	-14299
▁reconcile	-14300
▁cooperating	-14301
▁redundancies	-14302
arsh	-14303
sole	-14304
▁Koh	-14305
▁extrad	-14306
▁Ambassador	-14307
▁headquarters	-14308
:22	-14309
▁CL	-14310
▁liable	-14311
▁Improving	-14312
▁Liberties	-14313
▁160	-14314
▁Gonz	-14315
▁facto	-14316
▁objects	-14317
▁qualitative	-14318
▁TF	-14319
▁PHARE	-14320
▁midst	-14321
▁tsarkake	-14322
▁kwakwalwa	-14323
▁postponed	-14324
ENCE	-14325
▁ozone	-14326
▁enrich	-14327
▁missed	-14328
▁rukunin	-14329
▁criticised	-14330
▁deliberations	-14331
-18	-14332
ilan	-14333
▁Aka	-14334
▁nice	-14335
▁brown	-14336
▁makam	-14337
▁Hotuna	-14338
internal	-14339
▁Workers	-14340
▁dropped	-14341
▁turnover	-14342
▁Decisions	-14343
▁Milosevic	-14344
▁happiness	-14345
▁ziy	-14346
_2010	-14347
eries	-14348
etime	-14349
▁foda	-14350
consum	-14351
▁spare	-14352
▁tsira	-14353
▁transmitted	-14354
▁acknowledges	-14355
QU	-14356
▁sauya	-14357
▁incumb	-14358
▁capture	-14359
▁illicit	-14360
▁criticisms	-14361
▁interaction	-14362
▁irresponsible	-14363
▁3.5	-14364
▁Brok	-14365
▁Roth	-14366
▁loud	-14367
▁maize	-14368
▁blockchain	-14369
▁permission	-14370
▁renewables	-14371
▁Answ	-14372
▁beliefs	-14373
▁imperfect	-14374
etry	-14375
▁mig	-14376
▁Fifth	-14377
product	-14378
▁matakai	-14379
▁Philippe	-14380
▁exported	-14381
▁borrowing	-14382
▁Delegation	-14383
▁originating	-14384
waye	-14385
▁VIII	-14386
▁reap	-14387
ulsion	-14388
▁defines	-14389
▁Muhammadu	-14390
(9	-14391
gawa	-14392
▁ILO	-14393
▁lod	-14394
▁Shir	-14395
▁Agusta	-14396
▁Markus	-14397
▁doctor	-14398
▁vaccine	-14399
▁contents	-14400
▁dissemin	-14401
▁countryside	-14402
ifts	-14403
▁Chad	-14404
aikatar	-14405
▁Anyone	-14406
▁Transpa	-14407
▁banning	-14408
▁Policies	-14409
▁unsatisf	-14410
▁approaching	-14411
VEL	-14412
▁Bor	-14413
▁rum	-14414
▁buɗe	-14415
rained	-14416
▁musul	-14417
leadership	-14418
Ka	-14419
▁Bö	-14420
▁MS	-14421
ials	-14422
zhen	-14423
▁GMO	-14424
▁farf	-14425
▁minti	-14426
▁seeds	-14427
station	-14428
▁Mataki	-14429
▁Sarkozy	-14430
▁sentences	-14431
▁stainless	-14432
▁unwilling	-14433
▁accomplish	-14434
abba	-14435
▁nut	-14436
▁Plus	-14437
▁Danna	-14438
▁Samun	-14439
▁Laeken	-14440
▁updates	-14441
6.1	-14442
800	-14443
oria	-14444
▁fama	-14445
▁gran	-14446
▁collabor	-14447
mg	-14448
KET	-14449
eni	-14450
akis	-14451
▁BAR	-14452
▁Quart	-14453
financial	-14454
▁interven	-14455
cia	-14456
▁Ug	-14457
oeuv	-14458
▁15:	-14459
▁125	-14460
▁yaro	-14461
▁Money	-14462
▁Recon	-14463
▁divine	-14464
▁silent	-14465
▁sisters	-14466
▁Bot	-14467
▁saƙon	-14468
▁Athens	-14469
▁benchmarks	-14470
▁calculation	-14471
▁specifications	-14472
osh	-14473
annen	-14474
ilings	-14475
▁patience	-14476
▁94	-14477
▁Pier	-14478
ocratic	-14479
▁chains	-14480
▁easing	-14481
▁hoping	-14482
▁ƙasashe	-14483
▁feedback	-14484
▁rejecting	-14485
▁harmonization	-14486
kest	-14487
▁crossing	-14488
▁displayed	-14489
▁neighbors	-14490
pire	-14491
▁ours	-14492
▁acceding	-14493
▁mobilisation	-14494
/99	-14495
▁gā	-14496
▁16:	-14497
actor	-14498
janna	-14499
rators	-14500
▁Tribunal	-14501
▁Sometimes	-14502
▁multilingual	-14503
kw	-14504
▁MCD	-14505
atics	-14506
▁dear	-14507
▁alamar	-14508
▁Tuntuɓi	-14509
▁instances	-14510
▁›	-14511
▁2)	-14512
zhou	-14513
akuna	-14514
▁fool	-14515
▁kwanci	-14516
▁vacuum	-14517
▁verify	-14518
▁gafarta	-14519
▁liberty	-14520
▁Slovenian	-14521
▁Prevention	-14522
▁sanitation	-14523
▁technically	-14524
oa	-14525
adt	-14526
rin	-14527
rome	-14528
▁Andor	-14529
▁provin	-14530
▁paradox	-14531
▁CONTENTS	-14532
▁pluralism	-14533
▁),	-14534
▁iT	-14535
▁Mur	-14536
▁ƙir	-14537
▁rike	-14538
▁sinks	-14539
▁lifted	-14540
▁worshi	-14541
▁unequiv	-14542
effective	-14543
▁anticipated	-14544
gram	-14545
▁Short	-14546
▁offence	-14547
▁surveys	-14548
▁generating	-14549
Ps	-14550
:23	-14551
▁ment	-14552
▁await	-14553
▁contamination	-14554
▁righteousness	-14555
▁▪	-14556
will	-14557
ridge	-14558
▁kame	-14559
▁umur	-14560
determ	-14561
▁Basel	-14562
▁Cloud	-14563
▁Pract	-14564
▁detection	-14565
▁installed	-14566
▁BY	-14567
▁22.	-14568
▁Yuni	-14569
bercul	-14570
▁cinye	-14571
▁handed	-14572
▁catches	-14573
▁tambaye	-14574
▁Factsheet	-14575
▁evaluated	-14576
▁electorate	-14577
▁professions	-14578
▁certificates	-14579
▁ف	-14580
lab	-14581
▁haik	-14582
-2014/	-14583
▁Suppl	-14584
▁insol	-14585
kestein	-14586
▁marble	-14587
▁manoeuv	-14588
▁rarraba	-14589
▁sophistic	-14590
▁pornography	-14591
▁Byr	-14592
▁kaina	-14593
zheimer	-14594
▁Egyptian	-14595
▁concerted	-14596
▁Additional	-14597
PR	-14598
cm	-14599
uko	-14600
inded	-14601
quiry	-14602
thirds	-14603
▁itace	-14604
▁kallon	-14605
financed	-14606
▁mallaka	-14607
▁publishing	-14608
RIC	-14609
alu	-14610
▁Bud	-14611
▁Kinn	-14612
▁NOTE	-14613
▁lashe	-14614
▁lengthy	-14615
▁landscape	-14616
▁sensitivity	-14617
▁continuously	-14618
▁Glass	-14619
▁manta	-14620
▁marub	-14621
▁advent	-14622
▁blocks	-14623
▁protein	-14624
berculosis	-14625
_2010-2014/	-14626
▁submission	-14627
cking	-14628
ested	-14629
ropol	-14630
▁Tall	-14631
▁Sakam	-14632
▁noticed	-14633
▁Kinnock	-14634
▁halarci	-14635
▁aggregate	-14636
▁boundaries	-14637
ELL	-14638
▁ju	-14639
▁COR	-14640
▁Very	-14641
▁ultra	-14642
society	-14643
▁protects	-14644
▁resolute	-14645
▁systemic	-14646
▁Certainly	-14647
▁computers	-14648
▁inspectors	-14649
infringements	-14650
▁resurrection	-14651
▁disappointment	-14652
Hz	-14653
upp	-14654
▁Summ	-14655
▁pity	-14656
▁steady	-14657
▁shakatawa	-14658
EREF	-14659
pered	-14660
▁dake	-14661
▁2018,	-14662
▁fluct	-14663
▁hourly	-14664
▁contamin	-14665
▁redundant	-14666
▁highlighting	-14667
met	-14668
pot	-14669
▁Karin	-14670
▁undes	-14671
▁Carbon	-14672
▁revise	-14673
▁Rapporteur	-14674
▁19,	-14675
▁Jul	-14676
▁Iron	-14677
ructive	-14678
▁Crisis	-14679
▁anxiety	-14680
▁forcing	-14681
▁vigilant	-14682
▁licensing	-14683
▁Particular	-14684
br	-14685
▁93	-14686
▁Musul	-14687
developed	-14688
arest	-14689
▁beat	-14690
▁kuɗin	-14691
▁organs	-14692
▁casinos	-14693
▁resistant	-14694
style	-14695
▁carries	-14696
▁kafofin	-14697
▁printing	-14698
▁triggered	-14699
▁verification	-14700
atra	-14701
▁Municip	-14702
▁reorgan	-14703
▁prevents	-14704
▁excluding	-14705
▁exercised	-14706
▁individually	-14707
▁ME	-14708
▁bans	-14709
▁cook	-14710
▁mines	-14711
century	-14712
▁imitate	-14713
▁restricting	-14714
▁specialised	-14715
Ex	-14716
from	-14717
▁3355	-14718
▁aver	-14719
▁Byrne	-14720
▁Coast	-14721
private	-14722
▁absent	-14723
▁Richard	-14724
▁mitigate	-14725
▁Vassiliou	-14726
▁ig	-14727
omic	-14728
▁Samu	-14729
▁gall	-14730
account	-14731
▁upgrading	-14732
▁GUE	-14733
▁View	-14734
▁Wars	-14735
▁Irmiya	-14736
▁dalili	-14737
▁unknown	-14738
▁newsletter	-14739
▁readmission	-14740
MD	-14741
icism	-14742
▁feat	-14743
Direct	-14744
▁rahoton	-14745
▁Speaking	-14746
▁performing	-14747
▁visibility	-14748
vens	-14749
▁touched	-14750
▁Canadian	-14751
▁neighbor	-14752
▁comitology	-14753
▁83	-14754
▁mij	-14755
▁Duba	-14756
▁kung	-14757
▁harshen	-14758
▁district	-14759
▁Bolkestein	-14760
▁Kazakhstan	-14761
▁indicative	-14762
▁interviews	-14763
▁appropriately	-14764
NGL	-14765
▁WITH	-14766
▁gest	-14767
▁maye	-14768
▁owner	-14769
▁annabi	-14770
▁rarely	-14771
▁sample	-14772
▁drought	-14773
ISA	-14774
OIN	-14775
ayer	-14776
ttes	-14777
▁dust	-14778
▁Spirit	-14779
▁barely	-14780
ía	-14781
▁fans	-14782
ayayya	-14783
▁bawul	-14784
▁Thomas	-14785
▁infection	-14786
▁68	-14787
igur	-14788
▁rag	-14789
▁1995.	-14790
▁sashen	-14791
▁specul	-14792
▁retained	-14793
▁Alzheimer	-14794
▁unsustainable	-14795
/95	-14796
ois	-14797
▁tree	-14798
▁Filib	-14799
▁lighting	-14800
▁watching	-14801
▁ĩm	-14802
▁(13	-14803
▁Rein	-14804
ikanen	-14805
▁lands	-14806
▁frustr	-14807
▁Korinth	-14808
▁interfe	-14809
▁awaiting	-14810
▁separately	-14811
▁counterfeiting	-14812
▁●	-14813
▁Ult	-14814
▁Lamp	-14815
▁Sant	-14816
▁photo	-14817
▁Prosec	-14818
▁basins	-14819
▁wajibi	-14820
▁diagnosis	-14821
▁facilitation	-14822
wr	-14823
▁UC	-14824
code	-14825
▁huɗ	-14826
▁Jerem	-14827
▁Player	-14828
▁Yakubu	-14829
▁massac	-14830
▁unders	-14831
▁Baroness	-14832
▁advocated	-14833
▁projections	-14834
▁Leh	-14835
▁var	-14836
▁rice	-14837
▁Romans	-14838
▁degrad	-14839
▁vaccination	-14840
حک	-14841
cycl	-14842
▁17:	-14843
▁25.	-14844
▁****	-14845
▁imel	-14846
▁sune	-14847
▁kwarar	-14848
▁Liikanen	-14849
▁altogether	-14850
▁permanently	-14851
Pro	-14852
ruits	-14853
▁ERDF	-14854
▁dabbobi	-14855
▁gilashin	-14856
▁prophecy	-14857
▁Negotiations	-14858
ASA	-14859
mir	-14860
shin	-14861
▁Lev	-14862
▁(0)2	-14863
▁Baby	-14864
▁taus	-14865
▁incap	-14866
▁tsawo	-14867
jejeniya	-14868
▁forming	-14869
▁Bluetooth	-14870
▁blessings	-14871
▁regulator	-14872
▁detrimental	-14873
▁everlasting	-14874
eck	-14875
voy	-14876
home	-14877
▁Cho	-14878
▁yasa	-14879
▁Visit	-14880
▁madadin	-14881
▁excessively	-14882
1).	-14883
ogan	-14884
▁Lit	-14885
▁Amirka	-14886
▁tattara	-14887
▁unclear	-14888
▁migratory	-14889
▁prosecution	-14890
▁DM	-14891
safe	-14892
▁Que	-14893
▁Willi	-14894
▁redress	-14895
▁ineffective	-14896
▁Mi	-14897
ERDF	-14898
▁Ves	-14899
▁curb	-14900
▁tsufa	-14901
▁Ecofin	-14902
▁Conduct	-14903
▁operated	-14904
▁cibiyoyin	-14905
▁sacrifices	-14906
▁successive	-14907
▁predictable	-14908
▁Ci	-14909
arko	-14910
ymas	-14911
▁saba	-14912
custom	-14913
▁Guant	-14914
[...]
