▁the	433279
,	340925
▁of	267024
▁to	256902
▁and	249425
.	234074
▁.	205778
▁,	191505
▁in	153474
▁a	140621
▁is	109058
▁for	95484
s	93760
▁that	89047
▁you	72460
-	72303
▁with	67867
’	63693
▁“	61778
:	58889
▁on	55547
▁The	54014
▁be	53353
▁are	49938
▁(	49805
▁as	47847
▁will	46623
▁”	46243
▁:	44038
▁?	43790
▁-	43631
▁from	42584
▁not	42320
▁we	42180
▁have	42171
▁by	41275
▁his	41079
▁it	41051
▁I	39789
▁can	39122
▁was	38002
▁your	37429
▁he	36815
▁God	36033
▁or	34851
▁Jehovah	34354
)	30173
▁at	29006
▁our	28387
▁has	28274
▁this	28070
▁they	27377
▁who	25952
▁their	25371
▁—	24219
▁all	23959
▁us	22844
▁an	22482
ing	22332
▁them	21080
▁In	20481
▁1	20024
▁do	19963
▁And	19719
▁him	19509
▁one	19447
▁Jesus	18679
/	18598
▁We	18584
▁A	18447
▁what	18249
▁more	17909
ed	17572
▁What	17552
▁when	17466
▁about	16911
▁people	16729
er	16252
▁which	16249
▁time	16183
▁S	16103
t	15987
▁so	15891
y	15850
▁had	15839
▁were	15570
▁but	15454
'	15146
▁[	15073
?	14707
▁B	14543
▁How	14517
▁–	14412
...	14257
▁also	14165
▁C	13815
▁It	13785
▁T	13752
▁my	13646
▁He	13595
▁2	13506
▁P	13304
S	13215
▁M	13189
▁other	13178
▁D	13170
▁H	13099
▁up	13042
▁said	13016
▁would	12908
▁3	12758
▁L	12606
▁may	12578
o	12574
▁R	12513
▁out	12442
▁been	12423
▁For	12351
▁those	12271
▁5	11986
▁Bible	11691
▁did	11533
;	11451
▁me	11451
▁This	11448
i	11377
a	11333
▁G	11324
▁N	11269
▁if	11250
m	11246
▁than	11201
ly	11121
▁)	11061
▁4	11007
▁life	10857
or	10771
ers	10568
▁F	10567
▁no	10561
▁such	10548
▁good	10532
C	10521
▁/	10502
▁there	10438
▁W	10388
▁You	10316
▁’	10028
▁how	10010
▁its	9974
▁should	9897
▁any	9892
▁K	9881
▁first	9872
▁help	9870
▁	9790
▁make	9759
▁some	9680
▁before	9674
al	9595
▁over	9584
▁"	9528
D	9403
h	9347
in	9328
l	9292
▁10	9274
!	9209
▁only	9209
2	9199
M	9128
e	9093
▁into	9044
▁many	9032
T	9020
on	8965
b	8961
c	8920
▁work	8889
▁new	8884
▁6	8871
▁her	8816
B	8779
▁like	8762
▁_	8701
▁world	8669
▁If	8628
▁way	8515
es	8478
▁after	8405
an	8387
▁Stone	8386
le	8383
▁O	8365
▁use	8325
▁day	8312
H	8249
▁&	8184
en	8172
▁Lord	8170
4	8145
3	8097
▁‘	8084
1	8069
▁years	7976
P	7955
▁used	7896
▁J	7853
d	7837
▁does	7832
E	7781
p	7774
▁;	7767
▁high	7683
▁When	7668
▁But	7662
g	7640
▁b	7601
▁love	7596
▁need	7589
k	7543
▁8	7520
▁E	7516
A	7503
▁7	7498
at	7478
▁All	7462
F	7433
n	7391
u	7336
▁15	7334
▁even	7322
▁most	7310
W	7291
▁made	7287
"	7264
ic	7231
r	7225
G	7201
▁!	7172
▁things	7166
]	7151
▁man	7141
▁V	7120
▁As	7093
▁two	7027
▁Hotel	6999
▁then	6995
▁p	6978
▁these	6973
it	6953
▁Allah	6940
f	6901
▁because	6890
▁well	6821
▁different	6816
▁know	6798
L	6756
8	6751
▁To	6740
6	6633
N	6619
(	6553
▁12	6541
ate	6505
”	6504
7	6428
▁could	6398
as	6396
▁Christ	6351
▁Paul	6343
com	6309
▁see	6300
▁just	6296
▁get	6252
▁9	6223
▁through	6194
▁Our	6173
▁take	6154
▁very	6148
▁Y	6136
▁start	6116
#	6112
Y	6083
am	6064
▁Why	6049
us	6004
▁They	5997
x	5996
▁hearing	5959
K	5944
▁great	5940
ah	5908
▁service	5907
able	5897
v	5881
▁must	5841
5	5831
R	5812
ation	5801
O	5766
V	5733
▁she	5729
ia	5705
▁now	5692
I	5691
▁being	5689
ar	5688
▁best	5684
el	5647
th	5641
▁earth	5601
▁]	5577
▁others	5566
▁>	5563
9	5553
▁example	5543
▁quality	5543
▁s	5491
is	5450
).	5438
▁20	5437
▁11	5342
▁says	5336
▁system	5316
id	5304
et	5281
▁18	5273
),	5258
▁Z	5231
▁shall	5223
re	5222
w	5217
▁With	5191
z	5173
▁China	5161
ad	5149
▁year	5135
▁spirit	5125
▁24	5116
▁own	5114
▁give	5083
il	5041
ay	5034
▁Christians	5030
▁come	5016
▁Sh	5008
▁m	5005
▁Christian	5004
▁19	4995
▁free	4979
.”	4967
▁name	4953
ant	4922
▁<	4892
▁faith	4882
▁page	4880
▁where	4877
▁company	4876
▁Read	4874
▁against	4823
▁say	4806
▁l	4791
▁2019	4781
ch	4744
▁upon	4739
▁words	4735
▁16	4734
▁13	4712
▁children	4712
ment	4708
▁d	4701
▁am	4690
▁14	4688
▁long	4672
▁find	4656
▁heart	4654
▁There	4638
▁U	4637
▁$	4626
▁c	4619
_	4603
▁Ch	4597
▁men	4595
▁St	4587
▁power	4583
ine	4574
▁place	4556
im	4552
um	4545
ness	4537
▁Home	4522
▁want	4518
and	4515
00	4508
▁go	4507
▁become	4502
▁One	4488
▁No	4470
▁Kingdom	4469
▁days	4461
▁each	4445
ings	4435
▁set	4408
ated	4399
▁On	4392
▁So	4389
ol	4363
▁0	4351
ie	4341
ot	4315
▁between	4303
▁products	4300
▁down	4294
▁University	4292
▁same	4288
▁#	4286
▁17	4275
▁might	4269
▁•	4242
▁Marble	4224
▁part	4223
▁Do	4220
j	4219
▁X	4216
▁much	4196
▁every	4194
▁back	4169
est	4150
ian	4143
om	4142
▁among	4135
▁true	4132
▁spiritual	4130
▁family	4128
▁right	4127
▁dur	4100
▁David	4085
▁Israel	4080
20	4025
▁under	4023
▁times	4008
▁another	4000
un	3988
▁today	3986
="	3980
os	3976
X	3953
U	3950
▁support	3948
▁hand	3938
ur	3931
▁An	3930
10	3921
▁during	3918
▁show	3908
▁supply	3894
▁f	3889
▁order	3873
▁Us	3855
▁while	3853
▁congregation	3844
▁w	3833
▁By	3818
▁At	3804
▁keep	3797
ure	3796
ve	3796
▁ones	3788
ent	3783
▁High	3783
▁30	3778
▁online	3763
▁end	3758
mm	3732
ra	3727
▁number	3726
▁truth	3719
://	3715
▁That	3714
ity	3708
▁death	3703
▁away	3687
▁news	3687
▁New	3680
age	3675
▁important	3666
▁three	3653
ist	3647
▁His	3643
ro	3640
▁Re	3639
▁*	3630
▁found	3623
▁using	3622
ite	3606
▁25	3603
se	3602
▁water	3599
ry	3579
▁+	3578
▁e	3578
J	3574
ab	3554
ors	3550
▁Witnesses	3533
▁After	3499
▁Al	3490
▁software	3486
st	3483
▁etc	3479
▁2018	3476
▁book	3448
▁study	3440
▁without	3426
ip	3424
▁per	3423
▁John	3409
▁available	3398
▁t	3393
ates	3390
+	3384
▁Is	3365
▁person	3357
▁Your	3321
▁May	3305
▁both	3305
▁g	3300
▁video	3298
12	3286
▁Co	3281
▁Then	3276
▁read	3274
▁material	3272
op	3270
▁according	3270
▁able	3268
▁information	3267
▁means	3241
▁Time	3238
▁state	3230
">	3226
ful	3211
▁...	3202
▁light	3198
▁home	3193
▁h	3188
▁given	3185
ig	3178
▁Now	3162
▁un	3160
▁Word	3149
▁why	3149
▁called	3141
ag	3140
▁However	3139
▁live	3138
ang	3135
15	3122
▁let	3122
▁site	3118
ating	3116
▁full	3114
▁control	3110
▁human	3107
▁course	3095
▁n	3086
▁data	3076
▁experience	3067
▁21	3060
▁himself	3059
he	3058
▁design	3057
▁word	3048
▁mind	3039
▁including	3022
▁off	3021
ak	3018
▁here	3009
ut	3006
.,	3004
▁house	2995
▁Android	2994
up	2992
em	2991
▁st	2989
ion	2987
▁put	2981
▁About	2980
▁still	2980
▁steel	2971
▁months	2968
16	2965
▁She	2965
▁Satan	2964
▁feel	2958
les	2954
ul	2947
ies	2944
▁machine	2936
▁Be	2924
▁worship	2919
▁v	2905
▁Ad	2904
▁young	2898
▁Mosaic	2889
▁never	2869
▁Nigeria	2868
▁making	2868
▁News	2867
▁son	2854
The	2852
▁learn	2852
▁From	2847
18	2846
▁brothers	2839
▁around	2828
>	2820
17	2815
od	2812
▁too	2811
30	2802
▁22	2796
0	2793
▁price	2792
▁whom	2789
one	2784
19	2783
▁Prophet	2780
▁hours	2780
▁100	2773
▁provide	2768
50	2762
▁city	2750
ter	2743
▁23	2737
▁My	2736
▁faithful	2730
14	2716
▁account	2708
▁sc	2708
▁business	2689
13	2688
ations	2676
ide	2673
per	2672
ash	2666
▁2017	2659
▁saying	2656
▁Contact	2655
▁article	2654
▁look	2648
▁ago	2645
▁ways	2638
▁top	2636
▁came	2635
▁Peter	2627
▁body	2624
ir	2623
25	2611
Z	2607
▁offer	2602
ish	2601
▁always	2599
▁Se	2591
▁knowledge	2586
▁land	2580
ts	2577
▁since	2577
ap	2576
▁(2	2576
ance	2572
ins	2572
▁More	2572
▁production	2572
▁face	2570
▁Moses	2565
▁stone	2564
▁old	2560
▁together	2560
."	2558
▁special	2554
▁|	2551
▁holy	2550
▁better	2545
▁market	2535
ow	2530
▁view	2520
▁Best	2513
▁don	2510
end	2509
▁servants	2508
▁last	2498
▁Some	2485
▁Google	2482
ments	2477
▁receive	2475
ard	2474
▁following	2473
ai	2467
▁Car	2467
▁Of	2466
ens	2464
ary	2463
ING	2458
▁having	2456
▁became	2454
▁THE	2449
▁re	2449
▁often	2448
▁though	2446
,000	2441
▁sent	2441
▁easy	2435
▁product	2434
og	2430
▁think	2425
▁sons	2423
▁wife	2422
▁known	2415
▁hope	2412
▁told	2405
▁works	2405
ill	2403
▁personal	2402
▁test	2402
ice	2397
▁https	2396
▁peace	2394
▁needs	2391
▁hard	2386
▁popular	2380
▁line	2377
▁Let	2374
▁parents	2371
▁Am	2370
▁de	2367
▁food	2363
40	2361
▁apostle	2361
▁al	2358
▁Father	2353
▁sin	2351
▁students	2350
▁until	2349
▁State	2348
▁website	2345
▁gave	2338
▁month	2338
▁small	2336
▁working	2336
99	2335
ov	2334
▁various	2334
▁serve	2330
the	2328
▁Granite	2318
q	2316
▁area	2315
▁Free	2309
▁case	2302
▁o	2299
▁country	2297
▁type	2295
▁ch	2293
▁law	2290
▁Sink	2287
ib	2283
▁play	2282
▁World	2281
▁prayer	2279
▁wrote	2279
▁head	2276
▁color	2274
▁real	2274
▁women	2273
▁fact	2271
ong	2269
▁ministry	2266
to	2264
▁sound	2263
▁consider	2262
▁based	2255
▁Forex	2254
▁king	2254
▁done	2249
24	2245
▁large	2242
▁50	2240
▁1.	2234
▁aid	2232
▁travel	2232
▁questions	2227
ub	2226
▁themselves	2226
▁doing	2220
▁took	2220
▁28	2213
▁co	2209
pe	2204
ER	2203
ise	2202
ile	2199
▁few	2196
▁money	2192
ans	2189
▁within	2189
80	2187
▁Job	2182
our	2179
▁casino	2179
▁language	2176
ore	2174
▁industry	2174
▁'	2173
▁Facebook	2171
▁disciples	2171
▁technology	2169
▁26	2168
ical	2166
▁possible	2159
▁k	2149
are	2144
▁reason	2144
▁style	2136
▁whole	2136
.5	2131
IN	2131
▁process	2125
ator	2122
▁40	2121
▁again	2120
▁million	2115
▁Can	2113
▁dis	2113
▁key	2109
▁game	2108
▁development	2107
▁follow	2105
▁later	2105
▁media	2105
ions	2103
▁really	2102
▁living	2098
▁r	2098
its	2097
60	2096
▁These	2093
▁nor	2092
▁low	2089
ob	2087
▁iPhone	2086
▁share	2086
▁joy	2085
▁building	2084
▁research	2084
ting	2082
ud	2080
▁Steel	2080
ized	2079
▁customers	2077
ng	2076
▁2016	2075
▁Yes	2075
▁father	2074
▁care	2072
ous	2070
32	2067
ES	2066
▁Ex	2065
ac	2064
▁Other	2059
▁sp	2059
ge	2056
▁wall	2056
de	2048
te	2048
▁download	2047
▁result	2046
▁change	2043
▁comes	2037
▁users	2035
▁fear	2033
▁strong	2033
▁training	2033
ou	2032
▁loss	2028
▁little	2027
AN	2020
av	2014
ok	2013
▁ask	2013
▁went	2013
▁future	2009
▁US	2007
▁Ab	2006
▁asked	2006
▁open	2001
▁sure	2001
▁bring	2000
▁Psalm	1998
ue	1995
▁27	1994
▁turn	1990
▁Europe	1988
▁LED	1987
▁next	1987
iv	1986
-2	1979
oc	1979
▁Or	1979
▁began	1978
▁Cl	1976
▁King	1975
ik	1973
▁Law	1969
▁especially	1969
▁brother	1968
35	1967
ale	1966
▁close	1964
ets	1963
▁parts	1963
▁heaven	1962
▁makes	1962
▁ISO	1960
ina	1958
▁Light	1958
▁call	1958
▁Son	1957
▁post	1957
▁clear	1951
▁cl	1949
▁lead	1949
45	1947
000	1943
▁government	1941
▁Ar	1939
▁United	1938
ive	1935
ph	1934
▁Abraham	1929
▁English	1927
▁second	1927
▁Up	1925
▁cause	1925
▁fellow	1921
:00	1916
▁kind	1915
io	1914
ling	1914
▁preaching	1914
ast	1912
▁something	1907
▁left	1906
▁da	1905
▁lot	1902
ED	1901
11	1900
▁Natural	1899
sh	1898
ade	1897
AT	1896
ce	1893
led	1892
▁j	1892
▁air	1890
ain	1887
ath	1886
▁email	1886
▁going	1886
ari	1879
▁group	1875
▁health	1875
her	1874
▁present	1872
▁already	1870
▁white	1867
▁ever	1866
▁perfect	1865
▁main	1864
▁date	1863
▁believe	1862
man	1860
▁enjoy	1859
▁©	1859
▁February	1857
▁IN	1857
▁self	1856
▁x	1855
ys	1854
▁school	1849
ri	1848
▁ro	1848
▁Quality	1844
▁form	1841
▁services	1841
▁created	1840
▁point	1839
pl	1838
▁60	1837
ug	1834
ty	1833
▁understand	1833
ver	1830
▁choose	1827
pt	1814
▁Th	1814
▁See	1813
▁eyes	1813
out	1811
▁Top	1811
ize	1808
▁received	1805
▁members	1804
▁above	1803
if	1802
▁child	1797
▁countries	1796
▁Products	1795
▁yet	1795
▁Picture	1793
▁value	1787
ach	1784
Q	1783
less	1782
of	1782
▁Day	1782
▁Most	1782
▁2.	1781
ics	1779
1)	1777
34	1771
▁Un	1771
▁application	1770
▁Sc	1767
▁blog	1767
▁De	1765
:5	1764
2.	1763
▁anointed	1763
▁car	1762
▁purpose	1762
▁29	1760
36	1758
all	1758
95	1756
▁Col	1755
▁woman	1755
1.	1754
▁i	1754
▁2015	1752
uk	1750
▁Bathroom	1748
39	1747
▁public	1747
70	1744
ana	1744
der	1743
37	1741
▁Windows	1741
▁Train	1738
▁natural	1738
▁protection	1737
AS	1736
AR	1735
▁files	1735
ll	1731
90	1729
▁series	1727
wa	1726
▁matter	1724
old	1723
▁Instagram	1722
▁Even	1721
ons	1719
▁far	1717
ites	1716
▁night	1715
▁offers	1715
▁university	1715
▁Matthew	1713
▁however	1713
aw	1711
iz	1711
me	1711
▁According	1709
▁question	1709
▁Hearing	1706
▁effect	1706
▁Slab	1705
▁ear	1704
▁team	1704
▁hosting	1703
▁early	1702
▁level	1702
ake	1701
▁Many	1700
ars	1699
EN	1698
▁pay	1698
▁range	1698
▁th	1698
▁visit	1696
▁City	1695
▁loving	1694
ians	1693
▁speed	1692
▁Solar	1690
▁four	1690
▁less	1690
75	1689
▁certain	1689
▁contact	1689
▁problems	1689
▁local	1688
▁Me	1687
▁results	1684
red	1682
▁speak	1682
▁sh	1677
▁history	1675
▁continue	1674
▁message	1673
▁32	1672
▁Bar	1670
▁equipment	1670
▁blood	1668
▁century	1667
AL	1665
*	1664
▁hands	1664
ix	1663
▁addition	1663
▁attention	1663
▁cannot	1663
▁relationship	1663
▁2020	1662
▁brought	1662
▁social	1662
▁along	1660
▁age	1659
▁past	1659
▁term	1655
als	1653
ma	1653
▁Who	1651
▁black	1651
▁ex	1651
▁yourself	1651
▁Br	1650
▁toward	1650
▁marriage	1649
▁side	1647
▁single	1647
▁March	1644
▁aids	1643
▁trust	1643
▁complete	1641
▁return	1641
▁saw	1639
▁wicked	1639
▁Not	1637
9.	1635
▁Power	1634
▁games	1634
▁thing	1633
▁cost	1631
38	1629
▁Le	1629
▁Center	1628
▁web	1625
ick	1623
▁bad	1623
▁led	1623
▁ra	1622
3.	1621
▁conditions	1621
▁Since	1620
▁taken	1620
▁temperature	1620
6)	1618
▁Black	1618
4.	1616
qu	1615
▁benefit	1612
▁seen	1612
▁content	1608
▁counsel	1608
▁strength	1608
▁applications	1602
▁mother	1600
▁period	1596
▁3.	1593
▁35	1589
ism	1588
ures	1588
ne	1587
ON	1586
65	1585
▁Jerusalem	1584
▁fire	1584
ats	1583
▁Every	1583
az	1582
▁meet	1581
▁fine	1580
▁someone	1579
▁avoid	1576
▁professional	1576
▁teaching	1576
▁week	1576
▁red	1575
▁wide	1570
▁Pro	1569
▁standards	1568
▁weeks	1568
▁shows	1565
▁needed	1564
▁panel	1564
org	1563
▁Because	1563
we	1561
▁January	1561
▁provided	1560
ial	1557
IC	1556
▁version	1556
US	1555
▁list	1555
▁size	1555
▁near	1554
▁oil	1554
▁whether	1553
els	1550
▁features	1550
3)	1549
▁Dr	1548
▁device	1548
▁education	1548
▁similar	1548
ink	1546
-19	1544
▁Him	1543
ane	1541
▁program	1541
ally	1539
▁Machine	1539
1,	1538
▁South	1538
▁TO	1537
ess	1535
▁humans	1534
▁include	1534
▁taking	1531
▁Scriptures	1525
▁Therefore	1525
▁Twitter	1525
▁materials	1525
ear	1524
▁prophet	1524
▁followers	1523
art	1522
▁nations	1522
▁gives	1521
▁please	1521
▁app	1520
▁medical	1520
▁provides	1520
oy	1519
▁elders	1517
ging	1516
ome	1516
4)	1514
af	1513
na	1513
su	1512
▁En	1512
▁field	1512
▁Sun	1511
8.	1510
▁reach	1510
res	1508
▁phone	1507
%	1505
▁2013	1503
▁Japan	1503
▁Q	1503
ind	1502
▁Wall	1502
▁mean	1502
IS	1501
▁Indeed	1500
▁several	1499
▁friends	1498
▁looking	1495
&	1493
▁clean	1493
▁short	1491
ara	1490
▁2014	1490
▁Man	1489
▁conduct	1489
▁Download	1487
co	1486
▁Yet	1485
let	1483
▁First	1482
▁security	1482
▁answer	1478
2)	1476
▁Are	1476
▁Pl	1475
▁act	1475
▁former	1472
▁create	1471
▁husband	1470
▁tickets	1470
▁specification	1468
▁pre	1466
ute	1464
▁higher	1464
▁1,	1463
▁Today	1459
▁National	1458
▁April	1457
▁Muhammad	1457
▁Here	1456
-5	1455
▁ourselves	1454
▁designed	1453
be	1452
ose	1452
In	1451
▁access	1451
▁music	1451
▁ad	1450
▁31	1447
°	1446
▁sl	1446
▁Sp	1444
▁lives	1444
yl	1442
▁nation	1441
▁Israelites	1440
▁heard	1436
▁comfort	1434
▁4.	1433
▁cutting	1433
▁standard	1433
▁Stainless	1432
▁started	1432
▁rest	1431
ase	1430
ery	1430
26	1429
▁mankind	1429
▁powerful	1427
▁reading	1426
ory	1425
▁€	1425
46	1424
▁CO	1424
▁Isaiah	1424
▁Adam	1423
ass	1421
▁Mar	1419
▁non	1417
shi	1416
▁Metal	1416
▁international	1416
▁problem	1416
ence	1414
▁mobile	1414
▁try	1413
▁helped	1411
▁text	1410
▁fast	1409
▁fl	1409
▁33	1406
ants	1403
▁Quran	1403
▁righteous	1403
▁listen	1400
▁management	1395
▁position	1395
▁desire	1388
▁giving	1388
▁green	1387
▁pressure	1385
▁command	1383
▁construction	1382
▁remain	1381
▁System	1379
▁happy	1379
ology	1378
▁thought	1378
▁wisdom	1378
▁Online	1377
▁once	1377
▁White	1376
▁daily	1376
ization	1375
6.	1374
:0	1374
28	1372
ier	1371
▁States	1370
▁ability	1369
▁due	1367
▁treatment	1366
▁President	1365
▁minutes	1365
▁add	1363
▁App	1362
▁fully	1360
▁box	1358
ort	1357
-1	1356
▁Those	1356
▁got	1356
▁kingdom	1354
▁written	1354
ka	1352
▁beautiful	1351
▁office	1350
▁stand	1348
▁display	1347
▁2021	1346
▁June	1344
▁Mary	1341
IT	1340
▁cr	1337
▁sign	1336
▁videos	1336
▁dead	1335
▁factory	1335
ost	1334
▁false	1334
▁big	1333
▁individual	1333
▁difficult	1332
▁file	1332
▁function	1332
7.	1331
▁1:	1328
▁Manufacturer	1328
▁tool	1328
▁meetings	1327
way	1326
▁soul	1325
7)	1324
▁respect	1324
▁Thus	1323
▁screen	1323
▁evil	1322
▁Ltd	1321
ock	1320
▁meeting	1320
9)	1319
ished	1319
ET	1318
▁2:	1318
▁user	1318
izing	1317
▁buy	1317
▁bl	1314
▁simple	1313
AM	1312
AD	1311
5.	1310
▁situation	1309
=	1306
ani	1306
▁energy	1306
▁Go	1305
OR	1304
▁October	1303
ber	1302
▁tell	1302
▁Just	1300
▁met	1300
▁move	1299
▁search	1298
▁wrong	1298
▁code	1294
▁Next	1293
▁card	1293
▁y	1292
▁Web	1291
▁glass	1291
▁performance	1291
ks	1290
▁click	1290
▁computer	1290
▁project	1288
▁wa	1288
ec	1286
▁El	1286
▁PC	1286
▁Like	1285
▁thus	1285
▁leave	1284
▁Holy	1283
▁allow	1282
ition	1281
▁build	1280
▁Bl	1279
▁en	1278
▁bonus	1274
for	1273
oss	1273
▁Artificial	1273
▁EA	1273
▁anything	1272
ame	1271
▁August	1271
▁common	1271
ell	1270
▁coming	1270
▁train	1270
▁skin	1269
▁»	1269
iting	1268
▁hear	1267
33	1265
pping	1265
▁International	1265
▁Beach	1264
▁Good	1264
▁pl	1264
▁plan	1264
▁sun	1263
▁5.	1262
▁mentioned	1262
▁na	1261
ted	1260
▁customer	1260
ail	1259
▁Although	1259
▁greater	1259
▁rights	1259
▁bathroom	1258
48	1256
▁Onyx	1255
▁types	1255
▁heavenly	1254
▁activities	1253
▁protect	1253
ied	1251
▁likely	1251
▁Pre	1250
▁established	1250
▁nothing	1250
▁serving	1250
▁Technology	1249
▁September	1248
▁While	1247
▁related	1247
www	1246
▁Park	1246
▁cut	1246
▁Jews	1244
▁voice	1244
ight	1243
▁solution	1242
▁Tags	1241
▁states	1241
▁anyone	1240
▁Stand	1239
▁Advertise	1237
▁pain	1237
▁send	1236
hes	1235
ust	1234
▁table	1234
▁200	1233
▁everything	1233
▁moved	1233
▁Test	1232
ura	1231
▁gift	1231
▁helps	1230
▁lost	1229
ith	1227
▁image	1227
▁Luke	1226
▁plastic	1225
▁five	1224
▁custom	1223
▁individuals	1223
▁unique	1223
ack	1222
▁further	1222
▁Nigerian	1221
▁bar	1221
▁kindness	1221
▁sense	1221
▁December	1220
▁indeed	1220
▁projects	1220
ace	1219
over	1219
▁Gu	1219
▁WordPress	1219
▁current	1219
▁floor	1219
ark	1218
und	1218
▁November	1218
▁Product	1218
▁Su	1218
▁battery	1218
▁major	1218
ities	1217
▁Categories	1215
▁Hosting	1214
▁least	1214
▁events	1212
▁sheep	1212
0.	1211
▁pray	1211
con	1210
▁accept	1210
▁choice	1210
▁learned	1210
time	1208
▁Service	1207
OS	1206
▁takes	1206
▁Casino	1205
▁Lesbian	1205
▁knew	1205
▁Health	1202
▁class	1202
▁report	1202
▁Three	1201
▁run	1201
▁felt	1198
so	1197
▁Te	1197
ified	1196
▁soon	1195
eb	1194
ress	1194
▁School	1194
▁Wire	1194
▁Design	1191
▁laser	1190
▁story	1190
▁Res	1189
▁apply	1189
▁center	1189
▁kinds	1188
8)	1187
tr	1187
▁Internet	1187
▁total	1187
▁TV	1185
▁requirements	1185
▁ten	1185
▁tra	1185
▁Review	1184
▁Mr	1183
ram	1181
▁Media	1181
▁le	1181
▁widely	1181
▁sins	1180
CH	1179
▁Price	1179
▁eat	1179
▁foreign	1179
▁increase	1179
▁draw	1178
ek	1177
▁mercy	1177
▁attitude	1176
▁died	1176
▁source	1176
27	1175
ke	1175
▁leading	1175
▁45	1174
▁rate	1174
ba	1172
▁companies	1171
▁pump	1171
.)	1170
▁Cor	1169
▁forth	1169
▁opportunity	1169
▁hold	1168
▁longer	1168
▁2012	1167
▁decoration	1167
▁heavens	1166
▁Custom	1165
▁Get	1165
▁check	1165
▁Ne	1164
▁private	1163
▁Timothy	1160
▁allows	1158
▁Blog	1157
▁House	1157
▁excellent	1157
”.	1156
int	1155
IL	1153
▁Africa	1153
▁Show	1153
▁enter	1153
▁metal	1153
▁Code	1151
▁interior	1151
▁truly	1151
▁built	1148
▁considered	1148
▁entire	1148
▁powder	1148
▁improve	1147
▁34	1146
▁certainly	1144
▁Book	1143
▁Two	1142
▁km	1142
We	1141
ron	1140
▁Acts	1140
▁ab	1138
▁believers	1138
▁ensure	1138
▁OF	1137
▁behind	1137
▁modern	1137
47	1136
▁During	1136
68	1135
▁held	1135
▁sw	1134
49	1133
▁Red	1133
▁anti	1133
▁glory	1133
▁People	1132
▁amount	1132
▁therefore	1132
/1	1131
TS	1131
▁organization	1131
▁prayers	1130
▁areas	1129
▁maintain	1128
EL	1126
▁Ukraine	1125
ama	1124
ered	1124
▁Chinese	1124
ha	1123
▁deep	1123
ify	1122
▁Airline	1122
▁Mac	1122
▁sacrifice	1122
▁=	1121
▁36	1120
:2	1119
▁sports	1119
▁except	1118
▁hearts	1118
▁includes	1118
ep	1117
▁Does	1116
▁forward	1116
ages	1115
ple	1115
sa	1115
▁die	1115
▁manufacturer	1113
oo	1112
▁slave	1112
200	1111
▁stop	1111
▁action	1110
▁devices	1110
/2	1108
29	1108
att	1108
▁(1)	1108
67	1107
▁general	1107
▁network	1107
▁religious	1105
ds	1103
▁produce	1103
▁500	1102
▁Mark	1102
▁worldwide	1102
ann	1099
▁3:	1099
▁added	1099
ya	1098
erm	1096
▁teach	1096
ID	1094
▁Air	1094
▁IS	1093
▁whose	1093
▁wire	1093
EC	1092
ives	1092
iy	1092
ric	1092
▁talk	1092
ner	1091
▁Ba	1090
▁weight	1090
▁third	1089
ren	1088
ves	1088
▁37	1088
▁offered	1088
▁wise	1088
22	1087
ley	1086
▁war	1086
ox	1085
▁COVID	1085
▁role	1085
iss	1084
▁gambling	1084
▁thinking	1084
▁YouTube	1083
▁developed	1083
▁Water	1081
▁deal	1081
▁prices	1081
ips	1080
▁Institute	1080
▁Con	1079
▁flesh	1079
▁Company	1077
▁direction	1076
▁save	1076
▁wanted	1076
la	1075
▁Consider	1075
▁either	1075
▁%	1073
▁benefits	1071
▁interest	1071
▁Egypt	1070
▁Will	1070
▁temple	1070
ored	1069
▁supplier	1069
▁100%	1068
▁Detector	1068
▁appointed	1068
land	1066
▁speaking	1066
▁spoke	1064
UR	1063
ank	1063
by	1063
▁July	1063
ru	1062
▁physical	1061
▁Wholesale	1060
▁audio	1060
▁mm	1060
▁Business	1059
▁caused	1059
▁James	1058
▁effective	1058
@	1057
ike	1056
vers	1056
▁Don	1056
▁Stones	1056
▁advanced	1056
▁issue	1056
▁named	1056
▁sink	1056
hi	1055
▁almost	1055
▁understanding	1055
▁witness	1055
▁Maldives	1054
▁Cash	1053
▁Copyright	1053
▁walk	1053
▁Ed	1052
hen	1051
lic	1051
▁sex	1051
▁chat	1049
ton	1048
▁baptized	1048
▁guide	1048
▁necessary	1048
▁seek	1047
▁suitable	1047
▁quickly	1046
ged	1045
ck	1044
▁Italy	1044
▁Social	1044
▁matters	1044
▁rather	1044
orn	1043
year	1043
▁Work	1043
▁gra	1043
▁original	1043
▁response	1043
act	1042
ime	1042
▁@	1042
▁technical	1041
▁platform	1040
▁Use	1039
▁simply	1039
,”	1038
▁Post	1038
▁via	1038
▁Under	1037
▁80	1035
▁servant	1035
▁sight	1035
▁Plastic	1033
▁cases	1031
▁operation	1031
▁surface	1031
▁watch	1031
▁Hot	1030
▁enough	1030
▁authority	1029
▁remember	1029
▁revealed	1028
▁Video	1027
▁growth	1027
▁meaning	1027
98	1026
▁heat	1026
▁Daniel	1025
▁reported	1025
▁subject	1025
▁Islamic	1024
▁Previous	1024
ray	1023
▁Description	1023
▁Joseph	1023
▁Solomon	1023
▁step	1023
▁suffering	1022
▁Resort	1020
▁national	1020
▁variety	1020
▁motor	1019
▁staff	1019
cl	1018
ich	1017
bo	1016
ern	1016
▁Germany	1016
▁Mon	1016
▁covenant	1016
ex	1015
line	1015
ious	1014
ters	1014
66	1012
▁Church	1012
▁Have	1011
▁average	1011
▁judgment	1011
▁involved	1009
▁300	1007
▁places	1007
fe	1006
▁North	1006
▁Play	1006
AC	1005
▁Bitcoin	1005
▁Great	1005
▁Min	1005
▁uses	1005
▁38	1004
▁environment	1004
▁taught	1004
▁La	1003
▁yellow	1003
77	1002
ots	1002
▁format	1002
-0	1001
ode	1001
ush	1001
▁changes	1001
▁trading	1001
▁Also	1000
▁History	1000
▁located	1000
▁Open	999
▁required	999
▁righteousness	999
ative	998
▁brand	998
▁http	998
▁pages	998
▁basis	996
▁praise	995
eng	994
▁Hall	994
ines	993
▁Over	992
▁effects	992
85	991
ga	991
▁Ag	991
roll	990
rom	988
▁Off	988
▁across	988
▁efforts	988
▁leaders	988
▁Qu	987
▁disease	987
▁published	987
▁global	986
▁0.	985
▁honor	985
▁religion	985
▁Factory	984
ky	983
▁tattoos	983
min	982
▁ne	981
▁rich	981
▁capacity	980
UT	979
▁win	979
ists	978
▁ancient	978
▁review	978
ff	977
▁beginning	977
▁decision	977
▁examples	977
▁stay	977
sc	976
▁IT	976
▁pro	976
▁tools	976
▁alone	975
▁born	975
▁sites	975
▁learning	974
▁model	974
▁specific	974
▁UK	973
▁indicator	973
▁regarding	973
100	972
▁getting	972
▁obey	972
UL	971
▁Such	971
▁Tra	971
▁loved	971
▁Ph	969
▁qualities	969
▁statement	969
▁tattoo	969
IP	968
ened	968
▁patients	968
▁resurrection	968
▁turned	968
oring	967
xBet	967
▁easily	967
▁reserved	967
▁married	966
ps	965
▁everlasting	965
▁deliver	964
31	963
use	963
▁Corinthians	963
▁ready	963
▁room	963
44	962
▁AND	961
▁Bo	961
▁poor	961
▁region	961
▁rule	961
▁digital	960
▁usually	960
RE	959
▁books	959
▁promise	959
▁safety	959
▁activity	958
▁apostles	958
▁gold	958
▁structure	958
ware	957
▁CH	957
▁Last	957
▁below	957
▁marble	956
▁speech	955
▁guidance	954
▁kept	954
ays	953
▁Dis	953
▁evidence	953
▁rec	952
▁£	952
▁languages	951
▁Medical	950
▁creation	949
▁divine	949
▁sister	949
88	948
▁(5	948
▁friend	948
▁button	947
▁blessings	945
oh	944
▁Com	944
▁processing	944
▁focus	943
▁job	943
ited	942
▁Life	942
▁bo	942
OW	941
uck	941
yr	941
▁condition	941
ze	940
▁Love	940
▁manufacturing	940
▁med	940
▁principles	940
▁door	939
▁itself	939
”,	937
▁Romans	937
▁translation	937
▁completely	936
▁Russian	935
▁General	934
▁Philosophy	934
pped	933
▁effort	933
▁automatic	932
▁imitate	932
▁sub	932
ji	931
▁Hack	931
▁Em	930
▁showed	930
▁Governor	929
▁cur	928
▁experienced	927
▁se	927
aj	926
ect	926
▁gain	926
3,	925
▁carry	925
▁forever	925
▁normal	925
▁resistance	925
amp	924
ert	924
▁Led	924
▁Make	924
▁Revelation	924
▁Spirit	924
▁wants	924
ult	923
▁hour	923
ying	922
▁Note	922
▁ha	922
▁release	921
more	920
▁deposit	920
▁directly	920
▁window	920
oth	919
ual	919
▁offering	919
▁sisters	919
▁success	919
▁willing	919
42	918
▁MP	918
OL	917
inch	917
▁feelings	917
▁sales	916
▁Ma	915
▁pass	915
▁recorded	915
▁›	915
▁Pet	914
ised	913
▁East	913
▁Sam	913
▁record	913
▁stainless	913
▁Act	912
▁Ob	912
▁everyone	912
▁install	912
–	911
room	910
▁Mobile	910
▁players	910
▁shown	910
ily	909
▁American	909
▁approach	909
▁Out	908
▁dry	907
▁force	907
ala	906
▁Mom	905
iah	904
▁birth	904
▁tr	904
▁Fl	903
▁included	903
▁multiple	902
▁paper	902
ches	901
▁FOR	901
▁angels	901
▁six	901
du	900
ki	900
▁develop	900
▁Street	899
▁circumstances	899
▁prophecy	899
▁spiritually	899
▁Group	898
▁Kh	898
▁Their	897
▁ideal	897
▁request	897
▁و	897
UN	896
▁Back	896
▁touch	896
-3	894
▁Buhari	894
▁Know	893
▁fiber	893
ering	892
fully	892
itation	892
ured	892
▁dr	892
▁knows	892
▁bear	891
▁passed	891
86	890
ents	890
▁changed	890
▁opened	890
▁Keep	889
▁Mat	889
▁address	889
mo	888
▁Expert	888
▁doubt	888
▁Policy	887
▁Main	886
ire	885
▁brown	885
ls	883
ole	883
▁(1	883
▁Did	883
▁Support	883
▁Im	882
▁Inc	882
eter	880
▁Click	880
▁IP	880
▁Rather	880
▁points	880
▁Apple	879
▁Host	879
▁cover	879
che	878
▁Before	878
▁loyal	878
▁whatever	878
▁drive	877
▁grow	877
▁Rec	876
▁hot	876
▁inc	876
▁steps	876
hed	875
ld	875
▁AC	875
▁Mag	875
▁serious	875
▁firm	874
▁letter	874
ree	873
▁Instead	873
▁cable	873
ning	872
▁Scanner	872
▁5:	871
▁Noah	871
▁actually	871
▁70	870
▁gr	870
69	869
97	869
▁France	868
▁Judah	868
▁USD	868
▁method	868
):	867
▁blessing	867
▁90	866
▁perhaps	866
▁road	864
▁sinks	864
▁4:	862
▁Hausa	862
air	861
▁Che	861
▁Comments	861
▁Terms	861
▁hair	861
▁inspired	861
men	860
net	860
▁Team	860
▁prevent	860
▁half	859
▁Sal	858
▁length	857
▁neither	857
▁2010	856
▁event	856
▁fall	856
▁photos	856
ct	855
▁respond	855
▁stated	855
ST	854
▁confidence	854
▁degree	854
▁seven	854
▁wait	854
bs	853
EM	852
▁Aids	852
▁Mini	852
▁happened	852
▁older	852
▁reasons	852
-8	850
▁positive	850
?”	849
▁community	849
▁member	849
▁Art	848
▁systems	848
▁wonderful	848
▁Devil	847
▁chapter	847
oot	846
vel	846
▁Greek	846
▁continued	846
▁legal	846
▁safe	846
▁z	846
go	845
▁integrity	845
▁Name	844
▁highly	844
▁thousand	844
▁Gl	843
21	842
▁2,	842
▁Port	842
▁prove	842
ung	841
—	841
▁6.	841
▁Ro	841
▁player	841
▁promised	841
▁Start	840
▁accounts	840
▁plant	840
IA	839
ira	839
ium	839
▁Data	839
▁Fe	839
▁Tiles	839
▁Allahu	838
▁Please	838
▁double	838
▁latest	838
ada	837
▁issues	837
ms	836
ote	836
▁Messenger	836
▁Tel	836
▁governor	836
▁details	835
▁sallam	835
pa	834
▁Saul	834
▁bet	834
▁qu	834
▁Model	833
▁verse	833
)=	832
▁Har	832
▁placed	832
▁connection	831
▁plans	831
▁space	831
LE	830
ense	830
▁www	830
▁Bay	829
▁str	829
▁worth	829
ove	828
▁Green	828
▁Riga	828
▁alihi	828
▁solutions	828
TH	827
acy	827
▁Abuja	827
▁outside	827
TO	826
▁Box	826
▁Sl	826
▁blessed	826
▁San	825
▁begin	825
▁machines	825
43	824
▁poly	824
row	823
$	822
arm	822
iya	822
▁(4	822
▁Scriptural	822
▁else	822
▁front	822
get	821
▁basic	821
▁sea	821
▁student	821
▁verses	821
ci	820
▁internet	820
▁enemies	819
▁goal	819
▁lived	819
▁payment	819
amm	818
ashi	817
▁Privacy	817
ices	816
▁final	816
▁output	816
ler	815
ven	815
▁board	815
▁sa	815
Ch	814
ME	814
▁Mess	814
▁Office	814
Sh	813
aki	813
salla	813
▁French	813
▁Jeremiah	813
▁Microsoft	813
▁Step	813
▁automatically	813
▁dedicated	813
DA	812
ye	812
▁cast	812
2,	811
▁India	811
▁Science	811
och	810
▁APC	810
▁Phone	810
▁practice	810
▁regular	810
▁direct	809
IM	808
▁instance	808
▁load	808
▁press	808
▁speaker	808
▁dec	807
▁reward	807
▁[...]	806
▁Way	805
▁reports	804
▁served	804
tain	803
▁Special	803
▁courage	803
▁electric	803
▁gas	803
▁wind	803
}	802
▁Head	802
▁Qur	802
▁Tr	802
▁br	802
▁instead	802
▁maximum	802
▁raised	802
▁won	802
hu	801
ible	801
▁couple	801
▁daughter	801
tern	800
▁Her	800
▁situations	800
pper	799
▁Travel	799
▁active	799
▁transfer	799
ife	798
▁Proverbs	798
▁Set	798
▁ar	798
▁bitcoin	798
▁clearly	798
▁phones	798
izer	797
▁Super	797
▁determined	797
▁followed	797
▁marketing	797
▁options	797
41	796
▁+0000	796
▁affect	796
▁sk	796
ester	795
ook	795
▁customized	795
▁famous	795
▁path	795
▁throughout	795
▁cities	794
▁educational	794
▁150	793
▁Would	793
▁bank	793
▁inf	793
ously	792
▁decisions	792
iver	791
▁Dec	791
▁bread	791
▁industrial	791
▁Bank	790
â	789
é	789
▁7.	789
▁def	789
▁favor	789
▁write	789
▁10:	788
▁Take	788
▁accepted	788
▁fight	788
▁store	788
▁host	787
▁official	787
▁pipe	787
▁selection	787
▁earlier	786
▁film	786
▁justice	786
▁sexual	786
RO	785
▁400	785
awa	783
▁Mal	783
▁Tile	783
▁inter	783
▁returned	783
▁Jacob	782
▁Pictures	782
▁quite	782
▁wear	782
▁gl	781
AP	780
▁Mesh	780
▁vital	780
ces	779
▁CE	778
▁noise	778
▁credit	777
▁micro	777
▁presence	777
▁America	776
ency	775
▁mainly	775
▁Line	774
▁Samuel	774
500	773
▁Bel	773
▁Hy	773
▁idea	773
▁reduce	773
],	772
▁studies	772
▁actions	771
▁beyond	771
▁testing	771
ml	770
▁Department	770
▁scientific	770
St	769
iness	769
▁European	769
▁base	769
▁tube	769
▁ST	768
▁Where	768
▁basins	768
▁party	768
▁privilege	768
▁responsibility	768
4,	767
ss	767
▁che	767
▁regard	767
▁helping	766
ining	765
▁Security	765
▁providing	765
▁Look	764
▁happiness	764
▁pure	764
ood	763
umb	763
▁attend	763
▁comp	763
▁ground	763
▁killed	763
▁sens	763
▁thoughts	763
▁welcome	763
▁Ac	762
▁Sa	762
▁practical	762
▁described	761
▁48	760
▁Real	760
▁advice	760
▁lines	760
▁names	760
▁Hebrew	759
▁Limited	759
▁Only	759
▁delivery	759
▁salvation	758
▁script	758
top	757
▁Islam	757
▁Professional	757
▁luxury	757
▁seeking	757
ards	756
ر	756
▁Asia	756
▁German	755
▁storage	755
It	754
▁largest	754
▁trials	754
▁explained	753
▁super	753
▁feature	752
▁inside	752
▁ransom	752
...]	751
ators	751
▁arrived	750
▁difference	750
▁limited	750
▁round	750
-6	749
▁Education	748
ord	746
▁DVD	746
▁strengthen	746
cept	745
▁Hand	745
▁Imam	745
▁PDP	745
▁opening	745
ali	744
uring	744
▁Hebrews	744
▁Ok	744
▁Panel	744
▁contains	744
▁discuss	744
ja	743
®	743
▁bottle	743
▁installation	743
/20	742
▁(2)	742
▁Turkey	742
IR	741
ently	741
▁Court	741
▁Submit	741
ched	740
▁College	740
▁pr	740
▁released	740
:30	739
▁Packaging	739
▁appear	739
▁leg	739
▁location	739
son	738
▁cell	738
▁preach	738
▁War	737
▁terms	737
CO	736
▁creative	736
▁link	736
▁sale	736
yn	735
▁10.	735
▁Gold	734
▁charge	734
▁mouth	734
▁·	734
▁BE	733
▁Body	733
▁Mer	733
▁allowed	733
▁imp	733
▁square	733
ably	732
▁Part	732
▁ac	732
▁cart	732
-4	731
ola	731
▁AM	731
▁Cr	731
▁Creator	731
▁Russia	731
▁items	731
IG	730
▁AD	730
▁Key	730
▁communication	730
▁running	730
▁shared	730
▁Ass	729
▁Spanish	729
▁methods	729
▁port	729
An	728
▁Blue	728
▁Eve	728
▁acts	728
▁promises	728
▁showing	728
▁Decoration	727
▁Research	727
▁decided	727
▁ed	727
▁Another	726
▁West	726
▁ahead	726
atic	725
oe	725
▁eye	725
▁images	725
▁recent	725
▁spread	725
ability	724
ond	724
▁Mo	724
▁applied	724
▁betting	724
▁mode	724
▁thousands	724
▁prepared	723
ced	722
▁(20	722
▁(3	722
▁Questions	721
▁Watchtower	721
.0	720
eth	720
▁Jan	720
GB	719
rol	719
▁break	719
▁filled	719
▁nature	719
▁particular	719
ny	718
▁casinos	718
▁garden	718
▁server	718
▁vision	718
▁3,	717
▁Paris	717
▁expect	717
mail	716
ound	716
▁Japanese	716
▁late	716
OD	715
▁55	715
ino	714
▁Screen	714
▁morning	714
ils	713
uc	713
▁6:	713
▁Comm	713
▁List	713
eness	712
▁Clear	712
▁Sur	712
▁baby	712
▁flow	712
▁granite	712
▁kings	712
ides	710
▁Land	710
▁goes	710
▁tells	710
▁yourselves	710
.>	709
ening	709
▁carried	709
▁Prov	708
▁influence	708
▁tinnitus	708
▁FREE	707
▁groups	707
▁12:	706
▁resources	706
▁workers	706
▁9:	705
▁Bab	705
▁ga	705
▁plugin	705
▁AN	704
▁Abu	704
▁potential	704
/?	703
back	703
▁Site	703
▁exchange	703
▁responsible	703
▁setting	703
OM	702
xbet	702
▁signs	702
▁Origin	701
▁Still	701
ular	700
▁con	700
▁cyan	700
▁perform	700
arn	699
ev	698
zz	698
▁Information	698
▁Prom	698
▁ideas	698
▁minister	698
own	697
▁Radio	697
▁Tool	697
▁fruit	697
based	696
ima	695
▁brings	695
▁cor	695
▁drop	695
▁worked	695
gu	694
ury	694
▁believed	694
▁billion	694
▁church	694
▁View	693
HO	692
ving	692
▁traditional	692
proof	691
▁Comp	691
▁join	691
▁Ak	690
▁produced	690
▁Road	689
▁appropriate	689
▁clients	689
▁proper	689
ball	688
▁Canada	688
▁Moreover	688
▁advantage	688
▁warning	688
pp	687
▁Club	687
▁Full	687
▁increased	687
▁pool	687
▁sand	687
sion	686
▁FX	686
▁Trading	686
▁spoken	686
▁station	686
aya	685
day	685
ica	685
rad	685
▁Rem	685
▁percent	685
urn	684
▁Gen	684
▁cryptocurrency	684
▁founded	684
▁reflect	684
val	683
▁Val	683
.’	682
house	682
illing	682
▁calls	682
▁financial	682
-10	681
ca	681
▁7:	681
▁Application	681
▁Per	681
▁Rel	681
▁USA	681
▁des	681
▁formats	681
▁pur	681
ows	680
▁Da	680
▁Through	680
▁bag	680
▁conversion	680
-20	679
..	679
▁Australia	679
▁seem	679
="2.	678
board	678
▁Saturday	678
▁leader	678
▁president	678
▁tree	678
!!	677
ERS	677
▁Babylon	677
▁Samsung	677
▁dev	677
▁greatest	677
="1.	676
▁Well	676
▁articles	676
▁comments	676
▁Type	675
▁convert	675
ami	674
▁Istanbul	674
▁domain	674
▁girl	674
hip	673
ishing	673
sk	673
ural	673
▁impact	673
place	672
ب	672
▁Ministry	671
▁pe	671
▁progress	671
ification	670
▁Paradise	670
▁chief	670
▁sm	670
ope	669
▁Disc	669
▁Matt	669
▁expression	669
▁risk	669
oon	668
▁announced	668
▁court	668
▁8.	667
▁behalf	667
▁fun	667
elling	666
▁Prof	666
▁Table	666
▁drink	666
▁ta	666
ending	665
mb	665
▁chosen	665
▁stra	665
rent	664
▁2011	664
▁Market	664
▁Add	663
▁Lagos	663
▁aw	663
▁concern	663
▁foot	663
ights	662
▁Others	662
▁Phil	662
▁True	662
▁imperfect	662
PC	661
ping	661
que	661
▁--	661
▁Tape	661
▁becoming	661
TA	660
▁Jer	660
▁fund	660
▁precious	660
▁120	659
▁Genesis	659
▁Watch	659
▁immediately	659
itt	658
omb	658
ل	658
▁elderly	658
▁feet	658
▁mass	658
▁mild	658
▁town	658
▁unc	658
▁aluminum	656
▁challenge	656
▁interested	656
▁season	656
▁Each	655
▁bless	655
▁concerning	655
▁prophets	655
▁tried	655
▁baptism	654
▁goals	654
light	653
▁13,	653
▁Size	653
▁wh	653
OP	652
ata	652
lo	652
▁Dubai	652
▁disc	652
▁laws	652
▁lo	652
▁Pharaoh	651
▁universities	651
ano	650
aries	650
▁Jewish	650
▁opportunities	650
▁programs	650
▁sometimes	650
▁wives	650
ams	649
ا	649
▁Any	649
▁Ben	649
▁deeds	649
▁exc	649
▁fat	649
▁guaranteed	649
▁myself	649
▁reached	649
▁regularly	649
▁Private	648
▁accurate	648
▁achieve	648
SS	647
TC	647
▁Brand	647
▁ins	647
▁millions	647
▁useful	647
▁Des	646
▁copy	646
▁entered	646
▁happen	646
▁listening	646
▁volume	646
ids	645
▁11:	645
▁expected	645
▁lay	645
▁levels	645
ills	644
▁Year	644
▁im	644
▁manifest	644
▁spend	644
▁surely	644
▁writing	644
quality	643
▁Bi	643
▁Ste	643
▁remove	643
You	642
▁AB	642
▁adjust	642
▁capital	642
▁congregations	642
▁express	642
ones	641
▁London	641
▁heavy	641
▁successful	641
87	640
UB	640
leadership	640
▁Colorful	640
▁Ke	640
▁Vanity	640
▁picture	640
▁Arabic	639
ined	638
▁00	638
▁65	638
▁Ind	638
▁Na	638
▁Search	638
▁appearance	638
▁godly	638
▁	638
ater	637
ges	637
▁Double	637
▁appreciation	637
▁fulfilled	637
▁trying	637
ically	636
▁bed	636
▁bit	636
▁reliable	636
ule	635
▁Hence	635
▁Joshua	635
▁Management	635
▁Master	635
▁destruction	635
▁earthly	635
▁moment	635
▁wine	635
9001	634
▁note	634
▁par	634
▁Was	633
▁pioneer	633
▁proved	633
EST	632
aces	632
ended	632
ved	632
▁Software	632
▁damage	632
▁meters	632
▁mixed	632
▁select	632
iving	631
▁Different	631
▁Training	631
▁forget	631
▁trade	631
▁BMW	630
▁HD	630
▁Max	630
▁Str	630
▁probably	630
▁AL	629
▁York	629
▁branch	629
▁delivered	628
▁psalmist	628
▁sharing	628
▁walking	628
▁Digital	627
▁Global	627
....	626
any	626
▁42	626
▁Men	626
▁attack	626
▁TH	625
▁seed	625
▁stage	625
▁windows	625
race	624
ney	623
▁Grand	623
▁animals	623
▁cross	623
▁flight	623
▁handle	623
ta	622
▁Visit	622
▁brain	622
▁SH	621
▁art	621
▁essential	621
▁knowing	621
23	620
▁Fire	620
▁Food	620
▁Pouch	620
▁Vol	620
▁appreciate	620
▁circuit	620
▁evening	620
▁roll	620
▁sheet	620
ender	619
oto	619
▁Looking	619
▁cold	619
▁desires	619
▁exercise	619
▁patient	619
▁supports	619
OT	618
port	618
▁Gr	618
▁Tem	618
▁manufacturers	618
▁occasion	618
▁punishment	618
AH	617
ands	617
aster	617
jo	617
tic	617
▁8:	617
▁Sw	617
▁cooperation	617
▁judge	617
▁saved	617
▁39	616
▁fish	616
▁plate	616
ə	615
▁Ali	615
▁Long	615
▁Number	615
▁Ol	615
▁maintenance	615
▁political	615
box	614
▁aware	614
▁gar	614
▁guarantee	614
▁int	614
▁log	614
▁seconds	614
▁Remember	613
▁additional	613
▁standing	613
▁Card	612
▁Sk	612
▁thank	612
ues	611
▁Glass	611
▁Spe	611
▁master	611
ull	610
▁75	610
▁Pr	610
▁engineering	610
▁secure	610
▁tribulation	610
itable	609
▁Muslims	609
▁completed	609
▁formed	609
▁trial	609
VER	608
set	608
▁Del	608
▁families	608
▁principle	608
ster	607
▁250	607
▁Government	607
▁OEM	607
▁kill	607
▁lamp	607
▁paid	607
▁quick	607
96	606
▁44	606
▁CNC	606
▁Music	606
▁suffer	606
▁tape	606
PS	605
▁African	605
▁Ka	605
▁band	605
rain	604
▁Gospel	604
▁Island	604
▁cam	604
▁foretold	604
▁Pol	603
▁challenges	603
▁su	603
ather	602
fa	602
hel	602
▁End	602
▁Pay	602
▁Player	602
▁encourage	602
▁pm	602
▁skills	602
▁thanks	602
▁wish	602
ature	601
▁Cal	601
▁Inter	601
▁Using	601
▁recently	601
▁tw	601
AB	600
ding	600
▁Color	600
▁Old	600
▁Share	600
▁beg	600
▁generation	600
▁Live	599
▁Rights	599
▁SP	599
▁economic	599
CC	598
eh	598
▁commercial	598
▁importance	598
▁multi	598
▁realize	598
cent	597
ux	597
▁Advisor	597
▁Mel	597
▁crowd	597
TER	596
iles	596
ı	596
▁Robot	596
▁Roman	596
▁Sale	596
▁capt	596
cher	595
▁Exact	595
▁Tour	595
▁answers	595
▁declared	595
▁fabric	595
▁teachers	595
▁Leave	594
▁Room	594
▁Ukrainian	594
abb	593
ising	593
▁Control	593
▁GPS	593
▁Net	593
▁endure	593
▁expressed	593
▁prayed	593
▁teachings	593
ason	592
only	592
▁GB	592
▁football	592
▁ref	592
ili	591
▁Friday	591
▁Learn	591
▁Minister	591
▁becomes	591
▁hack	591
▁wood	591
▁AS	590
▁lower	590
▁filter	589
▁optical	589
▁phrase	589
AY	588
ivity	588
▁2000	588
▁apart	588
▁compassion	588
▁engine	588
▁keeping	588
▁seems	588
▁significant	588
AG	587
▁Once	587
▁option	587
aring	586
ique	586
ography	586
ward	586
▁II	586
▁discern	586
▁em	586
▁fathers	586
▁inner	586
▁military	586
▁solar	586
▁mountain	585
▁race	585
▁sample	585
ave	584
▁Pe	584
▁Public	584
▁Study	584
▁despite	584
▁interests	584
▁treat	584
76	583
Th	583
ita	583
lin	583
▁(19	583
▁Att	583
▁exterior	583
▁minimum	583
rew	582
▁Ay	582
▁Baby	582
▁committed	582
▁gods	582
▁newsletter	582
▁sacred	582
CE	581
Juz	581
UM	581
ho	581
ih	581
▁Tim	581
▁Welcome	581
▁contrast	581
▁electronic	581
▁solid	581
▁Hong	580
▁iPad	580
▁react	580
▁whoever	580
AK	579
ger	579
ief	579
ination	579
▁AP	579
▁culture	579
▁finally	579
/5	578
ching	578
eral	578
ression	578
~	578
▁Care	578
▁Er	578
▁Say	578
▁TR	578
▁ant	578
▁asking	578
▁blind	578
▁destroyed	578
▁harm	578
▁humble	578
MS	577
▁Features	577
▁Met	577
▁Wh	577
▁forg	577
▁gu	577
▁priests	577
▁unit	577
This	576
ran	576
rat	576
▁Ha	576
▁Young	576
▁freedom	576
79	575
="3.	575
▁Jonathan	575
▁Marmaris	575
▁NEW	575
▁dist	575
▁lose	575
▁responded	575
▁2009	574
▁Board	574
▁although	574
▁angel	574
▁elder	574
▁harmony	574
▁injection	574
▁pack	574
▁packing	574
▁promote	574
▁requires	574
di	573
ese	573
itter	573
▁1000	573
);	572
▁Series	572
▁fulfillment	572
▁highest	572
▁prepare	572
7,	571
tra	571
▁Building	571
▁ID	571
▁ass	571
▁priest	571
▁Students	570
▁Sunday	570
▁alive	570
▁appeared	570
▁compared	570
▁error	570
▁gone	570
USD	569
iled	569
uki	569
za	569
▁Development	569
▁Galaxy	569
▁bottom	569
▁cent	569
▁illustration	569
▁unity	569
aka	568
▁Opt	568
▁proof	568
▁tax	568
SA	567
right	567
ulation	567
▁ON	567
▁River	567
▁distance	567
▁presented	567
▁res	567
aled	566
mit	566
pr	566
▁Airport	566
▁efficiency	566
▁gifts	566
▁manner	566
▁te	566
▁tem	566
And	565
alt	565
uri	565
▁Family	565
▁background	565
▁offspring	565
rap	564
▁Lamp	564
▁sell	564
ida	563
reg	563
▁Speaker	563
▁causes	563
▁measure	563
ners	562
ump	562
▁Bal	562
▁Shin	562
▁approved	562
▁ears	562
▁primary	562
▁science	562
▁sit	562
▁status	562
CoV	561
uh	561
▁PRO	561
▁balance	561
▁boy	561
▁forms	561
▁iron	561
inc	560
urb	560
▁Jeh	560
▁PAGE	560
▁Perfect	560
ient	559
illa	559
▁14:	559
▁iOS	559
▁installed	559
▁menu	559
▁supported	559
arin	558
▁Memorial	558
▁Removal	558
▁welding	558
alted	557
▁Bethel	557
▁Lev	557
▁soft	557
SP	556
ko	556
▁Association	556
▁Flight	556
▁Should	556
▁cloud	556
amb	555
king	555
▁Anti	555
▁Fil	555
▁Sign	555
▁comment	555
▁secret	555
▁websites	555
cc	554
▁Six	554
▁Smart	554
▁lack	554
▁purchase	554
▁Kano	553
▁Newspaper	553
ign	552
▁correct	552
▁currently	552
▁edge	552
▁notice	552
▁seeing	552
▁spot	552
:21	551
[	551
abi	551
ility	551
▁Call	551
▁EUR	551
▁analysis	551
do	550
enn	550
ew	550
▁playing	550
▁youth	550
oms	549
▁Children	549
▁Det	549
▁Med	549
▁Paper	549
▁SA	549
▁components	549
▁hotel	549
▁models	549
▁tips	549
▁Install	548
▁Legit	548
▁Services	548
▁associated	548
▁carbon	548
▁Central	547
▁Elijah	547
▁Federal	547
▁Ta	547
▁noted	547
▁silver	547
▁Amazon	546
▁Republic	546
aking	545
une	545
▁Server	545
▁Similarly	545
▁complex	545
▁roof	545
▁settings	545
▁chance	544
▁chemical	544
▁forgive	544
▁meant	544
▁rise	544
▁towards	544
5)	543
89	543
▁9.	543
▁Ins	543
▁SONGS	543
▁humility	543
▁studying	543
ingly	542
ways	542
▁frame	542
▁po	542
▁pol	542
▁require	542
▁spent	542
▁Messiah	541
▁Though	541
▁User	541
▁Wood	541
▁explains	541
▁forgiveness	541
▁la	541
▁rubber	541
AND	540
ax	540
book	540
▁Tor	540
▁advance	540
▁min	540
▁CS	539
▁Check	539
▁Project	539
▁conscience	539
▁frequency	539
▁limit	539
▁sacrifices	539
▁section	539
▁warm	539
like	538
read	538
uff	538
uses	538
▁Lot	538
▁guard	538
▁sort	538
▁unbelie	538
ee	537
▁Dev	537
▁printing	537
▁reveal	537
▁severe	537
imas	536
و	536
▁Ca	536
▁Hon	536
▁battle	536
▁companions	536
▁doesn	536
▁orders	536
▁schools	536
▁stock	536
-15	535
▁Telegram	535
▁Thanks	535
▁feed	535
ount	534
▁Second	534
▁mate	534
▁middle	534
▁pleasure	534
▁sn	534
hem	533
lem	533
oke	533
▁Ps	533
▁Walk	533
▁recognize	533
:22	532
ually	532
▁PS	532
▁gathered	532
▁recognized	532
▁rejoice	532
hot	531
key	531
rate	531
▁Select	531
▁Tips	531
▁destroy	531
▁operating	531
fl	530
orm	530
▁Aaron	530
▁Win	530
▁beauty	530
▁referred	530
▁specialized	530
▁superior	530
ired	529
▁Floor	529
▁divided	529
▁extra	529
▁fields	529
▁growing	529
li	528
pon	528
▁Its	528
▁administration	528
ENT	527
xy	527
▁Website	527
▁enables	527
▁remained	527
-7	526
da	526
ene	526
▁Faith	526
▁policy	526
inger	525
▁Bu	525
▁observe	525
▁reasonable	525
".	524
€	524
▁Isaac	524
▁Od	524
▁Sea	524
▁affected	524
▁buildings	524
▁fore	524
▁negative	524
▁translated	524
55	523
▁13:	523
▁Foundation	523
▁Inn	523
▁Rome	523
▁explain	523
▁failed	523
▁feeling	523
ational	522
play	522
va	522
▁answered	522
▁deafness	522
▁faced	522
▁functions	522
▁reference	522
▁track	522
▁Money	521
▁channel	521
▁greatly	521
▁huge	521
▁lighting	521
▁particularly	521
▁personally	521
▁rep	521
▁signal	521
▁wonder	521
ieve	520
low	520
pet	520
unk	520
▁Earth	520
▁arrangement	520
itor	519
▁Later	519
▁costs	519
▁empty	519
▁factors	519
▁match	519
▁pattern	519
▁traffic	519
▁Monday	518
▁belong	518
▁moving	518
▁sanct	518
ACK	517
amin	517
leg	517
wordpress	517
▁personality	517
▁possess	517
▁recommended	517
▁zeal	517
with	516
▁PVC	516
▁closer	516
▁eight	516
▁god	516
▁tested	516
▁worshippers	516
inder	515
izes	515
▁Aluminum	515
▁Nigerians	515
▁PL	515
▁Right	515
▁persons	515
:23	514
anna	514
▁Certificate	514
▁Multi	514
▁Sand	514
▁bond	514
▁carefully	514
▁convenient	514
▁outdoor	514
-12	513
cho	513
▁Delivery	513
▁journey	513
▁supp	513
74	512
yst	512
▁41	512
▁MCD	512
▁Ts	512
▁commanded	512
▁director	512
▁photo	512
cial	511
ological	511
wo	511
▁Ge	511
▁annual	511
▁army	511
OB	510
iling	510
uss	510
▁Material	510
▁delight	510
▁fit	510
▁lesson	510
",	509
ask	509
▁Happy	509
▁Kitchen	509
▁Trans	509
▁instructions	509
DE	508
inter	508
itive	508
▁Reserved	508
▁fill	508
▁houses	508
▁ill	508
▁nearly	508
▁previous	508
2019	507
WA	507
ality	507
▁Cloud	507
▁DMCA	507
▁assembly	507
▁ca	507
▁confident	507
▁numbers	507
▁property	507
era	506
▁Poly	506
▁judgments	506
▁partner	506
▁sold	506
ij	505
ior	505
ork	505
▁Assembly	505
▁Hadith	505
▁Women	505
▁approval	505
▁ste	505
BA	504
inn	504
oz	504
▁4,	504
▁drug	504
▁grand	504
▁unlimited	504
una	503
د	503
▁Has	503
▁Low	503
▁accomplish	503
▁anger	503
▁bearing	503
▁cards	503
▁flock	503
▁valve	503
▁col	502
▁degrees	502
▁encouragement	502
▁invited	502
▁separate	502
▁stones	502
▁urged	502
SC	501
What	501
ifying	501
▁stable	501
▁traveling	501
cm	500
gun	500
ti	500
▁600	500
▁Acc	500
▁Party	500
▁aspects	500
▁bright	500
▁iTunes	500
▁195	499
▁Big	499
▁Station	499
▁continues	499
▁dust	499
▁hotels	499
▁receiving	499
:26	498
He	498
oid	498
▁Holm	498
▁el	498
▁encouraged	498
▁successfully	498
▁tab	498
aph	497
ever	497
▁Muslim	497
▁enc	497
ops	496
uter	496
▁Auto	496
▁Press	496
▁demand	496
▁existence	496
▁household	496
▁looked	496
▁requirement	496
▁$1	495
▁Cook	495
▁RE	495
▁amazing	495
▁id	495
▁Bluetooth	494
▁Moscow	494
▁Tag	494
▁Whether	494
▁agree	494
▁generally	494
▁publications	494
ISO	493
▁Audio	493
▁Sub	493
▁refers	493
▁values	493
Contact	492
cious	492
eds	492
hips	492
utor	492
▁(3)	492
▁Official	492
▁association	492
▁confirmed	492
▁views	492
▁Ann	491
▁Mor	491
▁cultivate	491
▁letters	491
▁midst	491
▁possession	491
IK	490
aba	490
ony	490
▁***	490
▁Guide	490
▁Hard	490
▁Policies	490
▁assignment	490
ikes	489
ups	489
▁Bags	489
▁Mod	489
▁Ray	489
▁certification	489
▁pictures	489
▁rock	489
▁smooth	489
▁sol	489
▁starting	489
78	488
?"	488
cy	488
head	488
ool	488
ten	488
▁Industrial	488
▁Union	488
▁dollar	488
▁ren	488
▁smart	488
▁transmission	488
gy	487
raw	487
▁Games	487
▁Golden	487
▁cons	487
▁recovery	487
="4.	486
term	486
▁Lo	486
▁Mach	486
▁claim	486
▁currency	486
▁experiences	486
iff	485
pos	485
▁Electric	485
▁ent	485
▁helpful	485
▁paradise	485
▁slot	485
▁straight	485
EP	484
▁Despite	484
▁critical	484
▁messages	484
▁practices	484
▁shipping	484
ject	483
nd	483
rop	483
užpakalio	483
▁Italian	483
▁border	483
▁cup	483
▁graibymas	483
▁resist	483
9,	482
DP	482
▁Hu	482
▁Login	482
▁Rom	482
▁outstanding	482
▁remote	482
▁speakers	482
PL	481
resh	481
ن	481
▁YOU	481
▁blockchain	481
▁hundred	481
▁mission	481
▁mon	481
▁remains	481
▁sleep	481
▁sovereignty	481
adi	480
asy	480
ku	480
▁(6	480
▁Find	480
▁Hol	480
▁society	480
SE	479
ori	479
▁CL	479
▁Cop	479
▁Garden	479
▁imm	479
▁manager	479
▁package	479
▁virus	479
▁visited	479
▁Buy	478
▁Chief	478
▁Cont	478
▁District	478
▁Ig	478
▁Lights	478
▁Manifesto	478
▁Transfer	478
▁block	478
▁population	478
▁wash	478
down	477
ech	477
ises	477
▁(10	477
▁ARE	477
▁Could	477
▁Motor	477
▁Network	477
▁adults	477
▁friendly	477
▁precision	477
▁strategy	477
▁wealth	477
OK	476
ache	476
aging	476
hood	476
▁15:	476
▁AT	476
▁Brazil	476
▁core	476
▁external	476
▁fol	476
▁profile	476
OV	475
ret	475
▁16:	475
▁Ga	475
▁USB	475
▁animal	475
▁categories	475
▁lessons	475
▁sing	475
▁stars	475
▁strive	475
If	474
app	474
ey	474
han	474
sp	474
▁Never	474
▁fa	474
▁fixed	474
▁song	474
LO	473
ration	473
▁17:	473
▁Jet	473
▁Jiji	473
▁Society	473
▁Tower	473
▁assist	473
▁granted	473
▁obedience	473
▁rooms	473
▁switch	473
▁trouble	473
CS	472
IV	472
▁Fat	472
▁Oper	472
▁Ram	472
▁Shop	472
▁burn	472
▁demonstrate	472
▁examine	472
▁packaging	472
mg	471
▁Middle	471
▁mold	471
▁tests	471
="0.	470
ances	470
aps	470
ini	470
yo	470
▁Hotels	470
▁Packing	470
▁Sports	470
▁cells	470
▁fail	470
▁opposition	470
str	469
▁43	469
▁Easy	469
▁Fast	469
▁Report	469
▁Save	469
▁gather	469
▁glor	469
▁shape	469
▁stress	469
Page	468
RA	468
akes	468
ft	468
ider	468
×	468
▁(12	468
▁Grammar	468
▁Palace	468
▁connect	468
▁repent	468
HE	467
▁Ib	467
▁Kaduna	467
▁Thank	467
▁mid	467
▁update	467
▁valuable	467
ILL	466
ames	466
arl	466
oll	466
▁Outdoor	466
▁Witness	466
▁closed	466
▁devotion	466
▁discreet	466
▁institutions	466
▁involves	466
▁loves	466
▁overcome	466
▁shepherd	466
▁thickness	466
▁worshi	466
??	465
alle	465
aving	465
bar	465
iki	465
pect	465
▁Naij	465
▁Pipe	465
▁hospital	465
▁lord	465
▁waiting	465
▁°	465
▁Side	464
▁Trust	464
▁equipped	464
▁height	464
▁hourly	464
ould	463
yan	463
▁Catholic	463
▁Help	463
▁PM	463
▁academic	463
▁deeply	463
edi	462
irt	462
▁Nov	462
▁Pat	462
▁fulfill	462
▁talking	462
600	461
NA	461
▁EX	461
▁bow	461
▁map	461
/10	460
TM	460
Total	460
▁aside	460
▁cm	460
▁female	460
▁industries	460
▁persecution	460
▁piece	460
MT	459
ouse	459
▁Dildo	459
▁Perhaps	459
▁Pray	459
▁sets	459
▁suppliers	459
▁Give	458
▁arm	458
▁attended	458
▁mat	458
▁mental	458
▁mesh	458
▁occur	458
▁colors	457
▁constantly	457
▁developing	457
▁disciple	457
▁fo	457
▁speaks	457
ESS	456
after	456
▁Carbon	456
▁dedication	456
▁documents	456
▁genuine	456
▁joint	456
▁raise	456
▁teacher	456
▁~	456
%.	455
not	455
side	455
▁Fiber	455
▁HGH	455
▁Thursday	455
▁Wr	455
▁lands	455
▁mus	455
acher	454
oor	454
▁Bonus	454
▁Camp	454
▁Ver	454
▁jet	454
▁male	454
▁moral	454
▁sle	454
hy	453
▁2008	453
▁46	453
▁Dur	453
▁Plan	453
▁bringing	453
▁cash	453
▁mag	453
▁voltage	453
cing	452
▁Ask	452
▁Mount	452
▁darkness	452
▁instructed	452
▁radio	452
ction	451
ume	451
▁Jun	451
▁Mak	451
▁OFF	451
▁Page	451
▁collect	451
▁enable	451
▁looks	451
▁object	451
▁rules	451
▁subjects	451
IF	450
fection	450
gen	450
ires	450
▁converter	450
▁enemy	450
▁interface	450
▁introduced	450
▁qualified	450
▁sword	450
ati	449
ena	449
▁Emb	449
▁Supplier	449
▁campus	449
▁purposes	449
lex	448
load	448
uch	448
uma	448
unction	448
▁CD	448
▁Mic	448
▁Theology	448
▁browser	448
▁interesting	448
▁medicine	448
-11	447
84	447
ACH	447
olding	447
work	447
▁Arab	447
▁WE	447
▁afraid	447
▁launched	447
▁pleased	447
▁satisfaction	447
92	446
imate	446
kin	446
▁effectively	446
▁fil	446
▁opt	446
▁violence	446
EX	445
bon	445
oral	445
▁foundation	445
▁homes	445
▁inst	445
▁miss	445
▁resurrected	445
▁sick	445
6,	444
icing	444
off	444
uro	444
▁Brother	444
▁Commission	444
▁blue	444
▁commandments	444
▁realized	444
▁relevant	444
ector	443
ract	443
▁Conf	443
▁Jade	443
▁PR	443
▁Small	443
▁Vessel	443
▁conf	443
▁equal	443
▁harvest	443
▁obedient	443
8,	442
obe	442
▁Ash	442
▁Film	442
▁Human	442
▁Place	442
▁Sil	442
▁appears	442
▁bra	442
▁employees	442
:27	441
▁Being	441
▁Exegesis	441
▁Lin	441
▁Pass	441
▁Tw	441
▁ball	441
▁discipline	441
▁mis	441
▁tender	441
▁tribe	441
900	440
ift	440
orship	440
▁Marketing	440
▁affection	440
▁teeth	440
aste	439
cer	439
free	439
ika	439
▁Flood	439
▁neighbor	439
▁proud	439
▁street	439
aming	438
vis	438
▁Anytime	438
▁Apart	438
▁Class	438
▁Gh	438
▁Philipp	438
▁Ty	438
▁central	438
▁displayed	438
▁weather	438
▁►	438
ades	437
lick	437
osh	437
▁03	437
▁08	437
▁47	437
▁PCB	437
▁Par	437
▁Window	437
▁eventually	437
▁pat	437
aching	436
born	436
xx	436
▁Among	436
▁Indicator	436
▁Shi	436
▁comfortable	436
▁imagine	436
▁mark	436
ION	435
achi	435
▁ev	435
▁mar	435
▁replied	435
no	434
ols	434
ream	434
▁19:	434
▁Academy	434
▁Ap	434
▁client	434
▁department	434
▁goods	434
▁obtain	434
▁title	434
oun	433
▁05	433
▁197	433
▁Game	433
▁Laser	433
▁Sm	433
▁hum	433
▁interview	433
▁selling	433
▁●	433
Hz	432
med	432
▁Jul	432
▁Non	432
▁career	432
▁danger	432
▁deb	432
▁healthy	432
▁mountains	432
▁rain	432
▁ver	432
.:	431
▁Chat	431
▁camera	431
▁derivatives	431
▁hosts	431
▁patience	431
▁posts	431
▁reply	431
▁sources	431
▁tor	431
vd	430
▁Frame	430
▁Interior	430
▁Photo	430
▁Single	430
▁Tuesday	430
▁camp	430
▁domestic	430
▁emb	430
▁leather	430
▁ob	430
▁pra	430
▁stick	430
Go	429
How	429
ased	429
astic	429
ided	429
oph	429
ship	429
▁Battery	429
▁DC	429
▁Ethics	429
▁competitive	429
▁easier	429
▁trained	429
▁understood	429
form	428
▁Ref	428
▁Singapore	428
▁characteristics	428
▁drugs	428
▁happens	428
ALL	427
kg	427
▁Articles	427
▁Est	427
▁OR	427
▁Ra	427
▁Version	427
▁WHSR	427
▁consumption	427
,"	426
▁07	426
▁Charter	426
▁Fiqh	426
▁Kit	426
▁Metatrader	426
▁acceptable	426
▁apps	426
▁daughters	426
▁entertainment	426
▁warned	426
▁▪	426
05	425
omi	425
self	425
▁Centre	425
▁Choose	425
▁Industry	425
▁Royal	425
▁Stra	425
▁cry	425
▁mal	425
▁observed	425
▁performed	425
▁star	425
-14	424
arch	424
fit	424
▁PE	424
▁aircraft	424
▁enjoyed	424
▁grateful	424
▁pursue	424
▁putting	424
AF	423
ped	423
▁Cart	423
▁JINGHAO	423
▁Sanya	423
▁conducted	423
▁girls	423
▁issued	423
▁trans	423
ila	422
ora	422
▁5,	422
▁Close	422
▁Ephesians	422
▁Rubber	422
▁concerned	422
▁establish	422
▁honest	422
▁launch	422
▁numerous	422
▁raw	422
DM	421
aling	421
▁06	421
▁Archives	421
▁Logic	421
▁Which	421
▁belongs	421
▁determine	421
▁rel	421
AST	420
asing	420
tt	420
▁20:	420
▁22:	420
▁Committee	420
▁Ky	420
▁Ocean	420
▁reality	420
▁امام	420
atch	419
ison	419
ona	419
pes	419
uan	419
▁Ev	419
▁conversation	419
▁driver	419
▁jobs	419
▁optim	419
▁pieces	419
▁scholars	419
▁tongue	419
ading	418
bu	418
dom	418
iter	418
pro	418
▁FSX	418
▁IC	418
▁Kn	418
▁Log	418
▁Yam	418
▁acid	418
▁broken	418
▁campaign	418
▁increasing	418
▁info	418
ead	417
iest	417
igned	417
ره	417
▁Cam	417
▁Cur	417
▁FR	417
▁Ko	417
▁loyalty	417
▁waters	417
/15	416
].	416
bed	416
ham	416
met	416
▁04	416
▁OS	416
▁Saint	416
▁dark	416
▁fashion	416
▁joined	416
▁police	416
94	415
iri	415
ی	415
▁Fence	415
▁Nevertheless	415
▁Ten	415
▁closely	415
▁convention	415
▁fell	415
▁territory	415
▁updates	415
cks	414
isa	414
ā	414
▁Irfan	414
▁Korea	414
▁Navigation	414
▁Print	414
▁RO	414
▁Speed	414
▁Zh	414
▁calling	414
▁district	414
▁eternal	414
▁trip	414
300	413
eping	413
ring	413
▁Cup	413
▁Fri	413
▁Manufacturers	413
▁Micro	413
▁Pa	413
▁extent	413
▁hit	413
▁initial	413
▁leadership	413
▁lie	413
▁shop	413
GE	412
acks	412
arg	412
▁(9	412
▁Ant	412
▁NY	412
▁Store	412
▁relief	412
For	411
arewasound	411
bi	411
unch	411
▁Cast	411
▁Personal	411
▁Sol	411
▁auto	411
▁drawn	411
▁gro	411
▁valid	411
▁victory	411
ancy	410
itions	410
put	410
uf	410
▁Date	410
▁auditory	410
▁focused	410
▁intelligent	410
▁lies	410
▁prison	410
▁reviews	410
▁sake	410
▁theme	410
ict	409
ott	409
▁Cheap	409
▁Peace	409
▁ordered	409
▁symbol	409
2018	408
▁7,	408
▁Spain	408
▁assigned	408
▁enterprise	408
▁protected	408
▁recommend	408
▁struck	408
▁symptoms	408
▁turning	408
▁عرفان	408
-00	407
ECT	407
▁Jon	407
▁allowing	407
▁covered	407
▁ruling	407
AI	406
LD	406
izz	406
nic	406
▁$2	406
▁Both	406
▁Sarah	406
▁Sy	406
▁exactly	406
▁finish	406
▁gnosis	406
▁literature	406
▁properties	406
▁sil	406
▁spring	406
▁trend	406
▁اخلاق	406
▁های	406
ape	405
iger	405
▁asc	405
▁facilities	405
▁task	405
▁اسلامی	405
▁اندیشه	405
▁حکومت	405
▁خمینی	405
▁شیعه	405
▁فقیه	405
▁قرآنی	405
▁مبانی	405
▁مفاهیم	405
▁ولایت	405
Al	404
phones	404
ulator	404
weet	404
▁Council	404
▁EN	404
▁admon	404
▁canal	404
▁centuries	404
▁forex	404
▁walls	404
▁IM	403
▁Program	403
▁Tokyo	403
▁WorldLingo	403
▁consideration	403
▁electrical	403
▁endurance	403
▁organized	403
▁wordpress	403
ania	402
ower	402
▁1914	402
▁Michael	402
▁beloved	402
▁concept	402
▁pick	402
amed	401
▁Ill	401
▁Pouches	401
▁creatures	401
▁det	401
▁scale	401
▁syn	401
▁truths	401
▁wearing	401
/4	400
fulness	400
▁Bas	400
▁Bless	400
▁Bowl	400
▁Director	400
▁Hum	400
▁Niger	400
▁Pack	400
▁Sin	400
▁expert	400
▁net	400
asting	399
bel	399
▁Fit	399
▁PP	399
▁Tattoos	399
▁Thailand	399
▁Try	399
▁bike	399
IST	398
antly	398
ocks	398
▁50%	398
▁Tattoo	398
▁cool	398
▁diseases	398
▁flat	398
▁hidden	398
▁kn	398
▁machinery	398
▁succeed	398
72	397
oven	397
▁130	397
▁18:	397
▁brands	397
▁characters	397
MA	396
ifier	396
ivers	396
rid	396
tered	396
win	396
▁Autom	396
▁Beh	396
▁Equipment	396
▁Source	396
▁Square	396
▁Wa	396
▁commission	396
▁resistant	396
▁slow	396
▁suffered	396
▁پیامبران	396
:28	395
istic	395
press	395
▁01	395
▁Reg	395
▁club	395
▁courses	395
▁discussed	395
▁efficient	395
▁liquid	395
▁medium	395
▁networks	395
▁peoples	395
▁reveals	395
▁survey	395
▁weak	395
5,	394
81	394
PE	394
bl	394
ends	394
odes	394
ris	394
utes	394
▁Follow	394
▁Manager	394
▁Sch	394
▁advantages	394
▁leads	394
▁leaving	394
▁transg	394
▁unto	394
*,	393
64	393
aza	393
oma	393
▁Lab	393
▁Mass	393
▁Modern	393
▁Suppliers	393
▁Tax	393
▁bat	393
▁centers	393
▁crypto	393
▁disbelie	393
▁existing	393
▁finished	393
▁hundreds	393
▁width	393
01	392
HA	392
▁02	392
▁funds	392
▁independent	392
▁invitation	392
▁wrongdo	392
Do	391
rist	391
▁Area	391
▁Ce	391
▁FAQ	391
▁SARS	391
▁Without	391
/3	390
Ad	390
INE	390
ads	390
har	390
itating	390
▁Euro	390
▁Send	390
▁abroad	390
▁cap	390
▁decide	390
▁doctor	390
▁mosaics	390
▁ser	390
▁sizes	390
inity	389
▁Cou	389
▁Current	389
▁elements	389
▁horn	389
▁praying	389
▁root	389
▁selected	389
▁target	389
▁ve	389
-30	388
anda	388
iko	388
phone	388
vi	388
▁author	388
▁clinical	388
▁collection	388
ories	387
sales	387
word	387
▁Language	387
▁Rock	387
▁assistance	387
▁authorities	387
▁chose	387
▁creating	387
▁fan	387
▁guided	387
▁reputation	387
▁sincere	387
▁throne	387
enge	386
▁(7	386
▁6,	386
▁Oil	386
▁Really	386
▁comm	386
▁memory	386
▁occurred	386
▁sees	386
iced	385
iti	385
owed	385
▁(14	385
▁09	385
▁Bikini	385
▁Bot	385
▁Exchange	385
▁Sample	385
▁Standard	385
▁anytime	385
▁assured	385
▁bus	385
▁careful	385
▁chain	385
▁charging	385
▁diameter	385
▁eating	385
▁extended	385
▁indicated	385
▁refuge	385
▁refused	385
73	384
ht	384
inal	384
las	384
mar	384
mon	384
see	384
▁Lighting	384
▁Sheet	384
▁exist	384
▁goodness	384
▁identify	384
▁institution	384
▁pen	384
▁strengthened	384
▁visitors	384
ken	383
month	383
▁198	383
▁Apr	383
▁Photos	383
▁SO	383
▁Shenzhen	383
▁VPS	383
▁cleaning	383
▁depth	383
▁mill	383
▁neuro	383
▁ph	383
▁planning	383
▁registration	383
-9	382
10.	382
ato	382
fin	382
reat	382
á	382
▁Account	382
▁Bet	382
▁Hel	382
▁Influential	382
▁PDF	382
▁Song	382
▁Tools	382
▁Western	382
▁faster	382
▁repair	382
▁reportedly	382
▁twe	382
ü	381
▁Dan	381
▁Dh	381
▁Ext	381
▁Gaelic	381
▁Jo	381
▁Vill	381
▁Wondershare	381
▁gaming	381
▁treated	381
IES	380
ister	380
ses	380
▁85	380
▁Display	380
▁Engine	380
▁Engineering	380
▁Kan	380
▁League	380
▁Lee	380
▁Os	380
▁biggest	380
▁desc	380
▁didn	380
▁dwell	380
▁lights	380
▁sal	380
▁sim	380
▁yes	380
atory	379
iring	379
ushi	379
▁Pan	379
▁Plus	379
▁Specific	379
▁chairman	379
▁indicate	379
▁inheritance	379
▁none	379
▁transportation	379
93	378
:29	378
ared	378
can	378
itch	378
ressed	378
▁Angel	378
▁Clearly	378
▁Safe	378
▁Trip	378
▁conclusion	378
▁grant	378
▁inhabitants	378
▁layer	378
▁manual	378
▁mix	378
icks	377
uba	377
yelash	377
▁anxiety	377
▁backup	377
▁mention	377
▁provider	377
▁technologies	377
▁teen	377
=5.6.1	376
ament	376
mer	376
▁ISHA	376
▁Spa	376
▁carrying	376
▁environmental	376
▁modest	376
▁provision	376
▁regions	376
▁rejected	376
▁ship	376
82	375
:20	375
▁Archive	375
▁Bul	375
▁corrosion	375
▁onto	375
My	374
ital	374
pcs	374
▁ALL	374
▁Kor	374
▁charter	374
▁countertops	374
▁distribution	374
▁fresh	374
▁mechanical	374
▁north	374
▁rob	374
au	373
bot	373
erial	373
▁(15	373
▁Rev	373
▁husbands	373
▁tiles	373
asts	372
iding	372
ild	372
ogue	372
ö	372
▁Direct	372
▁Having	372
▁Rechargeable	372
▁distress	372
▁investment	372
▁measures	372
▁parent	372
▁paris	372
▁phys	372
▁village	372
▁writer	372
ables	371
earing	371
lean	371
▁Bur	371
▁Vis	371
▁pride	371
▁replace	371
▁stories	371
ATE	370
rade	370
▁800	370
▁Brown	370
▁Kong	370
▁LLC	370
▁Shanghai	370
▁Ur	370
▁considering	370
▁depends	370
▁directed	370
▁dream	370
▁exp	370
▁operations	370
▁played	370
▁saving	370
▁tatto	370
ula	369
▁Guang	369
▁Weight	369
▁analy	369
▁combined	369
▁depart	369
▁drawing	369
71	368
hr	368
ni	368
▁Email	368
▁Heb	368
▁Star	368
▁Youth	368
▁audience	368
▁plane	368
▁stat	368
▁transport	368
hin	367
ius	367
rest	367
uka	367
▁(16	367
▁Hostel	367
▁Tai	367
▁Tur	367
▁blow	367
▁consequences	367
▁contain	367
▁readers	367
▁river	367
▁sinned	367
▁youths	367
Host	366
URE	366
erg	366
illed	366
ova	366
sive	366
▁180	366
▁8,	366
▁Address	366
▁Heated	366
▁Kar	366
▁Ningbo	366
▁Order	366
▁covers	366
▁cycle	366
▁friendship	366
▁instruction	366
▁manage	366
▁markets	366
▁movement	366
▁professionals	366
▁psych	366
▁relatives	366
oles	365
ont	365
rem	365
sibilities	365
▁Az	365
▁Daily	365
▁NO	365
▁Need	365
▁Protection	365
▁Think	365
▁bold	365
▁evident	365
▁keeps	365
▁prop	365
▁sounds	365
▁waste	365
▁waterproof	365
Ex	364
ript	364
sw	364
vent	364
▁(8	364
▁Audi	364
▁Credit	364
▁Jordan	364
▁Mid	364
▁Shipping	364
▁exam	364
▁fitting	364
▁mature	364
▁producing	364
▁tour	364
acc	363
eding	363
▁Int	363
▁NLS	363
▁Pur	363
▁Turkish	363
▁connected	363
▁economy	363
▁federal	363
▁rot	363
83	362
aven	362
ugu	362
wood	362
▁Dem	362
▁Hospital	362
▁Tube	362
▁beliefs	362
▁facts	362
▁idol	362
▁mas	362
▁meal	362
▁miles	362
▁mini	362
▁recover	362
▁refer	362
▁seriously	362
▁stood	362
▁thr	362
▁util	362
mental	361
ough	361
rd	361
uit	361
uts	361
▁30%	361
▁Bott	361
▁Videos	361
▁WP	361
▁advertising	361
▁coronavirus	361
▁earn	361
▁minds	361
▁mosaic	361
▁smartphone	361
▁visiting	361
▁wholesale	361
cking	360
itate	360
▁businesses	360
▁removed	360
▁slots	360
▁transform	360
▁versions	360
0%	359
irst	359
known	359
▁Express	359
▁Toy	359
▁extension	359
▁hurt	359
▁respon	359
▁sought	359
▁testimony	359
▁universe	359
▁upper	359
▁virtual	359
▁wild	359
HS	358
plate	358
po	358
▁Footnote	358
▁HE	358
▁Touch	358
▁busy	358
▁hell	358
▁session	358
▁ا	358
ems	357
ifies	357
ipp	357
ird	357
ت	357
▁Available	357
▁Door	357
▁Quick	357
▁Rep	357
▁Temple	357
▁Wednesday	357
▁Yoga	357
▁bas	357
▁college	357
▁encouraging	357
▁reduced	357
▁registered	357
▁songs	357
▁uptime	357
ases	356
ishes	356
ption	356
▁Chen	356
▁Christmas	356
▁Feb	356
▁Indian	356
▁Join	356
▁Scots	356
▁alloy	356
▁apost	356
▁burning	356
▁factor	356
▁grew	356
▁grown	356
▁insight	356
▁kitchen	356
▁proclaim	356
▁screw	356
▁trees	356
▁{	356
Pro	355
hing	355
lect	355
ried	355
▁10,	355
▁Faculty	355
▁Oct	355
▁Short	355
▁Translation	355
▁Tro	355
▁links	355
▁marry	355
▁plants	355
▁printed	355
▁publishers	355
**	354
:3	354
agawa	354
ager	354
cam	354
eries	354
hesive	354
vert	354
zhou	354
▁21:	354
▁Bec	354
▁Month	354
▁Pot	354
▁Prot	354
▁cher	354
▁creat	354
▁hel	354
▁organizations	354
▁relatively	354
▁shoes	354
▁}	354
IZ	353
Pl	353
crib	353
ences	353
eph	353
▁49	353
▁Gent	353
▁Jack	353
▁Sinks	353
▁altar	353
▁chart	353
▁comprehensive	353
▁convinced	353
▁heads	353
▁improved	353
▁indicates	353
▁rem	353
UK	352
adium	352
lee	352
other	352
▁Finally	352
▁Parts	352
▁associate	352
▁behavior	352
▁behold	352
▁preached	352
▁prophetic	352
▁→	352
EA	351
aha	351
allet	351
iant	351
itis	351
▁Ah	351
▁Explain	351
▁Fun	351
▁Teach	351
▁Unlimited	351
▁di	351
▁fee	351
▁follows	351
▁obtained	351
▁starts	351
▁wheel	351
Air	350
here	350
list	350
ude	350
▁Access	350
▁Generator	350
▁Likewise	350
▁Pent	350
▁Stereo	350
▁angle	350
▁approximately	350
▁extremely	350
▁hon	350
▁innovation	350
▁mining	350
▁nar	350
▁origin	350
▁reign	350
▁viewed	350
▁vs	350
ATION	349
cycle	349
▁0.0	349
▁64	349
▁FG	349
▁Local	349
▁Scripture	349
▁beneficial	349
▁loc	349
▁mot	349
▁overall	349
▁remaining	349
BN	348
add	348
isc	348
rah	348
▁Elect	348
▁Mu	348
▁Sex	348
▁destination	348
▁dog	348
▁enhance	348
▁listed	348
▁nice	348
▁solve	348
▁summer	348
1">	347
400	347
62	347
gl	347
mes	347
tal	347
tech	347
▁**	347
▁Cent	347
▁Fort	347
▁Rot	347
▁Slots	347
▁choosing	347
▁provisions	347
▁represent	347
="2	346
GO	346
ero	346
ively	346
▁(4)	346
▁Counter	346
▁aspect	346
▁detail	346
▁discussion	346
▁expensive	346
▁experts	346
▁fly	346
▁overseers	346
▁prospect	346
▁rates	346
▁sides	346
▁units	346
▁zealous	346
Ar	345
As	345
CL	345
On	345
lu	345
ع	345
▁Governing	345
▁Link	345
▁Xi	345
▁feeding	345
▁generator	345
▁likewise	345
▁owner	345
DC	344
OC	344
aged	344
itting	344
unt	344
▁Ang	344
▁Crypt	344
▁Furthermore	344
▁Roll	344
▁Soon	344
▁Systems	344
▁acted	344
▁compatible	344
▁failure	344
▁fix	344
▁forces	344
▁moon	344
▁twice	344
:10	343
wing	343
▁52	343
▁Amsterdam	343
▁Justice	343
▁Large	343
▁Making	343
▁Muhammadu	343
▁Working	343
▁accomplished	343
▁actual	343
▁alcohol	343
▁cookies	343
▁decades	343
▁describes	343
▁gets	343
▁monitor	343
▁ware	343
omp	342
ords	342
▁Form	342
▁Solutions	342
▁THAT	342
▁THIS	342
▁UN	342
▁database	342
▁dred	342
▁inspection	342
▁internal	342
▁majority	342
▁merciful	342
▁permission	342
▁restore	342
▁ruler	342
▁sitting	342
▁«	342
TF	341
ores	341
▁Almighty	341
▁Ange	341
▁CR	341
▁Pers	341
▁Recovery	341
▁character	341
▁hall	341
▁license	341
▁sealing	341
001	340
UD	340
col	340
▁AR	340
▁CC	340
▁Night	340
▁attacks	340
▁clothing	340
▁description	340
▁humb	340
▁oxygen	340
▁sat	340
▁shed	340
:13	339
war	339
▁(13	339
▁Come	339
▁Point	339
▁cope	339
▁lit	339
▁navigation	339
▁privacy	339
▁shepher	339
▁sinful	339
▁studied	339
ä	338
▁Id	338
▁Inst	338
▁MAN	338
▁Pal	338
▁Publ	338
▁constant	338
▁ma	338
▁partners	338
▁profit	338
▁rely	338
▁servers	338
▁supporting	338
▁translations	338
▁wrath	338
Sp	337
usion	337
▁British	337
▁CEO	337
▁Cable	337
▁Face	337
▁Foot	337
▁Technical	337
▁freely	337
▁fruitage	337
▁phot	337
▁plus	337
▁u	337
/7	336
`	336
aded	336
▁11,	336
▁Apost	336
▁Arewasound	336
▁Automatic	336
▁Golf	336
▁applying	336
▁choices	336
▁fort	336
▁messenger	336
▁translate	336
ASS	335
QL	335
bow	335
cript	335
ilt	335
osis	335
ral	335
▁Besides	335
▁DA	335
▁Ham	335
▁Tru	335
▁bul	335
▁hormone	335
▁mg	335
▁newly	335
▁rid	335
▁symbols	335
▁usage	335
FP	334
Qu	334
aru	334
gr	334
irm	334
tion	334
▁Cons	334
▁bro	334
▁citizens	334
▁fees	334
▁fuel	334
▁instruct	334
▁library	334
▁prior	334
\	333
comment	333
oli	333
▁Coin	333
▁Heart	333
▁WHAT	333
▁WhatsApp	333
▁appointment	333
▁detailed	333
▁lab	333
▁minute	333
▁reaction	333
▁shares	333
="5.	332
TE	332
apter	332
otic	332
ounds	332
ports	332
▁Forum	332
▁Jin	332
▁Kings	332
▁Rain	332
▁Spy	332
▁coating	332
▁commands	332
▁contribute	332
▁messengers	332
MP	331
olution	331
rated	331
umin	331
▁11.	331
▁Netherlands	331
▁bets	331
▁contacts	331
▁faculty	331
▁input	331
▁integrated	331
idity	330
▁Mas	330
▁Ny	330
▁Police	330
▁Process	330
▁capable	330
▁caring	330
▁cars	330
▁concerns	330
▁contract	330
▁depending	330
▁lock	330
▁quarries	330
▁samples	330
▁sinners	330
/09	329
ITE	329
UE	329
ership	329
fer	329
fort	329
mi	329
▁Christianity	329
▁Unit	329
▁concrete	329
▁cooling	329
▁escape	329
▁pot	329
▁reaching	329
▁satisfied	329
CI	328
des	328
xual	328
▁Circ	328
▁Serv	328
▁bought	328
▁continuous	328
▁establishment	328
▁grace	328
▁intended	328
▁serves	328
▁unable	328
▁united	328
-18	327
Ltd	327
YS	327
den	327
tage	327
▁Gra	327
▁Osaka	327
▁Wed	327
▁budget	327
▁duty	327
▁fe	327
▁hardware	327
▁holding	327
IB	326
asa	326
▁2007	326
▁discovered	326
▁editor	326
▁endeav	326
▁missionary	326
▁overseer	326
▁ox	326
▁poverty	326
63	325
Un	325
order	325
ronic	325
tte	325
ه	325
▁66	325
▁Agency	325
▁Australian	325
▁Av	325
▁Bow	325
▁Clean	325
▁Kat	325
▁WH	325
▁adds	325
▁attending	325
▁ban	325
▁begins	325
▁birds	325
▁changing	325
▁deaf	325
▁drinking	325
▁reb	325
▁worthy	325
CD	324
acle	324
▁360	324
▁58	324
▁Edge	324
▁Ep	324
▁Map	324
▁Turn	324
▁anal	324
▁av	324
▁depend	324
▁seemed	324
Bl	323
ado	323
anch	323
aria	323
emi	323
pel	323
▁51	323
▁Pharise	323
▁icon	323
▁tend	323
alk	322
iny	322
lam	322
mp	322
ugh	322
uj	322
▁1.5	322
▁Contin	322
▁Haram	322
▁Rou	322
▁ag	322
▁engage	322
▁finding	322
▁grade	322
▁pornography	322
▁quiet	322
▁warrant	322
(2	321
91	321
sm	321
▁****	321
▁Drop	321
▁Fin	321
▁JH	321
▁Yanzu	321
▁ap	321
▁corner	321
▁larger	321
▁lik	321
▁membrane	321
▁repentance	321
▁souls	321
▁teaches	321
▁val	321
/12	320
GA	320
adan	320
uda	320
ylon	320
َ	320
▁Band	320
▁Bit	320
▁FileCatalyst	320
▁Lead	320
▁Meanwhile	320
▁Nav	320
▁Ret	320
▁Robots	320
▁charged	320
▁export	320
▁inform	320
▁miracul	320
▁undeserved	320
▁vehicle	320
BS	319
To	319
bit	319
cast	319
itors	319
zer	319
▁>>	319
▁Ezekiel	319
▁Museum	319
▁Professor	319
▁Syn	319
▁bodies	319
▁discount	319
▁document	319
▁ple	319
▁relative	319
▁{{	319
ANG	318
aff	318
fecture	318
gh	318
iler	318
mat	318
′′	318
▁Flash	318
▁Jud	318
▁Prop	318
▁adding	318
▁ampl	318
▁bags	318
▁designs	318
▁fac	318
▁fountain	318
▁magazine	318
▁mail	318
▁managed	318
▁properly	318
▁sending	318
▁south	318
TP	317
ble	317
unning	317
uous	317
wer	317
yes	317
▁Cross	317
▁FL	317
▁Fitness	317
▁Grow	317
▁Sciences	317
▁affairs	317
▁aging	317
▁controlled	317
▁historical	317
▁identified	317
▁inch	317
▁iniqu	317
▁manufacture	317
aku	316
ules	316
č	316
▁#1	316
▁196	316
▁Aqu	316
▁Baggage	316
▁California	316
▁Transportation	316
▁election	316
▁ink	316
▁relations	316
▁seat	316
Our	315
olecular	315
▁Corporation	315
▁Cost	315
▁Far	315
▁Hunter	315
▁Self	315
▁Town	315
▁Ul	315
▁entry	315
▁faithfully	315
▁locations	315
▁ought	315
▁powers	315
▁temporary	315
▁unless	315
▁visits	315
uth	314
▁Asian	314
▁Enter	314
▁Exodus	314
▁Jos	314
▁Jude	314
▁aim	314
▁contrary	314
▁essence	314
▁galvanized	314
▁pet	314
▁riches	314
▁selfish	314
▁signed	314
▁strike	314
IAL	313
cs	313
lement	313
tes	313
utai	313
▁Nehemiah	313
▁Ruth	313
▁Times	313
▁bound	313
▁furn	313
▁grain	313
▁pioneers	313
▁vertical	313
:15	312
IGHT	312
tery	312
▁5000	312
▁Aff	312
▁Answer	312
▁Customized	312
▁Tak	312
▁competition	312
▁corporate	312
▁smaller	312
▁witnesses	312
:4	311
err	311
ios	311
jin	311
ulated	311
▁Mill	311
▁SE	311
▁Updated	311
▁bu	311
▁combination	311
▁default	311
▁greet	311
▁records	311
▁stylish	311
graduate	310
▁Bill	310
▁Corporate	310
▁Menu	310
▁Round	310
▁ark	310
▁elev	310
▁familiar	310
▁favorite	310
▁monthly	310
▁processes	310
▁sad	310
▁telling	310
agon	309
▁CAN	309
▁Cana	309
▁Canadian	309
▁Den	309
▁Following	309
▁Found	309
▁Safety	309
▁Spring	309
▁promotion	309
▁residents	309
▁shopping	309
▁stability	309
▁tribes	309
▁turns	309
--	308
ection	308
je	308
perature	308
▁Aid	308
▁CA	308
▁Ever	308
▁Mercedes	308
▁Mis	308
▁SGS	308
▁Sav	308
▁brief	308
▁declare	308
▁departments	308
▁difficulties	308
▁identity	308
▁temptation	308
▁watching	308
eless	307
hers	307
trans	307
▁2018.	307
▁304	307
▁99.	307
▁Books	307
▁Dream	307
▁Energy	307
▁Expl	307
▁Reply	307
▁Trade	307
▁claims	307
▁detect	307
▁introduction	307
▁lasting	307
▁mere	307
▁prophecies	307
▁relationships	307
▁rev	307
▁vol	307
DS	306
apt	306
isting	306
▁Bath	306
▁Compan	306
▁Ecc	306
▁Ek	306
▁Hell	306
▁MB	306
▁Mrs	306
▁Sweden	306
▁acting	306
▁listened	306
▁movies	306
-25	305
ashboard	305
igh	305
onomy	305
rel	305
sen	305
ution	305
xt	305
▁(40	305
▁12.	305
▁Bag	305
▁Boko	305
▁Latest	305
▁Near	305
▁UP	305
▁approached	305
▁dangerous	305
▁heating	305
▁hur	305
▁operate	305
▁winning	305
Allah	304
ERE	304
outs	304
ples	304
print	304
ries	304
▁Dong	304
▁Galvanized	304
▁Iran	304
▁Lux	304
▁Mohammed	304
▁SC	304
▁Tri	304
▁flexible	304
▁heartfelt	304
▁isn	304
▁northern	304
▁resolve	304
RI	303
gers	303
rect	303
speed	303
▁Abubakar	303
▁Sake	303
▁Wide	303
▁enterprises	303
▁ge	303
▁glad	303
▁immorality	303
▁involve	303
▁previously	303
▁stairs	303
HD	302
IVE	302
fly	302
otten	302
▁20,	302
▁Di	302
▁Sens	302
▁abuse	302
▁expressions	302
▁objects	302
▁opinion	302
▁shoulder	302
ellow	301
rum	301
▁72	301
▁Recall	301
▁accuracy	301
▁describe	301
▁drag	301
▁feels	301
▁quoted	301
▁younger	301
IE	300
OG	300
asse	300
cell	300
coin	300
ube	300
▁(5)	300
▁Days	300
▁Lady	300
▁Sep	300
▁cables	300
▁cal	300
▁dating	300
▁gradually	300
▁protective	300
▁scientists	300
▁treasure	300
ORE	299
code	299
ressing	299
rib	299
▁Imagine	299
▁Polish	299
▁Production	299
▁belief	299
▁communicate	299
▁dece	299
▁ends	299
▁machining	299
▁pun	299
▁seal	299
▁slaves	299
Be	298
itude	298
ographic	298
sur	298
▁17,	298
▁56	298
▁Lamb	298
▁Pres	298
▁Slot	298
▁Supply	298
▁cone	298
▁csgo	298
▁dealing	298
▁dig	298
▁doors	298
▁facing	298
▁fair	298
▁innovative	298
▁lots	298
▁moist	298
▁officials	298
▁otherwise	298
▁panels	298
VE	297
ange	297
anic	297
icians	297
roid	297
thood	297
well	297
▁53	297
▁Dep	297
▁Run	297
▁Upon	297
▁compare	297
▁copper	297
▁countertop	297
▁exclusive	297
▁paragraph	297
▁quantity	297
▁rejo	297
▁soldiers	297
▁stopped	297
▁touched	297
▁upload	297
aker	296
obile	296
ota	296
▁15,	296
▁2020,	296
▁Gal	296
▁Hair	296
▁desktop	296
▁driving	296
▁gate	296
▁sur	296
▁tit	296
▁und	296
All	295
GS	295
Sc	295
building	295
gro	295
oly	295
▁Bad	295
▁Cut	295
▁Federation	295
▁George	295
▁Je	295
▁Kind	295
▁Metropolitan	295
▁Tom	295
▁consists	295
▁disp	295
▁dosage	295
▁expand	295
▁monitoring	295
▁paying	295
▁rad	295
ags	294
iance	294
ridge	294
uz	294
▁Aug	294
▁Connect	294
▁Cutting	294
▁Edition	294
▁Location	294
▁Pas	294
▁Rest	294
▁Storage	294
▁Teen	294
▁broke	294
▁decoraiton	294
▁electricity	294
▁emotional	294
▁invite	294
▁leaves	294
▁rose	294
▁ter	294
▁updated	294
Ab	293
ICE	293
ales	293
ancing	293
arer	293
field	293
lessly	293
lock	293
sel	293
▁(17	293
▁10%	293
▁Camera	293
▁Cool	293
▁Mah	293
▁Miss	293
▁Municipality	293
▁audi	293
▁determination	293
▁gained	293
▁governments	293
▁heed	293
▁horse	293
▁meat	293
▁moves	293
▁multitude	293
▁secular	293
▁suit	293
▁tears	293
ildo	292
iven	292
uke	292
uy	292
и	292
▁Anal	292
▁Beth	292
▁Domain	292
▁Less	292
▁Pra	292
▁Works	292
▁agreement	292
▁alt	292
▁angry	292
▁assurance	292
▁corruption	292
▁count	292
▁dollars	292
▁fault	292
▁tile	292
/05	291
aser	291
oler	291
pre	291
rection	291
▁19,	291
▁Computer	291
▁Sat	291
▁Thessalon	291
▁adult	291
▁delay	291
▁evangel	291
▁flooring	291
▁schedule	291
▁stretch	291
▁trusted	291
ctions	290
othe	290
▁0.5	290
▁18,	290
▁Cap	290
▁Create	290
▁Doct	290
▁Jar	290
▁Rew	290
▁disobedi	290
▁ind	290
▁merely	290
▁portion	290
▁tag	290
▁treas	290
Con	289
▁Category	289
▁Iron	289
▁Lu	289
▁Mult	289
▁Popular	289
▁Restaurant	289
▁Switzerland	289
▁attract	289
▁attractive	289
▁earnest	289
▁movie	289
▁specifically	289
02	288
asha	288
ength	288
from	288
level	288
stone	288
▁Dog	288
▁Elisha	288
▁England	288
▁Foreign	288
▁Hat	288
▁Li	288
▁Mad	288
▁flu	288
▁mine	288
▁multimedia	288
▁nine	288
▁pointed	288
▁rub	288
▁vacuum	288
▁vine	288
-2018	287
LT	287
actory	287
arth	287
pm	287
star	287
▁110	287
▁14,	287
▁Author	287
▁Down	287
▁Files	287
▁Materials	287
▁Mot	287
▁PET	287
▁Rose	287
▁SS	287
▁Sound	287
▁arrive	287
▁cand	287
▁covering	287
▁possibility	287
▁pretty	287
▁rail	287
▁widow	287
▁worry	287
builttobrag	286
ns	286
uge	286
▁Bed	286
▁Feed	286
▁Prime	286
▁adapt	286
▁awarded	286
▁extract	286
▁maintaining	286
▁opposite	286
▁phase	286
▁q	286
-16	285
800	285
:1	285
Ba	285
aint	285
arium	285
face	285
ield	285
raft	285
uku	285
▁12,	285
▁2-	285
▁57	285
▁Alex	285
▁Arena	285
▁Kw	285
▁Saudi	285
▁Switch	285
▁Worldwide	285
▁commonly	285
▁employment	285
▁exact	285
▁fin	285
▁print	285
▁woofer	285
:12	284
ashing	284
imi	284
pers	284
wn	284
а	284
▁Czech	284
▁LE	284
▁Phys	284
▁Things	284
▁cat	284
▁certificate	284
▁chapters	284
▁iPod	284
▁infection	284
▁laid	284
▁marked	284
▁meter	284
▁milk	284
▁passing	284
▁roller	284
▁shower	284
▁tons	284
-17	283
ITY	283
atsu	283
ocratic	283
▁Korean	283
▁Regarding	283
▁SEO	283
▁adopted	283
▁ads	283
▁agent	283
▁causing	283
▁gathering	283
▁hide	283
▁reject	283
3">	282
En	282
arter	282
date	282
ela	282
ented	282
ody	282
ourn	282
rypt	282
zy	282
▁Bello	282
▁Convention	282
▁Sometimes	282
▁Text	282
▁alternative	282
▁challenging	282
▁edition	282
▁illustrate	282
▁linked	282
▁password	282
▁rese	282
<	281
EF	281
but	281
irus	281
í	281
▁BR	281
▁Exp	281
▁Isa	281
▁arrival	281
▁beat	281
▁bill	281
▁buying	281
▁exciting	281
▁lying	281
▁prominent	281
▁specialists	281
▁winter	281
gin	280
inst	280
oku	280
▁9,	280
▁Beauty	280
▁Cho	280
▁Congress	280
▁Diagn	280
▁Eph	280
▁Gall	280
▁Pant	280
▁celeb	280
▁engineers	280
▁illness	280
▁mistakes	280
▁notes	280
▁perfectly	280
▁pul	280
▁sills	280
▁tank	280
▁vast	280
▁wilderness	280
▁worse	280
.00	279
58	279
IBLE	279
iche	279
uwa	279
▁190	279
▁95	279
▁BO	279
▁Ball	279
▁Dj	279
▁Ibrahim	279
▁Ry	279
▁Sofia	279
▁descendants	279
▁edit	279
▁figure	279
▁fourth	279
▁screens	279
▁stronger	279
▁walked	279
%,	278
aut	278
case	278
draulic	278
por	278
sey	278
tering	278
ş	278
▁Excell	278
▁HAVE	278
▁Hezekiah	278
▁Knowing	278
▁Pen	278
▁STUD	278
▁Zechariah	278
▁cook	278
▁dw	278
▁element	278
▁exceed	278
▁invisible	278
▁item	278
▁je	278
▁label	278
▁register	278
▁supplies	278
▁surprise	278
SO	277
esome	277
thereum	277
ua	277
url	277
xic	277
▁Course	277
▁Domin	277
▁Fair	277
▁Flow	277
▁Medicine	277
▁Um	277
▁extend	277
▁graduates	277
▁mighty	277
▁reminded	277
▁represented	277
▁ring	277
ergy	276
par	276
rapy	276
▁Om	276
▁Palm	276
▁dilig	276
▁extensive	276
▁gen	276
▁hau	276
▁therapy	276
▁wedding	276
HER	275
LY	275
Web	275
anner	275
best	275
ension	275
erv	275
lying	275
oline	275
oves	275
▁Div	275
▁Gurgaon	275
▁Psych	275
▁compos	275
▁conference	275
▁equivalent	275
▁lovers	275
▁miracles	275
▁mostly	275
▁remarkable	275
▁rewards	275
▁tre	275
░	275
When	274
aga	274
berg	274
hone	274
iction	274
owered	274
urse	274
view	274
▁$10	274
▁DO	274
▁Holid	274
▁Lay	274
▁Notice	274
▁bal	274
▁bonuses	274
▁claimed	274
▁configuration	274
▁dealings	274
▁flood	274
▁herself	274
▁memor	274
▁module	274
▁pairs	274
▁recognition	274
aye	273
dong	273
lyn	273
vy	273
▁1,000	273
▁3-	273
▁Accessories	273
▁Ban	273
▁Deposit	273
▁Gas	273
▁Kos	273
▁MH	273
▁Nik	273
▁Pow	273
▁accessories	273
▁income	273
▁permanent	273
▁platforms	273
▁privileges	273
▁relates	273
▁ty	273
、	273
ORY	272
abs	272
een	272
ees	272
imming	272
ival	272
onts	272
rance	272
ubs	272
▁16,	272
▁BL	272
▁Oh	272
▁Sim	272
▁Very	272
▁WITH	272
▁abilities	272
▁demonstrated	272
▁dredge	272
▁exposed	272
▁lady	272
▁li	272
▁primarily	272
▁ratio	272
▁spr	272
▁washing	272
ava	271
ef	271
oman	271
orative	271
rog	271
ulate	271
wall	271
which	271
▁000	271
▁Administration	271
▁Army	271
▁Borno	271
▁Certification	271
▁Count	271
▁Made	271
▁artificial	271
▁cloth	271
▁concluded	271
▁cra	271
▁entering	271
▁holds	271
▁sector	271
▁shot	271
▁struggle	271
KS	270
Man	270
bn	270
ental	270
ittings	270
rs	270
▁Dar	270
▁EM	270
▁Fab	270
▁Gar	270
▁Mai	270
▁Years	270
▁ast	270
▁island	270
▁ministers	270
▁tables	270
▁Bol	269
▁Had	269
▁arise	269
▁assign	269
▁commit	269
▁definitely	269
▁forced	269
▁handling	269
▁mod	269
▁occurs	269
▁personnel	269
▁premium	269
▁secondary	269
▁streaming	269
▁thick	269
aid	268
lication	268
oney	268
▁1-	268
▁Anna	268
▁Galat	268
▁Sha	268
▁acqu	268
▁cheap	268
▁desired	268
▁fearing	268
▁informed	268
▁loud	268
▁owners	268
▁topics	268
1-	267
aman	267
aneous	267
esh	267
zo	267
م	267
▁BY	267
▁Grey	267
▁Kraft	267
▁Sales	267
▁Truth	267
▁er	267
▁figur	267
▁injustice	267
▁labor	267
▁mu	267
▁purchased	267
▁strict	267
▁universal	267
App	266
cle	266
mas	266
mission	266
ulf	266
ç	266
▁Block	266
▁Lic	266
▁Mexico	266
▁Must	266
▁Range	266
▁Senator	266
▁anim	266
▁applies	266
▁centre	266
▁clamp	266
▁demons	266
▁kindly	266
▁parameters	266
▁pit	266
▁priority	266
▁relax	266
▁therein	266
▁tradition	266
▁tubes	266
China	265
illion	265
onia	265
▁Cand	265
▁Es	265
▁Ot	265
▁Raw	265
▁adultery	265
▁column	265
▁consult	265
▁faces	265
▁researchers	265
▁witnessing	265
:14	264
LC	264
aro	264
ention	264
zu	264
▁(6)	264
▁67	264
▁Char	264
▁Cond	264
▁Cy	264
▁Deep	264
▁Eff	264
▁Fre	264
▁Pos	264
▁Railway	264
▁SSL	264
▁asks	264
▁cyl	264
▁stands	264
▁survive	264
▁tempt	264
▁topic	264
ainted	263
astes	263
br	263
ident	263
oda	263
righteous	263
س	263
▁Construction	263
▁FROM	263
▁Fashion	263
▁Gamb	263
▁Whoever	263
▁Yu	263
▁accused	263
▁achieved	263
▁chest	263
▁converted	263
▁denied	263
▁durable	263
▁har	263
▁impossible	263
▁merch	263
▁mult	263
▁normally	263
▁pair	263
▁plug	263
▁satisfy	263
▁sufficient	263
BR	262
CM	262
UND	262
endom	262
ential	262
iod	262
wh	262
▁Abdul	262
▁Bra	262
▁Case	262
▁Flo	262
▁HOTEL	262
▁Lake	262
▁Northern	262
▁ROM	262
▁Syria	262
▁advers	262
▁agreed	262
▁engaged	262
▁habits	262
▁visual	262
▁yesterday	262
250	261
BC	261
OUR	261
ajj	261
eks	261
iro	261
ming	261
rav	261
▁(18	261
▁Comment	261
▁Gilead	261
▁Mother	261
▁Trump	261
▁abundant	261
▁airport	261
▁banks	261
▁believes	261
▁emergency	261
▁ice	261
▁intense	261
▁marvel	261
▁missing	261
▁prefer	261
▁taste	261
▁visible	261
MO	260
Re	260
Sura	260
Why	260
blog	260
enses	260
gan	260
ims	260
kh	260
obo	260
olf	260
oul	260
uting	260
▁AUD	260
▁Latin	260
▁cares	260
▁diss	260
▁examination	260
▁illustr	260
▁immoral	260
▁infl	260
▁inv	260
▁likes	260
▁rare	260
▁render	260
▁ret	260
▁stores	260
▁surround	260
▁thread	260
Isa	259
ander	259
▁86	259
▁DR	259
▁Mus	259
▁Nic	259
▁SMS	259
▁Wise	259
▁anywhere	259
▁bi	259
▁deals	259
▁ease	259
▁participate	259
▁pleasing	259
▁pract	259
▁storm	259
▁zone	259
1%	258
aches	258
erb	258
oint	258
oshi	258
»	258
▁21,	258
▁54	258
▁ART	258
▁Gift	258
▁Hal	258
▁VPN	258
▁WHO	258
▁accumulated	258
▁institute	258
▁neck	258
▁park	258
▁strengthening	258
▁ut	258
61	257
Ma	257
YA	257
ceptive	257
cision	257
fore	257
hold	257
ju	257
▁Fr	257
▁Sec	257
▁Shar	257
▁Solve	257
▁Supp	257
▁WOR	257
▁airline	257
▁del	257
▁exhib	257
▁glorious	257
▁gradu	257
▁ibn	257
▁occasions	257
:7	256
addy	256
father	256
gest	256
oes	256
▁Based	256
▁Benz	256
▁CN	256
▁absolutely	256
▁abundance	256
▁arms	256
▁assets	256
▁candidate	256
▁dear	256
▁returning	256
▁strictly	256
2">	255
ART	255
ception	255
iet	255
usa	255
van	255
▁Beijing	255
▁Catal	255
▁Flex	255
▁Platform	255
▁Swedish	255
▁Total	255
▁attempt	255
▁convey	255
▁doctors	255
▁flee	255
▁gy	255
▁lifestyle	255
▁losing	255
▁resolution	255
▁submit	255
▁vehicles	255
:9	254
Gu	254
ately	254
ause	254
ayer	254
ford	254
ido	254
ostic	254
ounts	254
▁2017,	254
▁Blockchain	254
▁Dam	254
▁Die	254
▁Metro	254
▁Wil	254
▁differences	254
▁exists	254
▁governors	254
▁mer	254
▁providers	254
▁ran	254
▁wat	254
ahl	253
anger	253
lection	253
rows	253
▁Const	253
▁Flat	253
▁Sheikh	253
▁Sovereign	253
▁Treatment	253
▁abandoned	253
▁accord	253
▁dam	253
▁den	253
▁distributed	253
▁evidently	253
▁limits	253
▁pharmaceutical	253
▁publication	253
▁rank	253
▁significantly	253
▁strip	253
▁suggestions	253
▁sweet	253
▁ye	253
/8	252
ICK	252
dildo	252
hearted	252
imp	252
you	252
▁Delta	252
▁EC	252
▁Financial	252
▁Football	252
▁Pressure	252
▁Welded	252
▁adjustment	252
▁aged	252
▁bars	252
▁crisis	252
▁fighting	252
▁fundamental	252
▁gender	252
▁vessels	252
▁whereas	252
▁willingly	252
/#	251
FR	251
eric	251
giving	251
iba	251
ician	251
inery	251
mast	251
ned	251
rag	251
umbers	251
urs	251
▁14.	251
▁59	251
▁Din	251
▁Whatever	251
▁conflict	251
▁disk	251
▁enabled	251
▁passage	251
▁poker	251
▁salt	251
▁scene	251
▁statistics	251
▁unf	251
GH	250
Ray	250
ication	250
ocal	250
raf	250
ties	250
yd	250
▁Beautiful	250
▁Cour	250
▁Indonesia	250
▁Phot	250
▁Yan	250
▁cancer	250
▁confess	250
▁discover	250
▁presentation	250
▁resulted	250
▁soil	250
▁specified	250
▁ya	250
EE	249
PT	249
achelor	249
law	249
ror	249
▁119	249
▁160	249
▁Austria	249
▁Chain	249
▁Dakar	249
▁Han	249
▁Hann	249
▁Imm	249
▁Tech	249
▁Wireless	249
▁arranged	249
▁furniture	249
▁motion	249
▁obvious	249
▁outcome	249
▁sen	249
▁senior	249
▁vary	249
▁virgin	249
PER	248
esty	248
heng	248
lor	248
outube	248
position	248
rics	248
▁(18)	248
▁Chamber	248
▁Ir	248
▁Marine	248
▁Ms	248
▁Stretch	248
▁Ve	248
▁adopt	248
▁conclude	248
▁conver	248
▁harmful	248
▁kuma	248
▁lat	248
▁spins	248
▁tow	248
▁traditions	248
!"	247
Time	247
anny	247
arian	247
icated	247
ige	247
lights	247
name	247
ohn	247
oking	247
type	247
ulties	247
ults	247
umm	247
urt	247
yu	247
▁Article	247
▁Bio	247
▁Britain	247
▁Core	247
▁Cro	247
▁Hose	247
▁Import	247
▁Rail	247
▁Ros	247
▁Style	247
▁Transport	247
▁Upd	247
▁Virgin	247
▁borders	247
▁conscious	247
▁dress	247
▁eliminate	247
▁fi	247
▁filling	247
▁grinding	247
▁minor	247
▁newspaper	247
▁quit	247
▁sharp	247
▁tim	247
▁wave	247
Co	246
PA	246
cket	246
ders	246
gra	246
ograph	246
stand	246
uggage	246
·	246
▁Amman	246
▁CPU	246
▁MA	246
▁MO	246
▁MT	246
▁Rob	246
▁SD	246
▁accident	246
▁accordance	246
▁commitment	246
▁detection	246
▁executive	246
▁google	246
▁gratitude	246
▁initiative	246
▁lin	246
▁referring	246
▁sport	246
▁stream	246
52	245
54	245
ARE	245
Des	245
agles	245
ilder	245
plex	245
ums	245
▁(25	245
▁20%	245
▁Beige	245
▁Country	245
▁Details	245
▁Executive	245
▁Hi	245
▁Senate	245
▁Strong	245
▁blogger	245
▁butt	245
▁consistent	245
▁doct	245
▁ended	245
▁equip	245
▁errors	245
▁firmly	245
▁indoor	245
▁outer	245
▁removal	245
▁rul	245
▁rulers	245
▁searching	245
▁sky	245
▁suc	245
▁sugar	245
▁transposh	245
MD	244
alf	244
ional	244
itic	244
onian	244
▁InMotion	244
▁Module	244
▁diamond	244
▁graduate	244
▁hydraulic	244
▁immediate	244
▁ordinary	244
▁painful	244
▁plenty	244
▁replaced	244
▁till	244
▁viewpoint	244
▁wooden	244
-24	243
03	243
agram	243
ciful	243
gs	243
ifications	243
pace	243
sible	243
▁2018,	243
▁61	243
▁62	243
▁Change	243
▁Cher	243
▁Fore	243
▁Journal	243
▁ann	243
▁arrested	243
▁civil	243
▁cultural	243
▁impressed	243
▁improving	243
▁union	243
12.	242
57	242
CP	242
alm	242
cor	242
ien	242
leep	242
pered	242
ther	242
ville	242
▁202	242
▁BEST	242
▁Hope	242
▁Stud	242
▁astray	242
▁bug	242
▁caught	242
▁com	242
▁ensures	242
▁improvement	242
▁kan	242
▁noticed	242
▁pop	242
▁represents	242
▁resulting	242
▁subt	242
Land	241
bal	241
emb	241
erson	241
isha	241
oro	241
ros	241
▁2006	241
▁FTTH	241
▁Fa	241
▁GBP	241
▁Greece	241
▁Judge	241
▁Koh	241
▁Parents	241
▁ba	241
▁divorce	241
▁emotions	241
▁injury	241
▁runs	241
▁shut	241
▁skill	241
DF	240
ials	240
ision	240
oom	240
▁26,	240
▁DJ	240
▁HOME	240
▁Image	240
▁Interest	240
▁Mem	240
▁backl	240
▁grief	240
▁hate	240
▁instant	240
▁rect	240
▁reflected	240
▁scope	240
▁thereby	240
ONG	239
Point	239
UST	239
ares	239
atan	239
host	239
ovie	239
td	239
uel	239
▁2.0	239
▁Dimension	239
▁Jew	239
▁Madrid	239
▁Rol	239
▁Soft	239
▁Zone	239
▁acknowledge	239
▁cattle	239
▁communities	239
▁compan	239
▁crown	239
▁dual	239
▁fallen	239
▁gear	239
▁graphics	239
▁healing	239
▁modified	239
▁muscle	239
▁oath	239
▁preparing	239
▁purity	239
▁reminders	239
▁resort	239
▁specifications	239
▁ung	239
▁writes	239
▁yield	239
There	238
flow	238
icate	238
imm	238
kah	238
sole	238
uw	238
▁Alhaji	238
▁Border	238
▁Chairman	238
▁Festival	238
▁Knowledge	238
▁Kusatsu	238
▁Ter	238
▁]]>	238
▁alert	238
▁container	238
▁impression	238
▁pred	238
▁preparation	238
▁raising	238
▁receives	238
▁royal	238
Beh	237
No	237
atics	237
chi	237
▁96	237
▁ES	237
▁GM	237
▁Hyperbaric	237
▁Kal	237
▁Skype	237
▁Snap	237
▁Surely	237
▁Traditional	237
▁appeal	237
▁appreciated	237
▁calam	237
▁classic	237
▁composed	237
▁coun	237
▁founder	237
▁index	237
▁ongoing	237
▁peaceful	237
▁produces	237
▁rapid	237
▁reduction	237
▁remn	237
▁rising	237
▁stored	237
▁telephone	237
▁thin	237
emic	236
iently	236
seen	236
umn	236
▁29,	236
▁Bala	236
▁CBD	236
▁File	236
▁Male	236
▁Multimedia	236
▁Province	236
▁Regular	236
▁Studies	236
▁Sug	236
▁Within	236
▁award	236
▁bin	236
▁controller	236
▁frequently	236
▁increases	236
▁kids	236
▁peak	236
▁pursuing	236
▁schol	236
▁yours	236
3%	235
:8	235
CAD	235
anded	235
etic	235
ito	235
lim	235
ogen	235
reed	235
rous	235
š	235
▁(1,	235
▁24,	235
▁Complete	235
▁Kim	235
▁Leadership	235
▁Letter	235
▁Level	235
▁Pennsylvania	235
▁Vessoft	235
▁execution	235
▁flash	235
▁generate	235
▁hole	235
▁involving	235
▁partnership	235
▁surprised	235
▁totally	235
▁wherever	235
NS	234
km	234
udi	234
wp	234
▁(0)	234
▁25,	234
▁350	234
▁Amos	234
▁Library	234
▁MS	234
▁Nas	234
▁Steps	234
▁anxious	234
▁comparison	234
▁conviction	234
▁cosmetic	234
▁debt	234
▁dial	234
▁ep	234
▁generous	234
▁keys	234
▁laboratory	234
▁lest	234
▁mirror	234
▁nursing	234
▁snow	234
▁thereafter	234
▁wheat	234
▁writers	234
BO	233
PR	233
amide	233
asp	233
cles	233
cription	233
dra	233
how	233
umi	233
▁2.5	233
▁Action	233
▁Bak	233
▁Bon	233
▁Cell	233
▁Cong	233
▁Content	233
▁Gir	233
▁Mi	233
▁RF	233
▁Ronald	233
▁SK	233
▁aviation	233
▁boat	233
▁charges	233
▁collected	233
▁guitar	233
▁limitations	233
▁offerings	233
▁planned	233
▁possibly	233
▁upgrade	233
!!!	232
ichi	232
my	232
oko	232
ologist	232
ologists	232
round	232
terior	232
uted	232
å	232
‘	232
▁1)	232
▁13.	232
▁2003	232
▁22,	232
▁Gi	232
▁Instru	232
▁LCD	232
▁Mart	232
▁Payment	232
▁Posted	232
▁Shiga	232
▁adopts	232
▁calm	232
▁courageous	232
▁demands	232
▁exhibition	232
▁feedback	232
▁housing	232
▁instrument	232
▁outbreak	232
▁palm	232
▁surrounding	232
:17	231
ARS	231
anal	231
oga	231
oria	231
wr	231
yi	231
▁1999	231
▁Against	231
▁Ast	231
▁Child	231
▁Conference	231
▁Convert	231
▁Economic	231
▁Ele	231
▁Interview	231
▁Pil	231
▁Plate	231
▁aqu	231
▁deny	231
▁exposure	231
▁hatred	231
▁mel	231
▁pandemic	231
▁rescue	231
▁ridic	231
▁rsquo	231
▁whenever	231
▁×	231
:16	230
anning	230
cel	230
cker	230
irc	230
ohm	230
rical	230
▁220	230
▁23,	230
▁AG	230
▁Gib	230
▁Ken	230
▁Progress	230
▁Shim	230
▁alarm	230
▁codes	230
▁jack	230
▁offices	230
▁oppos	230
▁pour	230
▁restored	230
▁retail	230
▁smoke	230
▁tele	230
▁typical	230
:11	229
ACT	229
ANT	229
acing	229
erts	229
itz	229
rating	229
▁(32	229
▁1/2	229
▁Advanced	229
▁Deb	229
▁Dor	229
▁Four	229
▁NOT	229
▁Stop	229
▁architecture	229
▁belie	229
▁confirm	229
▁conversations	229
▁dynamic	229
▁mask	229
▁participation	229
▁positions	229
▁reactions	229
▁regional	229
▁stages	229
▁suggested	229
▁typically	229
▁vis	229
HI	228
▁(24	228
▁2005	228
▁2019.	228
▁Abram	228
▁Bre	228
▁Diamond	228
▁Due	228
▁Premium	228
▁Rate	228
▁Sar	228
▁Staff	228
▁Unlike	228
▁begun	228
▁believing	228
▁ceram	228
▁estimated	228
▁foolish	228
▁hol	228
▁hosted	228
▁lifetime	228
▁novel	228
▁rated	228
▁split	228
▁tasks	228
!”	227
,00	227
4">	227
One	227
cin	227
eration	227
rab	227
rates	227
▁Birth	227
▁EU	227
▁Hello	227
▁Inf	227
▁Ish	227
▁SiteGround	227
▁Washington	227
▁acquired	227
▁actively	227
▁att	227
▁bandwidth	227
▁batteries	227
▁electro	227
▁fence	227
▁posted	227
▁viral	227
/9	226
:18	226
ALE	226
cr	226
eg	226
ere	226
makers	226
note	226
ours	226
rencies	226
ي	226
▁900	226
▁Award	226
▁Cat	226
▁Ess	226
▁Idea	226
▁Learning	226
▁Little	226
▁Speaking	226
▁Success	226
▁apparently	226
▁churches	226
▁coins	226
▁context	226
▁cooperate	226
▁corrupt	226
▁dem	226
▁hyper	226
▁magn	226
▁meaningful	226
2"	225
LES	225
hand	225
zing	225
ō	225
▁Apartment	225
▁Hours	225
▁Moh	225
▁Sem	225
▁Sony	225
▁ang	225
▁guides	225
▁prize	225
▁refuse	225
▁repeatedly	225
▁sensitive	225
▁shi	225
▁spending	225
(5	224
NL	224
athy	224
days	224
duct	224
gar	224
https	224
lease	224
oked	224
▁Analytics	224
▁Appro	224
▁Cover	224
▁Everyone	224
▁Kam	224
▁Poland	224
▁Pool	224
▁adjusted	224
▁aff	224
▁category	224
▁cod	224
▁contained	224
▁devoted	224
▁max	224
▁owned	224
▁replacement	224
▁repro	224
▁sciences	224
3"	223
ACE	223
FF	223
care	223
ette	223
fish	223
iller	223
itan	223
oud	223
page	223
uce	223
under	223
vey	223
ylene	223
▁125	223
▁2004	223
▁Bro	223
▁Farm	223
▁Higher	223
▁Portuguese	223
▁Robert	223
▁Van	223
▁Volume	223
▁alleged	223
▁bottles	223
▁clothes	223
▁controls	223
▁eager	223
▁extreme	223
▁forming	223
▁gay	223
▁hom	223
▁neighbors	223
▁payments	223
▁reliability	223
▁rightly	223
▁stake	223
▁ur	223
ELL	222
UC	222
anes	222
liness	222
▁Bridge	222
▁Eric	222
▁Meeting	222
▁Vehicle	222
▁agents	222
▁bridge	222
▁classes	222
▁containing	222
▁delete	222
▁expanded	222
▁monuments	222
▁poured	222
▁reasoning	222
▁satisfying	222
▁vent	222
-200	221
/01	221
aby	221
arus	221
atin	221
ground	221
ishi	221
olar	221
power	221
tings	221
ustr	221
wind	221
▁63	221
▁Contacts	221
▁Habakkuk	221
▁William	221
▁ages	221
▁burden	221
▁continuously	221
▁conventions	221
▁dep	221
▁eB	221
▁entrusted	221
▁finds	221
▁lov	221
▁persecuted	221
▁sessions	221
▁silent	221
▁vac	221
IO	220
ammad	220
arge	220
iga	220
ipped	220
iser	220
osing	220
otes	220
rator	220
uality	220
▁2)	220
▁2019,	220
▁90%	220
▁Lim	220
▁MIN	220
▁Mountains	220
▁PA	220
▁QU	220
▁Queen	220
▁Question	220
▁SEC	220
▁Week	220
▁dose	220
▁et	220
▁grasp	220
▁iCloud	220
▁ko	220
▁organic	220
▁route	220
▁tens	220
▁viewing	220
▁violent	220
AV	219
OH	219
idd	219
ighter	219
js	219
oving	219
pan	219
point	219
rin	219
stones	219
tom	219
ws	219
▁Adv	219
▁Andrew	219
▁Asa	219
▁GU	219
▁Images	219
▁Living	219
▁Mc	219
▁Transl	219
▁agency	219
▁belt	219
▁boxes	219
▁cochlear	219
▁insulation	219
▁kg	219
▁parties	219
▁permitted	219
▁pil	219
▁professor	219
▁revenue	219
▁spl	219
▁styles	219
▁wor	219
/16	218
9"	218
INA	218
Im	218
MAN	218
XX	218
chat	218
ects	218
isan	218
uct	218
▁5-	218
▁Fact	218
▁Florida	218
▁Laz	218
▁Ya	218
▁channels	218
▁cop	218
▁counter	218
▁dignity	218
▁exhort	218
▁harsh	218
▁infrastructure	218
▁plays	218
▁prevention	218
▁swimming	218
▁terrible	218
:57	217
CT	217
Is	217
ae	217
just	217
mates	217
upon	217
weight	217
ô	217
▁80%	217
▁Again	217
▁Ber	217
▁Hex	217
▁Koran	217
▁Universal	217
▁acquire	217
▁affordable	217
▁attendance	217
▁bitter	217
▁ceremony	217
▁drew	217
▁fans	217
▁intention	217
▁nearby	217
▁paving	217
▁philosophy	217
▁reducing	217
▁relate	217
▁rendered	217
▁ri	217
▁talks	217
▁texts	217
▁wireless	217
="1	216
asc	216
maker	216
pack	216
sapp	216
▁$5	216
▁700	216
▁Aj	216
▁Arabia	216
▁Blu	216
▁Doing	216
▁Five	216
▁Grant	216
▁Package	216
▁Prince	216
▁RAM	216
▁Thomas	216
▁UV	216
▁differ	216
▁east	216
▁endured	216
▁fruits	216
▁maintained	216
▁originally	216
▁rating	216
▁respectively	216
▁routine	216
▁strongly	216
▁tension	216
▁tent	216
▁tissue	216
▁warn	216
ANS	215
IDE	215
OU	215
So	215
angzhou	215
ateur	215
dis	215
eck	215
held	215
high	215
iew	215
lm	215
velation	215
▁LTD	215
▁Martin	215
▁Petersburg	215
▁Traffic	215
▁abandon	215
▁boys	215
▁concentration	215
▁cond	215
▁flower	215
▁hook	215
▁hy	215
▁loading	215
▁plain	215
▁squ	215
▁subscription	215
▁suggest	215
▁trains	215
1"	214
56	214
:6	214
ibod	214
step	214
▁(24)	214
▁4*	214
▁Certified	214
▁Fan	214
▁Fund	214
▁Il	214
▁LinkedIn	214
▁Organization	214
▁Pin	214
▁Py	214
▁Reading	214
▁Rental	214
▁Shir	214
▁Silver	214
▁Swiss	214
▁beach	214
▁cream	214
▁encounter	214
▁everywhere	214
▁meets	214
▁profiles	214
▁seventh	214
▁smoking	214
▁supplied	214
▁teams	214
▁television	214
59	213
ARD	213
UP	213
abl	213
aped	213
bps	213
ipe	213
ivating	213
pher	213
requ	213
▁Crystal	213
▁Death	213
▁Drive	213
▁FM	213
▁Fav	213
▁Joy	213
▁Ni	213
▁TW	213
▁Tract	213
▁acc	213
▁alongside	213
▁arrangements	213
▁calendar	213
▁clock	213
▁giant	213
▁inject	213
▁rear	213
▁rebellion	213
▁spare	213
▁ven	213
▁wars	213
04	212
ITS	212
ban	212
cient	212
iang	212
irs	212
lets	212
notes	212
oys	212
reens	212
ñ	212
▁$100	212
▁316	212
▁couples	212
▁crash	212
▁cult	212
▁inclined	212
▁inhib	212
▁neutral	212
▁quart	212
▁sorrow	212
▁throw	212
▁ticket	212
▁tired	212
▁welcomed	212
・	212
1.0	211
OOD	211
Wh	211
ails	211
bec	211
ella	211
ille	211
lar	211
rams	211
ser	211
▁88	211
▁9001	211
▁99	211
▁Ser	211
▁boost	211
▁conce	211
▁cour	211
▁rolling	211
▁shield	211
▁stud	211
▁tract	211
-2019	210
IY	210
dB	210
hejiang	210
iber	210
iw	210
izza	210
lus	210
sy	210
urer	210
words	210
▁27,	210
▁Armageddon	210
▁Barn	210
▁Og	210
▁Sac	210
▁Skirting	210
▁Stock	210
▁Thu	210
▁chronic	210
▁contents	210
▁dishon	210
▁displays	210
▁everyday	210
▁incident	210
▁ly	210
▁motivated	210
▁perish	210
▁pleasant	210
▁province	210
▁rapidly	210
▁recall	210
▁worker	210
.2	209
:31	209
Cl	209
het	209
mble	209
oj	209
oper	209
uni	209
working	209
▁2016.	209
▁Af	209
▁Azure	209
▁Channel	209
▁Ell	209
▁Sad	209
▁Sokoto	209
▁Valent	209
▁automated	209
▁coffee	209
▁farmers	209
▁globe	209
▁gun	209
▁magazines	209
▁mistake	209
▁neglect	209
▁representative	209
▁thermal	209
▁thrown	209
/6	208
De	208
MB	208
MC	208
VA	208
aire	208
ako	208
cat	208
fri	208
ific	208
ophilia	208
ptide	208
“	208
▁Democratic	208
▁Fish	208
▁Gombe	208
▁Nag	208
▁Supreme	208
▁admit	208
▁comb	208
▁compress	208
▁murm	208
▁nitrogen	208
▁pioneering	208
▁pull	208
▁repeated	208
▁score	208
▁shr	208
▁threatened	208
▁unjust	208
▁widget	208
PM	207
UG	207
flex	207
ii	207
iku	207
uary	207
using	207
zh	207
▁2001	207
▁3000	207
▁Alexander	207
▁Alzheimer	207
▁Average	207
▁Emergency	207
▁Ephes	207
▁Introduction	207
▁Kaz	207
▁Linux	207
▁Plant	207
▁Sit	207
▁Talk	207
▁brush	207
▁creates	207
▁grave	207
▁insect	207
▁officer	207
▁preserve	207
▁regardless	207
▁respiratory	207
▁ride	207
-01	206
08	206
ICT	206
JPY	206
airs	206
content	206
dr	206
friendly	206
ince	206
mark	206
oker	206
ollow	206
ouch	206
reen	206
▁28,	206
▁Ankara	206
▁FDA	206
▁Force	206
▁Sak	206
▁Soviet	206
▁Wannakitesurf	206
▁Zion	206
▁advancement	206
▁balanced	206
▁cotton	206
▁desp	206
▁entirely	206
▁era	206
▁execute	206
▁namely	206
▁otitis	206
▁refres	206
▁sincerely	206
▁sustain	206
▁vib	206
▁wipe	206
▁writ	206
▁yuan	206
NG	205
TR	205
angers	205
class	205
fi	205
ishment	205
long	205
oses	205
part	205
rence	205
▁CM	205
▁Dele	205
▁Fi	205
▁Organ	205
▁Panasonic	205
▁Sani	205
▁Sel	205
▁Student	205
▁Yellow	205
▁advent	205
▁casting	205
▁driven	205
▁farm	205
▁nan	205
▁railway	205
▁remind	205
▁ruin	205
▁sentence	205
FC	204
ayy	204
cif	204
cons	204
ictionary	204
itory	204
life	204
ogi	204
otive	204
sex	204
▁Ahmed	204
▁Apps	204
▁Corn	204
▁Electronic	204
▁Further	204
▁Nab	204
▁Operation	204
▁QC	204
▁Release	204
▁Secretary	204
▁Taiwan	204
▁addresses	204
▁android	204
▁authentic	204
▁benefited	204
▁chip	204
▁cow	204
▁discouraged	204
▁entitled	204
▁gard	204
▁imper	204
▁implementation	204
▁impressive	204
▁literally	204
▁mutual	204
▁preceding	204
▁religions	204
▁similarly	204
▁stations	204
▁trader	204
▁twenty	204
▁vibration	204
Ph	203
arity	203
ded	203
enced	203
fr	203
iblical	203
ients	203
mod	203
omm	203
pur	203
raph	203
reng	203
rylic	203
through	203
ulpt	203
urch	203
▁(38	203
▁76	203
▁Build	203
▁CAP	203
▁Gabriel	203
▁HP	203
▁Hill	203
▁Leader	203
▁Milan	203
▁Simple	203
▁Voice	203
▁breaking	203
▁brows	203
▁candidates	203
▁component	203
▁conqu	203
▁crus	203
▁fold	203
▁logo	203
▁lubric	203
▁pneum	203
▁pregnancy	203
▁shoot	203
▁significance	203
▁surgery	203
▁terminal	203
-13	202
2%	202
OLD	202
THE	202
earl	202
fall	202
hew	202
obi	202
oi	202
owing	202
php	202
▁Berlin	202
▁Blythe	202
▁CODE	202
▁CON	202
▁Leg	202
▁Spl	202
▁Sund	202
▁Surface	202
▁Ven	202
▁Vice	202
▁alb	202
▁anabolic	202
▁coin	202
▁complain	202
▁deleted	202
▁downloaded	202
▁eng	202
▁expansion	202
▁ignore	202
▁ke	202
▁persec	202
▁powered	202
▁separated	202
▁suddenly	202
▁techniques	202
6">	201
7%	201
APC	201
asu	201
grade	201
link	201
mn	201
roat	201
vin	201
▁Classic	201
▁Dragon	201
▁Exam	201
▁Inch	201
▁Mich	201
▁Mur	201
▁Resealable	201
▁TOP	201
▁Wat	201
▁Wik	201
▁addressed	201
▁approaching	201
▁descend	201
▁heal	201
▁quote	201
▁representatives	201
▁robot	201
▁ster	201
▁tracking	201
/11	200
:19	200
ains	200
ears	200
fect	200
inding	200
osed	200
was	200
water	200
▁($	200
▁Barcelona	200
▁COR	200
▁Ellicott	200
▁Fal	200
▁Gun	200
▁Loss	200
▁Naz	200
▁Nor	200
▁Wuhan	200
▁asset	200
▁defense	200
▁greed	200
▁import	200
▁lift	200
▁magnetic	200
▁param	200
▁pc	200
▁recreation	200
▁threat	200
▁traders	200
▁trends	200
ASH	199
anging	199
anne	199
duction	199
kins	199
roke	199
wide	199
▁0,	199
▁Applications	199
▁Basic	199
▁Conn	199
▁DE	199
▁Members	199
▁NA	199
▁NE	199
▁URL	199
▁admitted	199
▁headed	199
▁inhabited	199
▁pursuit	199
▁puts	199
▁resolved	199
▁secretary	199
▁statements	199
▁surf	199
▁tear	199
▁wet	199
-100	198
18)	198
ashes	198
erve	198
icy	198
pent	198
techn	198
uction	198
▁15.	198
▁3*	198
▁70%	198
▁Hus	198
▁Maris	198
▁Method	198
▁Transposh	198
▁besides	198
▁blogs	198
▁computers	198
▁continuing	198
▁cryptocur	198
▁electronics	198
▁excellence	198
▁hydro	198
▁lect	198
▁pan	198
▁processor	198
▁rede	198
▁rehabilitation	198
▁themes	198
:59	197
II	197
ITA	197
alous	197
asm	197
ceived	197
ogle	197
pol	197
rogen	197
shore	197
uto	197
▁1960	197
▁Break	197
▁Doll	197
▁IR	197
▁Ideas	197
▁Islands	197
▁Nam	197
▁Nar	197
▁Nations	197
▁Rah	197
▁SUP	197
▁Tread	197
▁absolute	197
▁atmosphere	197
▁certified	197
▁coupon	197
▁decibels	197
▁headquarters	197
▁imported	197
▁influenced	197
▁ms	197
▁pip	197
▁promotional	197
▁spe	197
▁ton	197
▁uniform	197
.'	196
/04	196
19.	196
heel	196
iers	196
lovense	196
onder	196
opp	196
table	196
used	196
▁""	196
▁DNA	196
▁Jinghao	196
▁Malachi	196
▁Patrick	196
▁Philip	196
▁Premier	196
▁Vac	196
▁affili	196
▁arch	196
▁assemblies	196
▁bath	196
▁breast	196
▁coll	196
▁desert	196
▁indefinite	196
▁officially	196
▁publish	196
▁sear	196
▁shaft	196
▁vessel	196
▁votes	196
▁weekly	196
▁±	196
16)	195
WS	195
akin	195
aside	195
asonic	195
atively	195
aze	195
cess	195
istance	195
leb	195
nam	195
oop	195
user	195
▁(7)	195
▁2017.	195
▁API	195
▁Awake	195
▁Better	195
▁Bish	195
▁Chair	195
▁Enjoy	195
▁Former	195
▁Ful	195
▁Gigalight	195
▁Kir	195
▁Mand	195
▁Nurs	195
▁accepting	195
▁accompanied	195
▁arrest	195
▁associates	195
▁chair	195
▁charity	195
▁judged	195
▁num	195
▁passion	195
▁performing	195
▁psalm	195
▁reve	195
▁specialist	195
▁surrounded	195
▁witnessed	195
▁○	195
="3	194
CA	194
MI	194
elance	194
eur	194
olly	194
ui	194
uru	194
▁78	194
▁Communication	194
▁Conc	194
▁EP	194
▁Fuj	194
▁Katsina	194
▁Tab	194
▁Tian	194
▁applicable	194
▁bones	194
▁coal	194
▁connector	194
▁depression	194
▁flying	194
▁ministerial	194
▁miracle	194
▁patri	194
▁pity	194
▁shapes	194
▁sickness	194
▁technique	194
▁transl	194
▁victim	194
▁victims	194
▁workshop	194
203	193
COM	193
KK	193
LED	193
fire	193
utt	193
ح	193
▁2015.	193
▁2020.	193
▁Belgium	193
▁County	193
▁Kyoto	193
▁Mir	193
▁SL	193
▁Simon	193
▁Summer	193
▁Trenbolone	193
▁bigger	193
▁cru	193
▁falling	193
▁fraud	193
▁objective	193
▁promoting	193
▁prompt	193
▁publicly	193
▁reads	193
▁residence	193
▁troubled	193
▁vice	193
▁welfare	193
▁wondered	193
4"	192
IGH	192
May	192
agg	192
core	192
ession	192
imes	192
oming	192
store	192
▁$3	192
▁16.	192
▁3.0	192
▁Electronics	192
▁Fam	192
▁Hom	192
▁Horm	192
▁ITIL	192
▁Ibn	192
▁Lessons	192
▁Monitor	192
▁Own	192
▁Sport	192
▁Tok	192
▁advised	192
▁algorith	192
▁armies	192
▁aut	192
▁catch	192
▁defend	192
▁engaging	192
▁enjoying	192
▁exercising	192
▁fled	192
▁initially	192
▁killing	192
▁rewarded	192
▁slightly	192
▁tempted	192
▁virtue	192
▁worst	192
7">	191
AGE	191
KA	191
ilation	191
ipedia	191
rey	191
xture	191
è	191
▁450	191
▁Arch	191
▁Brook	191
▁Charles	191
▁IV	191
▁Ji	191
▁Manchester	191
▁OK	191
▁Tun	191
▁bol	191
▁commend	191
▁correctly	191
▁corresponding	191
▁epidemic	191
▁flag	191
▁ignored	191
▁mount	191
▁native	191
▁obligation	191
▁proposed	191
▁reap	191
▁resource	191
▁shock	191
▁signals	191
.000	190
ankind	190
arts	190
aves	190
erver	190
hon	190
now	190
ogy	190
orable	190
pal	190
sec	190
xygen	190
▁Ade	190
▁Bus	190
▁Companies	190
▁Freedom	190
▁ITS	190
▁Norm	190
▁Performance	190
▁QS	190
▁Techn	190
▁completion	190
▁comprehen	190
▁contribution	190
▁damaged	190
▁draws	190
▁earned	190
▁entrance	190
▁fears	190
▁focusing	190
▁indication	190
▁optional	190
▁packages	190
▁plugins	190
▁readily	190
▁sudden	190
▁titles	190
▁wal	190
abe	189
aken	189
ema	189
enz	189
Ş	189
▁(8)	189
▁4-	189
▁89	189
▁Dra	189
▁Eng	189
▁Enterprise	189
▁Mil	189
▁Tren	189
▁displaying	189
▁encourages	189
▁explanation	189
▁falls	189
▁formation	189
▁gent	189
▁guilty	189
▁holiday	189
▁impair	189
▁museum	189
▁naturally	189
▁officers	189
▁participants	189
▁perse	189
▁perspective	189
▁protects	189
▁sends	189
▁string	189
▁tight	189
/18	188
VPN	188
adu	188
anical	188
icking	188
inations	188
lers	188
oust	188
state	188
▁30-	188
▁Adjust	188
▁Belt	188
▁Community	188
▁Ghana	188
▁Michel	188
▁OBD	188
▁Sup	188
▁Survey	188
▁TEL	188
▁Third	188
▁Whe	188
▁automotive	188
▁banking	188
▁broad	188
▁bur	188
▁facility	188
▁foods	188
▁forbidden	188
▁generated	188
▁happening	188
▁integration	188
▁reaches	188
07	187
Trans	187
ez	187
lang	187
made	187
most	187
range	187
resses	187
▁Baku	187
▁Corinth	187
▁Eastern	187
▁Generally	187
▁Jav	187
▁Kay	187
▁Secret	187
▁Shel	187
▁avoiding	187
▁flo	187
▁flour	187
▁maturity	187
▁multipl	187
▁noble	187
▁physically	187
▁pressures	187
▁programming	187
▁strategies	187
2017	186
7"	186
9%	186
:25	186
agers	186
anges	186
asion	186
hou	186
icho	186
lav	186
luded	186
ofer	186
oso	186
rix	186
umber	186
umble	186
vant	186
▁73	186
▁Desk	186
▁Driver	186
▁Edo	186
▁Example	186
▁FE	186
▁Frank	186
▁Happ	186
▁Hen	186
▁Index	186
▁KO	186
▁MAR	186
▁Mail	186
▁PAG	186
▁Person	186
▁Quant	186
▁acknowledged	186
▁architect	186
▁branches	186
▁buck	186
▁circ	186
▁crime	186
▁disclosed	186
▁fib	186
▁flights	186
▁forum	186
▁graph	186
▁innocent	186
▁introduce	186
▁ot	186
▁pleas	186
▁professors	186
▁push	186
▁resur	186
▁safely	186
▁van	186
11.	185
3/	185
8"	185
8%	185
By	185
English	185
KE	185
ammer	185
ivid	185
ixel	185
omatic	185
ometer	185
rick	185
sten	185
▁Benefits	185
▁CF	185
▁Clin	185
▁Emirates	185
▁Gro	185
▁HTML	185
▁Nick	185
▁Rikoooo	185
▁Stage	185
▁agencies	185
▁associations	185
▁ble	185
▁bull	185
▁ce	185
▁deputy	185
▁explore	185
▁inherit	185
▁operators	185
▁pal	185
▁patterns	185
▁pres	185
▁procedure	185
▁synthetic	185
▁tech	185
▁withdraw	185
▁zero	185
-50	184
/06	184
20)	184
MENT	184
active	184
cal	184
cija	184
hib	184
ocation	184
ounded	184
quest	184
such	184
▁30,	184
▁77	184
▁Ach	184
▁Alb	184
▁Alexand	184
▁Base	184
▁Cain	184
▁Converter	184
▁JEHO	184
▁Mountain	184
▁Pract	184
▁Quart	184
▁Tal	184
▁Texas	184
▁[1.9.16_1159]	184
▁armed	184
▁ath	184
▁backing	184
▁basically	184
▁cre	184
▁evolution	184
▁iP	184
▁manufactured	184
▁presidential	184
▁protein	184
▁spons	184
▁suggests	184
▁supplement	184
▁timely	184
▁tire	184
▁transactions	184
▁welded	184
***	183
:200	183
agan	183
away	183
cence	183
chers	183
ifi	183
mir	183
oration	183
otropin	183
pling	183
related	183
ulia	183
very	183
ê	183
▁10,000	183
▁2016,	183
▁83	183
▁93	183
▁Chris	183
▁Dutch	183
▁Galile	183
▁OP	183
▁Qual	183
▁Ren	183
▁Sn	183
▁TCDD	183
▁Zealand	183
▁admin	183
▁assistant	183
▁ben	183
▁conc	183
▁directions	183
▁donations	183
▁duration	183
▁keen	183
▁mai	183
▁mechanism	183
▁proven	183
▁repay	183
▁satin	183
▁stew	183
▁stuff	183
12)	182
HL	182
TV	182
VC	182
abil	182
achers	182
ald	182
asinos	182
gir	182
inking	182
ione	182
kan	182
new	182
oyal	182
▁(30	182
▁Aut	182
▁Dest	182
▁EFCC	182
▁Early	182
▁Empire	182
▁Equ	182
▁Exc	182
▁Ly	182
▁Pop	182
▁Scientific	182
▁Shandong	182
▁Skin	182
▁Thai	182
▁Wind	182
▁adjustments	182
▁artist	182
▁automation	182
▁bab	182
▁compound	182
▁consume	182
▁disaster	182
▁hopes	182
▁opposed	182
▁perceive	182
▁sacrificing	182
▁shift	182
▁steroids	182
▁unknown	182
REE	181
akar	181
angular	181
arming	181
ext	181
iliary	181
iquid	181
istant	181
izers	181
quito	181
text	181
’,	181
▁Appe	181
▁CAS	181
▁Hig	181
▁Military	181
▁Nathan	181
▁PHP	181
▁Pinterest	181
▁Pun	181
▁accessible	181
▁amounts	181
▁broch	181
▁crucial	181
▁dates	181
▁emotion	181
▁gaining	181
▁matches	181
▁permit	181
▁presents	181
▁promo	181
▁roads	181
▁shel	181
▁sorts	181
▁tone	181
▁zinc	181
="6.	180
FL	180
PORT	180
ceive	180
inary	180
iru	180
odium	180
quer	180
raz	180
rooms	180
ugs	180
ulations	180
ulu	180
▁"%	180
▁2,000	180
▁Avoid	180
▁BlueHost	180
▁Columbia	180
▁Especially	180
▁Extension	180
▁Gy	180
▁Hiroshima	180
▁Intelligent	180
▁Load	180
▁Maki	180
▁Might	180
▁Musa	180
▁Po	180
▁aimed	180
▁chances	180
▁diagnosis	180
▁highlights	180
▁instruments	180
▁judges	180
▁periods	180
▁piano	180
▁planet	180
▁programme	180
▁regret	180
▁romantic	180
▁sheets	180
▁sou	180
▁speeds	180
▁swit	180
▁ther	180
▁weakness	180
▁west	180
,...	179
53	179
Fi	179
IONS	179
XBET	179
imum	179
jack	179
ourage	179
that	179
urg	179
▁Capital	179
▁Chall	179
▁ER	179
▁Enc	179
▁Gem	179
▁Much	179
▁Peoples	179
▁Sky	179
▁attain	179
▁basket	179
▁bel	179
▁consumers	179
▁density	179
▁desirable	179
▁developers	179
▁dies	179
▁difficulty	179
▁disorders	179
▁guests	179
▁guidelines	179
▁hospitality	179
▁ka	179
▁kid	179
▁murder	179
▁pharm	179
▁shortly	179
▁specially	179
▁stir	179
▁tea	179
▁truck	179
▁ultra	179
bet	178
burg	178
hai	178
holder	178
itated	178
ivals	178
ker	178
kw	178
mal	178
oft	178
oil	178
orth	178
wal	178
▁118	178
▁Atiku	178
▁MC	178
▁Misslamode	178
▁Miy	178
▁Sab	178
▁Stephen	178
▁committee	178
▁cont	178
▁crushed	178
▁declaration	178
▁defeat	178
▁defined	178
▁deserve	178
▁engra	178
▁existed	178
▁fluid	178
▁guest	178
▁inherited	178
▁necessarily	178
▁offshore	178
▁patch	178
▁ranging	178
▁rivers	178
▁steadfast	178
▁suspension	178
▁temper	178
▁theory	178
▁utter	178
▁weapons	178
3-	177
ATT	177
Plus	177
SI	177
atar	177
cul	177
eff	177
erate	177
fter	177
html	177
iten	177
mu	177
oned	177
resonance	177
vo	177
west	177
با	177
▁1919	177
▁79	177
▁BTE	177
▁Girls	177
▁Jobs	177
▁Kur	177
▁Nak	177
▁Orange	177
▁Tow	177
▁accompl	177
▁cabinet	177
▁dealt	177
▁disorder	177
▁estate	177
▁golden	177
▁loan	177
▁myst	177
▁paragraphs	177
▁questioned	177
▁ram	177
▁ranking	177
▁stayed	177
▁strange	177
▁tags	177
//	176
09	176
51	176
9.00	176
ENTS	176
abin	176
arging	176
azz	176
chen	176
nesium	176
post	176
rep	176
udd	176
ught	176
▁(20)	176
▁1.2	176
▁Countertops	176
▁Friends	176
▁GNOME	176
▁Hak	176
▁Hop	176
▁Iz	176
▁SER	176
▁Sadly	176
▁Taking	176
▁Term	176
▁clamps	176
▁crushing	176
▁hyp	176
▁lean	176
▁profitable	176
▁reflects	176
▁requests	176
▁rice	176
▁ru	176
▁sealed	176
▁shine	176
▁tablets	176
	176
14.	175
:55	175
FT	175
TU	175
uls	175
▁240	175
▁Abdullahi	175
▁Chart	175
▁Culture	175
▁FC	175
▁Future	175
▁Mafi	175
▁Tu	175
▁Warn	175
▁alph	175
▁continually	175
▁ethnic	175
▁expectations	175
▁extr	175
▁forest	175
▁implant	175
▁lion	175
▁pp	175
▁procedures	175
▁spouse	175
▁submission	175
▁tren	175
/2019	174
DR	174
High	174
USA	174
asty	174
eni	174
ogo	174
olog	174
omin	174
rig	174
rown	174
vet	174
▁144,000	174
▁68	174
▁98	174
▁Bell	174
▁Conditions	174
▁Crack	174
▁Cru	174
▁Gay	174
▁Lite	174
▁Return	174
▁Rule	174
▁Shen	174
▁anniversary	174
▁aux	174
▁birthday	174
▁butter	174
▁conducting	174
▁executed	174
▁filed	174
▁forb	174
▁handed	174
▁horizontal	174
▁lifting	174
▁pa	174
▁publishing	174
▁steroid	174
▁survival	174
▁urgent	174
-32	173
AA	173
ENCE	173
Hosting	173
Let	173
OST	173
RC	173
Sa	173
WE	173
akers	173
icken	173
isite	173
rama	173
she	173
xxx	173
μ	173
▁5%	173
▁750	173
▁AF	173
▁Advis	173
▁Rib	173
▁Sauke	173
▁Tam	173
▁affects	173
▁breat	173
▁cho	173
▁comply	173
▁corporation	173
▁cure	173
▁div	173
▁drives	173
▁kit	173
▁mort	173
▁opens	173
▁pin	173
▁repl	173
▁resc	173
▁valley	173
▁vari	173
Com	172
IME	172
RS	172
SH	172
Tube	172
agu	172
ibility	172
osc	172
ž	172
▁2023	172
▁Abd	172
▁Aviv	172
▁Cha	172
▁Distrib	172
▁EL	172
▁Establ	172
▁Excel	172
▁Export	172
▁Gab	172
▁Ink	172
▁Kon	172
▁Lou	172
▁Nine	172
▁Penn	172
▁Philippines	172
▁RES	172
▁Registration	172
▁TS	172
▁Tar	172
▁Valley	172
▁bore	172
▁crack	172
▁experiencing	172
▁generations	172
▁grass	172
▁habit	172
▁healthcare	172
▁latter	172
▁mart	172
▁massive	172
▁ni	172
▁preferred	172
▁proceeded	172
▁ray	172
▁seeds	172
▁transparent	172
▁usual	172
Japan	171
New	171
ORS	171
Pan	171
ashed	171
cycl	171
hour	171
obby	171
otide	171
saveatrain	171
£	171
▁18.	171
▁Alexa	171
▁Arm	171
▁Gate	171
▁Joel	171
▁KA	171
▁LG	171
▁Mean	171
▁Respon	171
▁Section	171
▁Sugar	171
▁Taylor	171
▁consumer	171
▁copies	171
▁incl	171
▁nerve	171
▁parking	171
▁portable	171
▁promotes	171
▁qualify	171
▁stamp	171
▁tap	171
▁tendency	171
▁thorn	171
▁worlds	171
EU	170
VID	170
antic	170
body	170
edly	170
gi	170
hibition	170
itar	170
oped	170
ounder	170
sau	170
swered	170
ū	170
▁1990	170
▁201	170
▁Amaz	170
▁Dear	170
▁Extra	170
▁Nan	170
▁Qingdao	170
▁Related	170
▁Xin	170
▁antioxid	170
▁blank	170
▁condemned	170
▁customs	170
▁grab	170
▁infected	170
▁keyboard	170
▁narrow	170
▁sed	170
▁seized	170
▁separation	170
▁streets	170
▁uns	170
4%	169
6"	169
VI	169
acter	169
amine	169
anta	169
essa	169
ieved	169
iyya	169
mistry	169
pass	169
rees	169
soft	169
ulators	169
▁Additionally	169
▁Aw	169
▁Chrome	169
▁Duk	169
▁Neither	169
▁Rad	169
▁SOLAS	169
▁Until	169
▁Victoria	169
▁Virtual	169
▁Za	169
▁appoint	169
▁breath	169
▁celebrated	169
▁clouds	169
▁crowds	169
▁embed	169
▁es	169
▁favorable	169
▁focuses	169
▁fram	169
▁funding	169
▁gross	169
▁horses	169
▁intelligence	169
▁petition	169
▁principal	169
▁quot	169
▁random	169
▁regards	169
▁regulations	169
▁restaurant	169
▁ruled	169
▁seam	169
▁strategic	169
▁transferred	169
▁utmost	169
2005	168
Ge	168
QU	168
amar	168
eller	168
elly	168
iveness	168
ounce	168
ourgas	168
rations	168
ross	168
sv	168
vere	168
wan	168
▁2002	168
▁Anth	168
▁BON	168
▁Commercial	168
▁Common	168
▁MK	168
▁Markets	168
▁PayPal	168
▁clin	168
▁declares	168
▁entity	168
▁managing	168
▁remembered	168
▁talents	168
▁troops	168
▁ultimate	168
▁weaknesses	168
2020	167
EMENT	167
Pr	167
Sm	167
Tuntuɓi	167
iph	167
isted	167
isy	167
lp	167
oka	167
oved	167
ref	167
rer	167
rolled	167
rov	167
sea	167
ystalline	167
с	167
’.	167
▁AK	167
▁Abdullah	167
▁Alpha	167
▁Dang	167
▁Everything	167
▁FS	167
▁Focus	167
▁Ja	167
▁Ki	167
▁Luc	167
▁Ministries	167
▁Titus	167
▁Trib	167
▁Wild	167
▁absorbed	167
▁cache	167
▁fre	167
▁governing	167
▁hungry	167
▁jew	167
▁journal	167
▁moderate	167
▁mos	167
▁nak	167
▁precise	167
▁preserved	167
▁prosperity	167
-40	166
Bet	166
FOR	166
action	166
cop	166
gg	166
had	166
icon	166
imb	166
ipping	166
mA	166
▁140	166
▁69	166
▁Bangkok	166
▁Often	166
▁Pie	166
▁Roy	166
▁UniConverter	166
▁awareness	166
▁capture	166
▁certificates	166
▁chamber	166
▁developments	166
▁du	166
▁elect	166
▁favour	166
▁fed	166
▁fishing	166
▁implement	166
▁installing	166
▁laugh	166
▁licensed	166
▁measured	166
▁opinions	166
▁profound	166
▁reproach	166
▁shell	166
▁silicone	166
letter	165
person	165
rayed	165
zi	165
▁Alt	165
▁Bauchi	165
▁Dut	165
▁Pad	165
▁Purpose	165
▁emp	165
▁festival	165
▁framework	165
▁intr	165
▁leisure	165
▁operates	165
▁pregnant	165
▁prog	165
▁repeat	165
▁row	165
▁tough	165
▁wishes	165
Free	164
URA	164
erry	164
itiz	164
ived	164
onies	164
posed	164
ک	164
▁(200	164
▁19.	164
▁91	164
▁Finance	164
▁Important	164
▁Jes	164
▁Maximum	164
▁Resources	164
▁Unicode	164
▁accurately	164
▁considerable	164
▁declaring	164
▁fifth	164
▁influences	164
▁ip	164
▁motives	164
▁obstacles	164
▁operated	164
▁organ	164
▁prob	164
▁southern	164
▁spirits	164
▁syndrome	164
▁tie	164
▁trades	164
▁warns	164
▁wra	164
▁İ	164
-22	163
-35	163
idth	163
lea	163
lessness	163
nia	163
nis	163
nm	163
olic	163
otrop	163
rot	163
|	163
▁100,000	163
▁2015,	163
▁Blackjack	163
▁CIS	163
▁GA	163
▁Info	163
▁Mos	163
▁SUN	163
▁afflicted	163
▁bears	163
▁circum	163
▁expects	163
▁metall	163
▁ped	163
▁peer	163
▁praised	163
▁reminds	163
▁representing	163
▁voices	163
(4	162
150	162
CR	162
FM	162
NE	162
afa	162
attered	162
aved	162
elf	162
eu	162
formation	162
igious	162
ingo	162
iqu	162
lear	162
osa	162
pen	162
reated	162
ugal	162
yx	162
▁(10)	162
▁1500	162
▁Aik	162
▁Between	162
▁Champions	162
▁Civil	162
▁Dating	162
▁GO	162
▁PH	162
▁SSD	162
▁blocks	162
▁buried	162
▁conform	162
▁consumed	162
▁converting	162
▁cou	162
▁discourage	162
▁division	162
▁exercises	162
▁hardly	162
▁lamb	162
▁maki	162
▁medic	162
▁paint	162
▁safeguard	162
▁serv	162
▁shame	162
-02	161
0000	161
anks	161
ett	161
idden	161
igo	161
omet	161
orge	161
ria	161
run	161
vol	161
world	161
▁Age	161
▁Ahab	161
▁Arts	161
▁Cambridge	161
▁Chemical	161
▁Egyptian	161
▁Georgia	161
▁MD	161
▁Major	161
▁Malta	161
▁Meh	161
▁Sir	161
▁char	161
▁childhood	161
▁dangers	161
▁decline	161
▁deserv	161
▁dro	161
▁histor	161
▁hypocr	161
▁improves	161
▁investors	161
▁politics	161
▁rough	161
▁shout	161
▁substance	161
▁vaccine	161
-2017	160
Te	160
With	160
base	160
embed	160
enter	160
eri	160
ias	160
istics	160
lands	160
oons	160
orse	160
racle	160
rine	160
rying	160
▁$4	160
▁BAR	160
▁BEN	160
▁Concerning	160
▁Guard	160
▁LIFE	160
▁Legal	160
▁Refugee	160
▁Solid	160
▁Spot	160
▁Vienna	160
▁aerospace	160
▁attitudes	160
▁beside	160
▁cord	160
▁criminal	160
▁drivers	160
▁exit	160
▁magic	160
▁wholes	160
06	159
Res	159
owa	159
▁365	159
▁97	159
▁Et	159
▁Field	159
▁Huawei	159
▁Innovation	159
▁Jenn	159
▁Muh	159
▁Put	159
▁Russell	159
▁Various	159
▁alk	159
▁colleagues	159
▁deeper	159
▁discussions	159
▁distinguish	159
▁emphasis	159
▁flame	159
▁foret	159
▁honey	159
▁kne	159
▁processed	159
▁pursu	159
▁recalls	159
▁restoration	159
▁restrictions	159
▁rolled	159
▁rural	159
▁shadow	159
▁spite	159
▁waves	159
BER	158
BU	158
ORD	158
aints	158
arding	158
atu	158
break	158
pons	158
ractions	158
ruct	158
sub	158
unctional	158
▁2014,	158
▁Deal	158
▁Fukuoka	158
▁GR	158
▁Java	158
▁Rh	158
▁Rich	158
▁Script	158
▁Zomo	158
▁agricultural	158
▁celebrate	158
▁chips	158
▁fest	158
▁fiberglass	158
▁herds	158
▁lip	158
▁motivate	158
▁opp	158
▁passengers	158
▁quad	158
▁reduces	158
▁rememb	158
▁rent	158
▁scenes	158
▁sum	158
▁temperatures	158
▁urgency	158
▁vict	158
▁́	158
IAN	157
card	157
dy	157
eling	157
fast	157
imin	157
lave	157
rene	157
ressive	157
sup	157
ubl	157
uta	157
ج	157
▁1970	157
▁87	157
▁94	157
▁Currently	157
▁Kai	157
▁Kasuwanci	157
▁Mec	157
▁Nev	157
▁Que	157
▁SAN	157
▁SU	157
▁Saf	157
▁Tank	157
▁Ult	157
▁alien	157
▁announce	157
▁apparent	157
▁applet	157
▁assure	157
▁attracted	157
▁cleans	157
▁currencies	157
▁exported	157
▁forty	157
▁gem	157
▁insurance	157
▁lifted	157
▁ment	157
▁metabol	157
▁moments	157
▁overseas	157
▁popularity	157
▁pricing	157
▁promot	157
▁sections	157
▁settle	157
▁urges	157
ANN	156
Med	156
aning	156
asino	156
icone	156
icycle	156
ivate	156
laim	156
ulating	156
yard	156
▁(9)	156
▁1980	156
▁Bene	156
▁Coast	156
▁FA	156
▁Silk	156
▁Sing	156
▁accommodation	156
▁blame	156
▁colleges	156
▁crystal	156
▁decree	156
▁enduring	156
▁expectation	156
▁fav	156
▁independence	156
▁intellectual	156
▁intensity	156
▁investing	156
▁lacking	156
▁mist	156
▁requested	156
▁screening	156
▁thirty	156
▁twelve	156
▁unb	156
▁vitamin	156
KO	155
Sun	155
ashin	155
oured	155
riage	155
rup	155
ued	155
umbling	155
urd	155
▁1950	155
▁230	155
▁Aud	155
▁Deg	155
▁Develop	155
▁Lis	155
▁Pope	155
▁Tik	155
▁afford	155
▁aims	155
▁anymore	155
▁burned	155
▁confirmation	155
▁developer	155
▁duties	155
▁featured	155
▁finance	155
▁formula	155
▁holes	155
▁oldest	155
▁residential	155
▁riding	155
▁testosterone	155
▁warnings	155
▁za	155
17)	154
ML	154
alling	154
anga	154
arks	154
asma	154
chargeable	154
cour	154
istry	154
ollar	154
rency	154
uzz	154
xtures	154
▁..	154
▁31,	154
▁Above	154
▁Authority	154
▁Bin	154
▁Brid	154
▁Eventually	154
▁Fear	154
▁Fu	154
▁GL	154
▁Ik	154
▁Kiev	154
▁PhD	154
▁Samar	154
▁Sapphire	154
▁achievements	154
▁bututu	154
▁capabilities	154
▁climate	154
▁delivering	154
▁govern	154
▁increasingly	154
▁manifested	154
▁punish	154
▁ties	154
▁understands	154
▁unusual	154
▁whe	154
-60	153
13)	153
LA	153
MM	153
commerce	153
hab	153
look	153
lywood	153
mw	153
oni	153
onial	153
otion	153
ynam	153
ʹ	153
▁71	153
▁84	153
▁Absalom	153
▁Active	153
▁Affairs	153
▁Compar	153
▁Conver	153
▁Fib	153
▁Henry	153
▁Ju	153
▁Kun	153
▁MU	153
▁Malaysia	153
▁Mats	153
▁Meet	153
▁Portugal	153
▁Relations	153
▁Swa	153
▁Umar	153
▁Wi	153
▁amongst	153
▁ange	153
▁arrives	153
▁attributes	153
▁beings	153
▁commended	153
▁definition	153
▁diet	153
▁fought	153
▁immune	153
▁ju	153
▁reminder	153
▁sect	153
▁symbolic	153
▁wid	153
▁winner	153
-08	152
120	152
6%	152
GP	152
OLV	152
SW	152
ached	152
aired	152
allow	152
arat	152
dered	152
eded	152
iation	152
ighty	152
issions	152
onn	152
oty	152
tail	152
uum	152
▁2/	152
▁25%	152
▁3)	152
▁Basin	152
▁Bond	152
▁Cabinet	152
▁Eb	152
▁Hist	152
▁Ident	152
▁Ku	152
▁Maria	152
▁Mold	152
▁Pros	152
▁Register	152
▁Ric	152
▁SIM	152
▁Senior	152
▁Syd	152
▁Telephone	152
▁UAE	152
▁banned	152
▁courts	152
▁ded	152
▁diabetes	152
▁exhaust	152
▁extraordinary	152
▁famine	152
▁immun	152
▁impart	152
▁lists	152
▁marine	152
▁observing	152
▁organize	152
▁proc	152
▁protecting	152
▁quar	152
▁rib	152
▁subm	152
▁surpass	152
60)	151
700	151
anking	151
eters	151
hua	151
oba	151
ür	151
ğ	151
▁1200	151
▁2012,	151
▁21.	151
▁Deputy	151
▁IF	151
▁Ide	151
▁Ireland	151
▁MON	151
▁Mining	151
▁Sher	151
▁acute	151
▁axis	151
▁booking	151
▁cameras	151
▁colour	151
▁communications	151
▁domains	151
▁employee	151
▁ens	151
▁excessive	151
▁filters	151
▁gener	151
▁hards	151
▁ho	151
▁kidna	151
▁maybe	151
▁pollution	151
▁pref	151
▁ski	151
▁subscribers	151
▁tare	151
▁vers	151
19)	150
Am	150
Baku	150
JA	150
Se	150
Shi	150
cetate	150
ected	150
ikawa	150
orb	150
zed	150
▁17.	150
▁Analysis	150
▁Innovative	150
▁Karfe	150
▁Nish	150
▁Recent	150
▁Richard	150
▁Schools	150
▁Wang	150
▁Yah	150
▁ash	150
▁contributed	150
▁contributions	150
▁countless	150
▁distant	150
▁dys	150
▁environments	150
▁figures	150
▁lif	150
▁oral	150
▁privileged	150
▁span	150
▁subjected	150
▁tobacco	150
▁transaction	150
▁urge	150
▁wasn	150
180	149
ample	149
arr	149
boards	149
cos	149
ests	149
flower	149
including	149
ivic	149
nik	149
ocur	149
piece	149
reb	149
reci	149
reet	149
spection	149
this	149
uman	149
▁(0	149
▁Daw	149
▁Denmark	149
▁Dun	149
▁Move	149
▁Nature	149
▁Recommend	149
▁Record	149
▁Ru	149
▁cabin	149
▁checking	149
▁delighted	149
▁drain	149
▁dread	149
▁inspiration	149
▁letting	149
▁linear	149
▁openly	149
▁staying	149
▁swe	149
▁terr	149
))	148
ULL	148
itle	148
ounted	148
ulin	148
▁1-2	148
▁101	148
▁Carl	148
▁Chapter	148
▁Fem	148
▁Fine	148
▁Gig	148
▁Hold	148
▁Ice	148
▁Liverpool	148
▁Mech	148
▁Rac	148
▁Tin	148
▁Yin	148
▁approaches	148
▁assume	148
▁coch	148
▁concepts	148
▁der	148
▁designing	148
▁fertil	148
▁fitness	148
▁hesitate	148
▁highlight	148
▁illegal	148
▁inspiring	148
▁modes	148
▁multip	148
▁pilot	148
▁scheme	148
▁sy	148
▁“”	148
(1	147
.3	147
123	147
BD	147
ECH	147
aft	147
angel	147
attle	147
cil	147
eches	147
elect	147
igan	147
isk	147
lig	147
respon	147
sky	147
≤	147
▁82	147
▁Drug	147
▁Growth	147
▁Jiang	147
▁Prices	147
▁Regional	147
▁Soph	147
▁Yi	147
▁alleg	147
▁anc	147
▁annually	147
▁attached	147
▁attacked	147
▁chlor	147
▁diverse	147
▁feat	147
▁formal	147
▁historic	147
▁implemented	147
▁inex	147
▁lifes	147
▁mata	147
▁operator	147
▁overwhelmed	147
▁progressive	147
▁tiny	147
▁treating	147
▁trustworthy	147
▁unexpected	147
▁wake	147
15)	146
1]	146
LM	146
RP	146
adh	146
amu	146
angle	146
iable	146
tenance	146
vation	146
vil	146
л	146
▁1998	146
▁2013,	146
▁23.	146
▁3.5	146
▁Ax	146
▁Bh	146
▁COMP	146
▁Cold	146
▁Coun	146
▁Eli	146
▁Jig	146
▁Kara	146
▁Karn	146
▁Managing	146
▁Nice	146
▁Prepar	146
▁SAR	146
▁SM	146
▁Starting	146
▁afflic	146
▁appreci	146
▁arose	146
▁climb	146
▁constructed	146
▁deaths	146
▁isolated	146
▁orientation	146
▁profits	146
▁recording	146
▁removing	146
▁rendering	146
▁respected	146
▁stret	146
▁supplements	146
ATA	145
NO	145
PO	145
adding	145
arest	145
ario	145
ea	145
fu	145
nov	145
ogn	145
quir	145
reme	145
rians	145
ubu	145
viv	145
yy	145
▁145	145
▁20.	145
▁Ezra	145
▁III	145
▁Mike	145
▁Pacific	145
▁Pharm	145
▁Ton	145
▁Weld	145
▁aren	145
▁barrier	145
▁circulation	145
▁domin	145
▁engines	145
▁feared	145
▁interact	145
▁ocean	145
▁pig	145
▁productivity	145
▁vain	145
▁voluntary	145
▁wisely	145
/19	144
FA	144
SD	144
alled	144
df	144
dro	144
etary	144
onal	144
otton	144
ourse	144
ste	144
uds	144
▁60%	144
▁Bearing	144
▁Comb	144
▁Gos	144
▁Hur	144
▁Ped	144
▁Rub	144
▁SW	144
▁Si	144
▁Veg	144
▁Visa	144
▁Were	144
▁bird	144
▁cement	144
▁consent	144
▁criminals	144
▁cruel	144
▁endless	144
▁foreigners	144
▁gap	144
▁inquiry	144
▁motive	144
▁protest	144
▁quotes	144
▁recipe	144
▁sole	144
▁spec	144
▁submitted	144
▁summ	144
▁tomorrow	144
▁vill	144
▁wins	144
ENG	143
TT	143
bor	143
ucle	143
ushing	143
ام	143
ِ	143
▁$50	143
▁1997	143
▁Caribbean	143
▁Dim	143
▁Inv	143
▁Mission	143
▁Past	143
▁Tuntuɓi	143
▁Ub	143
▁Xia	143
▁\	143
▁acceptance	143
▁broadcast	143
▁circle	143
▁convenience	143
▁directory	143
▁embrace	143
▁hoped	143
▁infections	143
▁jin	143
▁lithium	143
▁marking	143
▁ml	143
▁resume	143
▁returns	143
▁shops	143
▁ts	143
▁tub	143
amawa	142
hetic	142
him	142
ppers	142
rich	142
▁15%	142
▁Ahmad	142
▁Budd	142
▁Donald	142
▁Marc	142
▁Several	142
▁Title	142
▁Trend	142
▁bio	142
▁compact	142
▁cooking	142
▁disciplines	142
▁ensuring	142
▁films	142
▁goats	142
▁impe	142
▁irr	142
▁mac	142
▁maj	142
▁membership	142
▁mentions	142
▁plot	142
▁scen	142
▁settled	142
▁striving	142
▁willingness	142
)?	141
alan	141
band	141
craft	141
fold	141
iano	141
ibl	141
izmas	141
laimed	141
nels	141
orate	141
rome	141
uchi	141
uis	141
yt	141
ã	141
▁(37	141
▁1930	141
▁3,000	141
▁AI	141
▁Americans	141
▁Bor	141
▁Danish	141
▁Dual	141
▁Laun	141
▁Los	141
▁MINI	141
▁Nob	141
▁Projects	141
▁SOL	141
▁Tan	141
▁Universities	141
▁abnorm	141
▁absorb	141
▁adhere	141
▁affirm	141
▁afternoon	141
▁await	141
▁barrel	141
▁boss	141
▁breakfast	141
▁clubs	141
▁disabled	141
▁doll	141
▁fewer	141
▁foremost	141
▁insert	141
▁invest	141
▁marks	141
▁publis	141
▁purchasing	141
▁restaurants	141
▁seeks	141
▁shrink	141
▁struggling	141
▁technological	141
▁unw	141
▁withstand	141
【	141
ael	140
cture	140
ede	140
isi	140
licate	140
lov	140
ocking	140
organ	140
orous	140
tics	140
tw	140
▁ABS	140
▁Arewa	140
▁CJ	140
▁Creat	140
▁Earlier	140
▁GUNKI	140
▁Getting	140
▁Rating	140
▁Treas	140
▁Vladimir	140
▁coast	140
▁containers	140
▁grows	140
▁haven	140
▁legislation	140
▁mounted	140
▁percentage	140
▁pries	140
▁proceed	140
▁prospects	140
▁rigid	140
▁techn	140
35)	139
AMA	139
ANCE	139
TRY	139
assy	139
atives	139
aton	139
built	139
hao	139
inde	139
lan	139
pid	139
rant	139
reo	139
▁104	139
▁74	139
▁AV	139
▁Ayat	139
▁Changes	139
▁Costa	139
▁Cra	139
▁Hil	139
▁Space	139
▁Sturdy	139
▁ax	139
▁brick	139
▁cease	139
▁cognitive	139
▁consistently	139
▁din	139
▁disl	139
▁doubts	139
▁employed	139
▁epic	139
▁fer	139
▁functional	139
▁indicators	139
▁inj	139
▁intervention	139
▁isolation	139
▁jackpot	139
▁mathem	139
▁mess	139
▁parallel	139
▁sassa	139
▁slavery	139
▁slip	139
▁thorough	139
▁wealthy	139
】	139
/07	138
39)	138
ITED	138
Or	138
Pe	138
erity	138
ety	138
iza	138
omen	138
uation	138
←	138
▁25.	138
▁Additional	138
▁Jah	138
▁Johnson	138
▁Planning	138
▁Tek	138
▁absorption	138
▁activate	138
▁aiki	138
▁bell	138
▁belonging	138
▁capping	138
▁combine	138
▁deposits	138
▁disob	138
▁dra	138
▁eagerly	138
▁fastest	138
▁fing	138
▁lowest	138
▁ord	138
▁refugees	138
▁rewarding	138
/30	137
4-	137
Ha	137
Me	137
SU	137
ayama	137
cise	137
conf	137
etime	137
guard	137
hd	137
isure	137
lusive	137
olation	137
olin	137
site	137
▁$1.	137
▁40%	137
▁BC	137
▁Basel	137
▁Brussels	137
▁Certainly	137
▁Consult	137
▁Cosm	137
▁Emir	137
▁Frequ	137
▁Mosque	137
▁Nothing	137
▁WORK	137
▁Wine	137
▁agriculture	137
▁arrange	137
▁authorized	137
▁avoided	137
▁coping	137
▁council	137
▁drilling	137
▁dropped	137
▁dying	137
▁elections	137
▁expertise	137
▁fatigue	137
▁profession	137
▁reg	137
▁semi	137
▁ships	137
▁spin	137
▁suspected	137
▁wed	137
15.	136
2-	136
EMA	136
Os	136
Port	136
about	136
aced	136
anish	136
axial	136
ele	136
eper	136
euro	136
inent	136
ocated	136
opl	136
orin	136
prop	136
yle	136
▁92	136
▁BU	136
▁Benin	136
▁Cov	136
▁Hydro	136
▁Jean	136
▁Maj	136
▁Pu	136
▁Raven	136
▁Stream	136
▁Warrant	136
▁adoles	136
▁attempts	136
▁blocked	136
▁broker	136
▁exceptional	136
▁finger	136
▁finishing	136
▁immense	136
▁institutes	136
▁managers	136
▁modules	136
▁mood	136
▁mut	136
▁oppose	136
▁paths	136
▁qualifications	136
▁ranks	136
▁reflecting	136
▁reverse	136
▁sixth	136
▁spreading	136
▁taxes	136
▁thoroughly	136
▁tick	136
▁transformed	136
▁twin	136
▁venture	136
▁widespread	136
!)	135
MAR	135
agen	135
aji	135
bes	135
comm	135
cut	135
ensive	135
feed	135
fute	135
onto	135
outh	135
paper	135
rend	135
sed	135
si	135
ushed	135
û	135
λ	135
▁4000	135
▁Brazilian	135
▁Cath	135
▁Consequently	135
▁Cub	135
▁Du	135
▁Fushi	135
▁Gumi	135
▁Gw	135
▁Invest	135
▁MAT	135
▁Newcastle	135
▁None	135
▁Otherwise	135
▁Partner	135
▁Winter	135
▁acetate	135
▁adul	135
▁ashamed	135
▁bulk	135
▁cannabis	135
▁conceal	135
▁discharge	135
▁est	135
▁frequent	135
▁fro	135
▁highlighted	135
▁navig	135
▁politicians	135
▁sam	135
▁sem	135
▁surprising	135
▁torture	135
▁unve	135
▁volunteers	135
▁weekend	135
▁zo	135
/2020	134
ico	134
isco	134
ointed	134
onavirus	134
struct	134
▁Anyone	134
▁EV	134
▁Environmental	134
▁Kab	134
▁Nat	134
▁Task	134
▁activation	134
▁cheaper	134
▁chemicals	134
▁commented	134
▁effectiveness	134
▁elsewhere	134
▁enlight	134
▁forgotten	134
▁hospitals	134
▁inspect	134
▁measurement	134
▁mounting	134
▁partial	134
▁penalty	134
▁pocket	134
▁protocol	134
▁reporting	134
▁sevent	134
2/	133
32.	133
8/	133
JI	133
SL	133
SM	133
anged	133
elt	133
home	133
ording	133
pat	133
ras	133
ston	133
unting	133
verter	133
ī	133
▁0.1	133
▁Atoll	133
▁Bang	133
▁Def	133
▁Final	133
▁Kr	133
▁Norwegian	133
▁Rod	133
▁`	133
▁administrative	133
▁appealing	133
▁centrif	133
▁correction	133
▁dance	133
▁factories	133
▁fake	133
▁identifies	133
▁infant	133
▁kw	133
▁les	133
▁programmes	133
▁puzz	133
▁radiation	133
▁serial	133
▁solely	133
▁textile	133
/24	132
AKE	132
Ind	132
aris	132
bag	132
categ	132
cession	132
cou	132
izhou	132
jia	132
lesh	132
nel	132
oning	132
ْ	132
▁185	132
▁Ahl	132
▁Buk	132
▁Hit	132
▁Medium	132
▁Omar	132
▁Physics	132
▁Protest	132
▁Sum	132
▁appliances	132
▁assembled	132
▁boast	132
▁cle	132
▁considers	132
▁contest	132
▁discussing	132
▁dogs	132
▁failing	132
▁fairly	132
▁fet	132
▁incredible	132
▁odds	132
▁outlook	132
▁phrases	132
▁promoted	132
▁roots	132
▁segment	132
▁sophisticated	132
▁steady	132
▁tooth	132
▁tun	132
▁turb	132
▁visa	132
◆	132
/14	131
10)	131
But	131
Hot	131
agi	131
asanjo	131
chain	131
inging	131
ivation	131
izable	131
lict	131
nah	131
ulum	131
urance	131
uren	131
venue	131
zawa	131
{	131
≥	131
▁170	131
▁Ajiye	131
▁Currency	131
▁Firm	131
▁Hond	131
▁NG	131
▁Nap	131
▁bone	131
▁chol	131
▁commissioned	131
▁deserves	131
▁equ	131
▁ext	131
▁facebook	131
▁fulfilling	131
▁magnificent	131
▁mak	131
▁presidency	131
▁priorities	131
▁ranked	131
▁responding	131
▁seats	131
▁skilled	131
▁tall	131
▁timing	131
▁tip	131
▁treatments	131
♪	131
/25	130
105	130
20.	130
32)	130
50)	130
abolic	130
aca	130
adies	130
adow	130
arant	130
bound	130
icious	130
ieving	130
lasting	130
oting	130
roduct	130
scale	130
ُ	130
▁1.0	130
▁123	130
▁2-3	130
▁Airc	130
▁Broad	130
▁Cyr	130
▁Events	130
▁Generation	130
▁Gil	130
▁IG	130
▁Labor	130
▁Masters	130
▁Nation	130
▁Op	130
▁Region	130
▁Tunnel	130
▁Venice	130
▁announcement	130
▁cleansing	130
▁distinct	130
▁doctrine	130
▁entertain	130
▁equally	130
▁fig	130
▁hence	130
▁heritage	130
▁holder	130
▁ignorance	130
▁lim	130
▁perceived	130
▁portal	130
▁quarter	130
▁rein	130
▁threats	130
▁ultimately	130
▁ultr	130
▁underlying	130
▁valued	130
14)	129
DER	129
LIS	129
NC	129
VIS	129
[1]	129
cont	129
deb	129
empt	129
eting	129
hard	129
igi	129
itement	129
kind	129
lab	129
two	129
ufact	129
usi	129
zen	129
▁128	129
▁5.5	129
▁650	129
▁Abs	129
▁Architect	129
▁Cyber	129
▁Dist	129
▁ME	129
▁Mayor	129
▁Mt	129
▁Overview	129
▁Regardless	129
▁Useful	129
▁arr	129
▁disasters	129
▁gravity	129
▁hardship	129
▁honesty	129
▁intentions	129
▁ir	129
▁kilomet	129
▁milit	129
▁missed	129
▁persist	129
▁possibilities	129
▁proves	129
▁scheduled	129
▁tact	129
▁tar	129
80)	128
Bu	128
Commerce	128
ahi	128
alls	128
atible	128
bank	128
igu	128
ouble	128
pot	128
ristian	128
san	128
uster	128
е	128
▁2014.	128
▁Ale	128
▁Cin	128
▁Economics	128
▁Fig	128
▁Ivan	128
▁Joint	128
▁KR	128
▁LEAD	128
▁Maid	128
▁Output	128
▁Results	128
▁Throughout	128
▁Willi	128
▁alike	128
▁charg	128
▁complicated	128
▁engagement	128
▁olive	128
▁passes	128
▁prime	128
▁prot	128
▁som	128
▁watched	128
1.1	127
2.0	127
EO	127
GF	127
ICS	127
akam	127
alid	127
anced	127
eline	127
foot	127
icted	127
inge	127
ller	127
oki	127
oos	127
▁AU	127
▁Experience	127
▁Seven	127
▁Specif	127
▁Strip	127
▁bind	127
▁ceiling	127
▁collaboration	127
▁combat	127
▁counted	127
▁craft	127
▁decrease	127
▁dispute	127
▁donation	127
▁flexibility	127
▁heavily	127
▁implies	127
▁masters	127
▁mic	127
▁mor	127
▁morally	127
▁optimal	127
▁proclaimed	127
▁productive	127
▁rab	127
▁relation	127
▁silence	127
▁stuck	127
▁tourist	127
▁tur	127
▁uphold	127
▁verification	127
▁vind	127
▁weigh	127
▁western	127
▷	127
OND	126
Spe	126
dig	126
houses	126
iman	126
lude	126
oya	126
rak	126
uer	126
urity	126
via	126
▁Americas	126
▁Athens	126
▁Barb	126
▁DON	126
▁Dom	126
▁Karl	126
▁Left	126
▁Norway	126
▁Samui	126
▁Snow	126
▁Sri	126
▁Stan	126
▁accredited	126
▁arts	126
▁capability	126
▁caps	126
▁cert	126
▁champions	126
▁conventional	126
▁dad	126
▁grants	126
▁guarantees	126
▁guilt	126
▁hang	126
▁identification	126
▁nervous	126
▁perm	126
▁roles	126
▁supposed	126
▁tel	126
▁terror	126
▁towns	126
▁transfers	126
★	126
️	126
/0	125
3]	125
Can	125
END	125
ORT	125
ago	125
bin	125
ixed	125
ollah	125
ooth	125
▁Background	125
▁CPA	125
▁Countries	125
▁Egyptians	125
▁Iv	125
▁Joe	125
▁Medina	125
▁Sant	125
▁Sell	125
▁Smith	125
▁Vent	125
▁WA	125
▁accepts	125
▁biological	125
▁characterized	125
▁exclusively	125
▁hunger	125
▁investigation	125
▁laboratories	125
▁livestock	125
▁networking	125
▁owns	125
▁pace	125
▁patent	125
▁renowned	125
▁somewhat	125
.1	124
125	124
170	124
IX	124
TON	124
adel	124
anted	124
asive	124
bour	124
elle	124
gas	124
iety	124
ihu	124
inese	124
iva	124
joy	124
know	124
pie	124
sis	124
stop	124
test	124
Ç	124
о	124
▁105	124
▁26.	124
▁Acad	124
▁Brothers	124
▁COM	124
▁Las	124
▁Lib	124
▁Millions	124
▁RA	124
▁SG	124
▁Shia	124
▁connections	124
▁derived	124
▁egg	124
▁explaining	124
▁expose	124
▁grat	124
▁hat	124
▁participating	124
▁precisely	124
▁prevents	124
▁prof	124
▁regarded	124
▁regulation	124
▁steam	124
▁threshold	124
▁tremendous	124
▁tum	124
▁variable	124
-2020	123
ANA	123
ISE	123
YO	123
arawa	123
cue	123
ferences	123
human	123
igur	123
imal	123
infl	123
iyama	123
ogram	123
olved	123
omo	123
ooting	123
osterone	123
oton	123
ovo	123
ó	123
▁Cameroon	123
▁DM	123
▁Environment	123
▁Front	123
▁IB	123
▁Jam	123
▁Jim	123
▁Lut	123
▁Nokia	123
▁PER	123
▁Technologies	123
▁chicken	123
▁closing	123
▁dup	123
▁fever	123
▁fifty	123
▁gene	123
▁laying	123
▁memories	123
▁mo	123
▁poison	123
▁preferences	123
▁relieve	123
▁scratch	123
▁shaped	123
	123
.50	122
ARY	122
CHA	122
General	122
ague	122
anol	122
asi	122
aying	122
azi	122
erous	122
olo	122
tem	122
ymas	122
”)	122
▁*****	122
▁Annual	122
▁Around	122
▁BBC	122
▁Housing	122
▁Mall	122
▁Monitoring	122
▁Nord	122
▁Olympic	122
▁Vit	122
▁activated	122
▁admits	122
▁awards	122
▁billions	122
▁devote	122
▁disposable	122
▁economical	122
▁inn	122
▁mad	122
▁nuclear	122
▁oper	122
▁potentially	122
▁scores	122
▁trick	122
▁unlike	122
▁urban	122
▁wag	122
▁ف	122
110	121
350	121
IFI	121
See	121
agues	121
apes	121
car	121
custom	121
endly	121
ideo	121
pay	121
phas	121
then	121
try	121
wear	121
▁2013.	121
▁4.0	121
▁Cartrend	121
▁Creation	121
▁ED	121
▁Educ	121
▁GRE	121
▁Hakata	121
▁Hay	121
▁Indic	121
▁Infrastructure	121
▁Jur	121
▁Lat	121
▁Les	121
▁Recently	121
▁Simply	121
▁Solom	121
▁Spin	121
▁TU	121
▁Vietnam	121
▁admission	121
▁advise	121
▁amid	121
▁arrogant	121
▁bid	121
▁compensation	121
▁curve	121
▁designated	121
▁embarrass	121
▁fr	121
▁fur	121
▁hanging	121
▁ign	121
▁placing	121
▁policies	121
▁regulated	121
▁respects	121
▁situated	121
▁trap	121
▁undoubtedly	121
▁weapon	121
▁yi	121
-05	120
169	120
3.0	120
PP	120
acking	120
actions	120
aine	120
alam	120
aly	120
aping	120
conn	120
http	120
party	120
rators	120
resistant	120
standing	120
stra	120
tor	120
uble	120
▁2009,	120
▁Abba	120
▁Accordingly	120
▁Event	120
▁Guardian	120
▁Guinea	120
▁Half	120
▁Initiative	120
▁Iraq	120
▁Kuma	120
▁Munich	120
▁Sen	120
▁Tanzania	120
▁XL	120
▁bann	120
▁behaviour	120
▁boards	120
▁characteristic	120
▁coach	120
▁compromise	120
▁demanding	120
▁desk	120
▁emphasized	120
▁excess	120
▁improper	120
▁indicating	120
▁influential	120
▁interpretation	120
▁kil	120
▁loose	120
▁mock	120
▁od	120
▁permanently	120
▁presum	120
▁reinforced	120
▁rotation	120
▁spots	120
▁verified	120
/08	119
/17	119
Bar	119
aky	119
arket	119
athon	119
don	119
encing	119
imer	119
odia	119
pir	119
road	119
trib	119
urers	119
utsch	119
who	119
will	119
к	119
▁103	119
▁1996	119
▁20,000	119
▁Approximately	119
▁Chan	119
▁DIS	119
▁Kenn	119
▁Presidential	119
▁Prize	119
▁Shell	119
▁Target	119
▁amazed	119
▁attribute	119
▁brake	119
▁dawn	119
▁esteem	119
▁expanding	119
▁hub	119
▁mach	119
▁mineral	119
▁peers	119
▁positioning	119
▁proving	119
▁rebell	119
▁reside	119
▁swing	119
▁thinks	119
▁trib	119
3),	118
FS	118
ais	118
ante	118
ashe	118
atta	118
ective	118
icked	118
idence	118
isu	118
ither	118
lling	118
nings	118
teries	118
î	118
▁0.00	118
▁2008,	118
▁320	118
▁Along	118
▁Ath	118
▁BA	118
▁Capacity	118
▁Diam	118
▁FIFA	118
▁HR	118
▁Indonesian	118
▁Languages	118
▁Present	118
▁REG	118
▁Sinai	118
▁Sure	118
▁Trad	118
▁Victor	118
▁af	118
▁backgrounds	118
▁carries	118
▁centres	118
▁dimensions	118
▁evaluation	118
▁expenses	118
▁fantastic	118
▁fascin	118
▁gloss	118
▁grip	118
▁las	118
▁mothers	118
▁necess	118
▁organs	118
▁patents	118
▁prevail	118
▁sensitivity	118
▁sustained	118
▁tourists	118
▁triumph	118
-03	117
160	117
7/	117
ATED	117
BL	117
FO	117
PH	117
SK	117
abol	117
asaki	117
ault	117
chn	117
cience	117
comp	117
ersed	117
fty	117
iture	117
ourcing	117
quire	117
sue	117
tar	117
umen	117
uno	117
width	117
¥	117
▁(36	117
▁108	117
▁CV	117
▁Directorate	117
▁Finland	117
▁Ign	117
▁Internal	117
▁Magnetic	117
▁Mont	117
▁Rica	117
▁TRIP	117
▁Temporary	117
▁Vin	117
▁Zamfara	117
▁arriving	117
▁availability	117
▁binding	117
▁boom	117
▁confronted	117
▁cultures	117
▁disappointed	117
▁divisions	117
▁drinks	117
▁enters	117
▁fare	117
▁freed	117
▁hoping	117
▁identifying	117
▁largely	117
▁mom	117
▁proportion	117
▁recovered	117
▁regain	117
▁responses	117
▁rum	117
▁secrets	117
▁sporting	117
▁stimulate	117
▁suicide	117
▁talked	117
▁unnecessary	117
▁waited	117
▁wholeheartedly	117
-23	116
BI	116
ENS	116
LS	116
TI	116
agogical	116
ertion	116
ffic	116
iate	116
ificial	116
kov	116
nes	116
onel	116
orious	116
rug	116
shop	116
unal	116
▁1.1	116
▁106	116
▁Brian	116
▁Fuel	116
▁Individual	116
▁Jane	116
▁Kas	116
▁Maiduguri	116
▁Ze	116
▁abide	116
▁absence	116
▁accounting	116
▁addressing	116
▁adm	116
▁array	116
▁aver	116
▁backs	116
▁bay	116
▁betray	116
▁breaks	116
▁checked	116
▁cubic	116
▁demon	116
▁euros	116
▁exile	116
▁founding	116
▁ingredients	116
▁ladies	116
▁lawyer	116
▁observes	116
▁persistent	116
▁ports	116
▁pursued	116
▁stops	116
▁territories	116
▁toxic	116
▁transmit	116
▁transmitted	116
公	116
-09	115
-27	115
FI	115
GR	115
KI	115
Mus	115
atabase	115
bert	115
icle	115
idel	115
jiang	115
ographs	115
racted	115
razy	115
rench	115
space	115
▁112	115
▁5)	115
▁Analy	115
▁Argentina	115
▁BI	115
▁Bug	115
▁COUN	115
▁CRI	115
▁Documents	115
▁Elizabeth	115
▁Fas	115
▁Fruit	115
▁Gad	115
▁Inquiry	115
▁Investment	115
▁Kans	115
▁Macedonia	115
▁Maybe	115
▁Nagoya	115
▁Spir	115
▁[1]	115
▁anxieties	115
▁appointments	115
▁decade	115
▁describing	115
▁diver	115
▁dozens	115
▁empire	115
▁globally	115
▁jar	115
▁matching	115
▁orange	115
▁pard	115
▁permits	115
▁sav	115
▁succeeded	115
▁til	115
▁undergo	115
▁Ö	115
里	115
140	114
38)	114
6.0	114
ANK	114
ASO	114
ENTION	114
ailing	114
ayan	114
build	114
cked	114
erman	114
inson	114
loading	114
million	114
udan	114
ullah	114
ذ	114
ض	114
▁22.	114
▁Biden	114
▁Pakistan	114
▁administ	114
▁adverse	114
▁avail	114
▁bapt	114
▁bomb	114
▁buff	114
▁caution	114
▁demanded	114
▁diagnostic	114
▁distrib	114
▁enabling	114
▁honestly	114
▁islands	114
▁judicial	114
▁posting	114
▁ranges	114
▁realm	114
▁successor	114
▁tracks	114
-19.	113
AKI	113
almon	113
anci	113
arily	113
books	113
charge	113
erness	113
front	113
good	113
ican	113
ignment	113
itten	113
lements	113
owned	113
pose	113
respect	113
source	113
utions	113
Ü	113
حک	113
▁4)	113
▁81	113
▁ATM	113
▁Florence	113
▁Hungary	113
▁MUS	113
▁Moving	113
▁Mut	113
▁PRODUC	113
▁Phase	113
▁Proper	113
▁RoHS	113
▁Ship	113
▁Skills	113
▁Workers	113
▁accommod	113
▁aluminium	113
▁amb	113
▁assessment	113
▁associ	113
▁captured	113
▁fierce	113
▁gamb	113
▁handled	113
▁holidays	113
▁hormones	113
▁ignor	113
▁metals	113
▁penet	113
▁recalled	113
▁renew	113
▁slowly	113
▁structures	113
▁temporarily	113
▁tourism	113
▁toys	113
▁км	113
450	112
afi	112
aska	112
avi	112
ayin	112
door	112
ifer	112
inda	112
lines	112
nat	112
oye	112
qi	112
rim	112
roleum	112
rupted	112
sters	112
yin	112
ε	112
С	112
▁1995	112
▁Agriculture	112
▁Associ	112
▁Eco	112
▁Fel	112
▁Giving	112
▁Intel	112
▁Kenya	112
▁Member	112
▁Opening	112
▁Sudan	112
▁Understanding	112
▁WiFi	112
▁amaz	112
▁bare	112
▁circular	112
▁divide	112
▁examined	112
▁exception	112
▁expressing	112
▁fails	112
▁functioning	112
▁gam	112
▁generosity	112
▁grid	112
▁legally	112
▁obligatory	112
▁ours	112
▁overlook	112
▁sau	112
▁selecting	112
▁sentences	112
▁shipment	112
▁surge	112
▁unwise	112
▁villages	112
▁wages	112
BE	111
Cont	111
ISA	111
anti	111
info	111
ogical	111
oub	111
prot	111
raction	111
saving	111
style	111
thing	111
umping	111
zin	111
▁102	111
▁194	111
▁2010,	111
▁Amilla	111
▁Dai	111
▁MAI	111
▁Revolution	111
▁SY	111
▁Saitama	111
▁Unless	111
▁Value	111
▁argument	111
▁backed	111
▁competent	111
▁complaint	111
▁corridor	111
▁employer	111
▁err	111
▁euro	111
▁exercised	111
▁gains	111
▁gang	111
▁measuring	111
▁mixture	111
▁petroleum	111
▁pressing	111
▁promising	111
▁stating	111
▁surveillance	111
▁terrorist	111
▁wool	111
',	110
ADA	110
AKA	110
anium	110
appro	110
arly	110
cies	110
ensity	110
ibly	110
irl	110
irts	110
jet	110
take	110
there	110
ughter	110
urin	110
works	110
฿	110
▁1.4	110
▁50,000	110
▁Applic	110
▁CP	110
▁Division	110
▁Eas	110
▁Exper	110
▁Horizon	110
▁Impact	110
▁Integ	110
▁JAPAN	110
▁Judges	110
▁Lebanon	110
▁Louis	110
▁Mumbai	110
▁Naira	110
▁Transpa	110
▁alter	110
▁anchor	110
▁baggage	110
▁buyers	110
▁catal	110
▁conflicts	110
▁disturbed	110
▁eas	110
▁enjoys	110
▁establishing	110
▁exchanges	110
▁gina	110
▁leaf	110
▁lux	110
▁mall	110
▁participated	110
▁phosph	110
▁sorry	110
▁testify	110
▁upcoming	110
ERSHIP	109
LOW	109
amo	109
anz	109
arc	109
engers	109
eworthy	109
gart	109
gn	109
inian	109
kage	109
ludes	109
rec	109
ulous	109
usan	109
wed	109
▁Bat	109
▁Economy	109
▁Magn	109
▁Minsk	109
▁Pi	109
▁Pier	109
▁Sai	109
▁Tall	109
▁Turai	109
▁authors	109
▁babies	109
▁builds	109
▁confusion	109
▁dependent	109
▁distribute	109
▁establishments	109
▁hint	109
▁humanity	109
▁impl	109
▁imposed	109
▁judging	109
▁loop	109
▁mile	109
▁obviously	109
▁organisation	109
▁prevented	109
▁preventing	109
▁raises	109
▁refrain	109
▁releases	109
▁risks	109
▁san	109
▁satellite	109
▁separately	109
▁soldier	109
▁species	109
▁spo	109
▁structural	109
▁supporters	109
▁tatt	109
▁translators	109
▁troubles	109
▁virtually	109
Arab	108
aks	108
anya	108
ingle	108
innitus	108
iral	108
iso	108
oa	108
ograp	108
othing	108
rained	108
verse	108
vest	108
where	108
à	108
غ	108
▁5,000	108
▁550	108
▁Armenia	108
▁Emmanuel	108
▁Fred	108
▁Lan	108
▁Links	108
▁Nin	108
▁Shan	108
▁Silicon	108
▁Tourism	108
▁commemor	108
▁delivers	108
▁departure	108
▁eastern	108
▁fran	108
▁fruitful	108
▁gran	108
▁ing	108
▁interchange	108
▁liked	108
▁minimal	108
▁nic	108
▁nin	108
▁reacted	108
▁respective	108
▁retr	108
▁salary	108
▁strengthens	108
▁survived	108
▁tackles	108
▁transformation	108
▁wage	108
IGA	107
She	107
Yes	107
cet	107
ej	107
elled	107
emy	107
has	107
kar	107
nan	107
raying	107
▁1991	107
▁AIDS	107
▁Anne	107
▁Awards	107
▁Bash	107
▁Cre	107
▁Hans	107
▁Late	107
▁Lyon	107
▁MAC	107
▁Mari	107
▁Marsh	107
▁Opp	107
▁Ri	107
▁Scotland	107
▁TB	107
▁Zur	107
▁alm	107
▁apolog	107
▁automobile	107
▁awaiting	107
▁challenged	107
▁educated	107
▁examining	107
▁extends	107
▁gallery	107
▁hal	107
▁improvements	107
▁judgement	107
▁laun	107
▁partition	107
▁realistic	107
▁reasoned	107
▁reception	107
▁recommends	107
▁reflection	107
▁rig	107
▁shy	107
▁striking	107
▁subsequent	107
▁synchron	107
▁tomato	107
▁warfare	107
▁wr	107
-28	106
URES	106
akh	106
asia	106
called	106
enh	106
general	106
hest	106
ista	106
mann	106
oung	106
ovoltaic	106
ucks	106
uran	106
▁188	106
▁6.0	106
▁Animal	106
▁BRE	106
▁Disease	106
▁Dup	106
▁Lif	106
▁Mik	106
▁Plans	106
▁Ple	106
▁Princess	106
▁Satin	106
▁Tas	106
▁WR	106
▁adapted	106
▁celebration	106
▁compatibility	106
▁contracts	106
▁critics	106
▁cyc	106
▁disin	106
▁dramatic	106
▁emphasize	106
▁enhanced	106
▁exemplary	106
▁farmer	106
▁flex	106
▁heated	106
▁homeland	106
▁landing	106
▁precip	106
▁prest	106
▁recommendations	106
▁rival	106
▁routes	106
▁sec	106
▁slaughter	106
▁stim	106
▁vigilant	106
▁whis	106
▁zuwa	106
.).	105
ICAL	105
ICH	105
Le	105
anc	105
anian	105
arel	105
atal	105
eda	105
ensed	105
eze	105
ilit	105
indu	105
itical	105
perial	105
safe	105
sized	105
sson	105
uded	105
zb	105
¢	105
α	105
р	105
▁(“	105
▁0.2	105
▁Answers	105
▁Aviation	105
▁Bureau	105
▁CONT	105
▁Dal	105
▁Delhi	105
▁Francis	105
▁Practice	105
▁Vi	105
▁administer	105
▁cited	105
▁coverage	105
▁detected	105
▁dinner	105
▁ending	105
▁forecast	105
▁gauge	105
▁grey	105
▁guess	105
▁internationally	105
▁op	105
▁pointing	105
▁prohibited	105
▁renewed	105
▁revol	105
▁savings	105
▁talent	105
▁targeted	105
▁unle	105
304	104
allo	104
cf	104
cur	104
din	104
frame	104
osp	104
oster	104
rupt	104
vable	104
▁135	104
▁Altern	104
▁Asse	104
▁Bah	104
▁Harm	104
▁Initial	104
▁NC	104
▁Setting	104
▁Terr	104
▁Together	104
▁USSR	104
▁accordingly	104
▁activ	104
▁adolescents	104
▁behave	104
▁camps	104
▁cerem	104
▁cheese	104
▁compliance	104
▁contempl	104
▁depressed	104
▁doses	104
▁fits	104
▁fra	104
▁immigrants	104
▁injured	104
▁insist	104
▁longest	104
▁luck	104
▁misle	104
▁obtaining	104
▁overwhelming	104
▁pharmac	104
▁profess	104
▁prompted	104
▁remembering	104
▁sadd	104
▁safer	104
▁typ	104
▁upset	104
▁volumes	104
▁wanting	104
▁weaken	104
-29	103
101	103
ASA	103
EY	103
LL	103
MU	103
aik	103
amba	103
efficient	103
erted	103
esters	103
fil	103
gov	103
hor	103
irty	103
ocr	103
onan	103
onymous	103
opol	103
rehen	103
rier	103
some	103
teen	103
vernight	103
▁380	103
▁Bulgaria	103
▁Carolina	103
▁Charl	103
▁Fer	103
▁Nort	103
▁Num	103
▁Representatives	103
▁Unity	103
▁Wan	103
▁Whenever	103
▁accommodate	103
▁advertise	103
▁announcements	103
▁artists	103
▁bush	103
▁conditioning	103
▁const	103
▁correspond	103
▁dreams	103
▁gly	103
▁imprisoned	103
▁lawful	103
▁occupied	103
▁onset	103
▁oppression	103
▁prey	103
▁psychological	103
▁solemn	103
▁stolen	103
▁suspended	103
▁unsc	103
▁vote	103
█	103
1.2	102
agar	102
aja	102
alities	102
arers	102
eem	102
erring	102
formed	102
found	102
ifts	102
iological	102
isation	102
iyo	102
izations	102
lish	102
onic	102
riction	102
roduced	102
sect	102
umps	102
▁115	102
▁Commerce	102
▁FI	102
▁HA	102
▁HO	102
▁HU	102
▁Pric	102
▁Problems	102
▁Rein	102
▁Rig	102
▁SERV	102
▁Shinsaibashi	102
▁badly	102
▁capac	102
▁collecting	102
▁commence	102
▁committing	102
▁competitors	102
▁deepen	102
▁diploma	102
▁eighth	102
▁embraced	102
▁evaluate	102
▁guiding	102
▁illustrated	102
▁illustrates	102
▁intermediate	102
▁investments	102
▁nas	102
▁occasionally	102
▁punished	102
▁sectors	102
▁terrorists	102
▁trips	102
▁varies	102
20,	101
2]	101
ABLE	101
At	101
TEN	101
abo	101
bro	101
downs	101
ifa	101
osph	101
osure	101
ported	101
selling	101
upp	101
video	101
▁Atl	101
▁Ganduje	101
▁Ho	101
▁Kawasaki	101
▁Retail	101
▁Somali	101
▁Syrian	101
▁Tele	101
▁accompany	101
▁adv	101
▁attributed	101
▁bes	101
▁bot	101
▁bre	101
▁cake	101
▁carpet	101
▁closest	101
▁daga	101
▁dismissed	101
▁dominant	101
▁enzy	101
▁genetic	101
▁invites	101
▁jail	101
▁kits	101
▁lad	101
▁lunch	101
▁occup	101
▁overly	101
▁ratings	101
▁restricted	101
▁seize	101
▁shelter	101
▁shir	101
▁signing	101
▁straw	101
▁tenth	101
▁tro	101
▁withdrawal	101
▁zones	101
❤	101
6]	100
HU	100
INO	100
MW	100
Press	100
Su	100
World	100
akan	100
ambers	100
atom	100
bat	100
bul	100
etra	100
gal	100
ici	100
ilingual	100
itudes	100
jar	100
okes	100
onders	100
ruits	100
stream	100
taining	100
urate	100
▁4.5	100
▁Advert	100
▁Akai	100
▁BT	100
▁Cas	100
▁Creative	100
▁Dig	100
▁Ger	100
▁Laboratory	100
▁Prevention	100
▁Roc	100
▁Ryan	100
▁Southern	100
▁calib	100
▁connecting	100
▁consum	100
▁crossed	100
▁exceeds	100
▁favored	100
▁fright	100
▁individually	100
▁meantime	100
▁modify	100
▁qual	100
▁reconciliation	100
▁resident	100
▁revealing	100
▁viruses	100
▁volunteer	100
4]	99
IGN	99
SF	99
abel	99
anguage	99
arsh	99
bers	99
bing	99
bolone	99
erated	99
icts	99
iful	99
lay	99
mented	99
mus	99
prud	99
sets	99
sid	99
tel	99
unes	99
utors	99
ν	99
м	99
▁2007,	99
▁5.0	99
▁Chicago	99
▁Ec	99
▁Eth	99
▁Hai	99
▁Improve	99
▁Kol	99
▁LA	99
▁LV	99
▁Nau	99
▁Resource	99
▁Santa	99
▁Sud	99
▁analog	99
▁autom	99
▁bonds	99
▁classified	99
▁concentrate	99
▁confused	99
▁counting	99
▁desperate	99
▁dimension	99
▁enormous	99
▁estimate	99
▁experiment	99
▁grounds	99
▁heading	99
▁intake	99
▁interaction	99
▁listing	99
▁losses	99
▁notable	99
▁picked	99
▁poll	99
▁simultaneously	99
▁standpoint	99
▁tram	99
▁unfair	99
▁vulnerable	99
▁warmly	99
▁winners	99
''	98
485	98
VD	98
argo	98
estic	98
esy	98
hol	98
ibe	98
isl	98
itr	98
pend	98
rought	98
ruption	98
sch	98
uga	98
▁Almost	98
▁Century	98
▁Corps	98
▁HIV	98
▁Holland	98
▁Kad	98
▁Mixed	98
▁Mun	98
▁PRESS	98
▁PU	98
▁Partners	98
▁Southeast	98
▁TT	98
▁Vict	98
▁Yemen	98
▁accreditation	98
▁addiction	98
▁advert	98
▁aggressive	98
▁brilliant	98
▁completing	98
▁composition	98
▁consp	98
▁construct	98
▁contributes	98
▁convince	98
▁criteria	98
▁cycles	98
▁distinguished	98
▁doubled	98
▁educ	98
▁enthusiasm	98
▁environmentally	98
▁extending	98
▁findings	98
▁formerly	98
▁gon	98
▁hid	98
▁hypocrisy	98
▁insurg	98
▁knock	98
▁mob	98
▁obligations	98
▁pays	98
▁pipeline	98
▁prejudice	98
▁propaganda	98
▁references	98
▁reform	98
▁refriger	98
▁retain	98
▁saf	98
▁spiral	98
▁spokesman	98
▁vegetables	98
▁wondering	98
■	98
.5%	97
380	97
AU	97
Car	97
ROM	97
access	97
anned	97
bur	97
far	97
going	97
immer	97
jan	97
paign	97
roph	97
station	97
stein	97
unic	97
yon	97
▁175	97
▁1920	97
▁2011,	97
▁24.	97
▁Adamu	97
▁Carm	97
▁Given	97
▁Jama	97
▁Occ	97
▁REC	97
▁TA	97
▁Usman	97
▁Yahaya	97
▁adequate	97
▁argue	97
▁campaigns	97
▁crops	97
▁cs	97
▁demonstrates	97
▁demonstration	97
▁fier	97
▁interviews	97
▁jer	97
▁maximize	97
▁noteworthy	97
▁noting	97
▁nurses	97
▁renewal	97
▁synthesis	97
107	96
4.0	96
8.0	96
95)	96
EAR	96
GL	96
NUMX	96
PY	96
acity	96
alth	96
bus	96
charged	96
cia	96
cular	96
enna	96
ete	96
kes	96
olone	96
osen	96
rones	96
uya	96
▁107	96
▁BET	96
▁Depart	96
▁Der	96
▁Greater	96
▁Kin	96
▁Lanta	96
▁Liu	96
▁Resear	96
▁VAT	96
▁conceived	96
▁controlling	96
▁corrected	96
▁credits	96
▁decisive	96
▁defeated	96
▁dementia	96
▁diagnosed	96
▁disposed	96
▁diversity	96
▁firms	96
▁launches	96
▁lesser	96
▁march	96
▁promptly	96
▁retired	96
▁spaces	96
▁spark	96
▁tactics	96
▁tendencies	96
▁tragic	96
▁trillion	96
▁useless	96
ATS	95
ando	95
big	95
ello	95
ether	95
iji	95
inar	95
inu	95
itness	95
night	95
selves	95
stit	95
ugg	95
uries	95
מ	95
▁1940	95
▁1992	95
▁ACC	95
▁Albert	95
▁Bil	95
▁Bos	95
▁Collect	95
▁Daga	95
▁Gran	95
▁Hassan	95
▁IL	95
▁ITA	95
▁Judgment	95
▁Marg	95
▁Milk	95
▁Notes	95
▁Obs	95
▁SAM	95
▁STA	95
▁Simpl	95
▁Sou	95
▁Ster	95
▁Zak	95
▁cargo	95
▁compete	95
▁corporations	95
▁cred	95
▁cro	95
▁dirty	95
▁disgrace	95
▁elected	95
▁flags	95
▁humili	95
▁independently	95
▁inji	95
▁logistics	95
▁mistaken	95
▁motivation	95
▁movements	95
▁particles	95
▁potatoes	95
▁radical	95
▁relating	95
▁sacr	95
▁somehow	95
▁weighed	95
▁worried	95
▁worthwhile	95
～	95
115	94
abric	94
alli	94
amental	94
drop	94
endar	94
ighting	94
mical	94
omer	94
oyi	94
plo	94
rian	94
rior	94
riptions	94
rust	94
spe	94
yards	94
ɗa	94
▁1993	94
▁210	94
▁720	94
▁CAR	94
▁Cars	94
▁Cities	94
▁Dare	94
▁Domestic	94
▁Examples	94
▁FRAME	94
▁Lines	94
▁Officer	94
▁PSA	94
▁Require	94
▁Sah	94
▁WEL	94
▁XX	94
▁airports	94
▁answering	94
▁appreciates	94
▁assisted	94
▁awaits	94
▁casual	94
▁chairs	94
▁coupled	94
▁disposal	94
▁expelled	94
▁forums	94
▁gall	94
▁gladly	94
▁intensive	94
▁invalid	94
▁invested	94
▁jump	94
▁lament	94
▁lucky	94
▁neighboring	94
▁newspapers	94
▁objectives	94
▁rooted	94
▁rush	94
▁sexually	94
▁solved	94
▁specify	94
▁strikes	94
▁sustainable	94
▁utility	94
▁wounded	94
.),	93
/03	93
30.	93
CF	93
fault	93
fic	93
gel	93
news	93
ogl	93
orthy	93
ought	93
pas	93
pple	93
unci	93
yster	93
ι	93
т	93
سل	93
▁1989	93
▁Allow	93
▁Budget	93
▁Cass	93
▁Communications	93
▁Gulf	93
▁Haruna	93
▁Kag	93
▁Kash	93
▁Latvia	93
▁Municip	93
▁Scient	93
▁abandoning	93
▁acquisition	93
▁arguments	93
▁chooses	93
▁contemporary	93
▁conveyed	93
▁crazy	93
▁cy	93
▁decent	93
▁define	93
▁doub	93
▁echo	93
▁eth	93
▁fam	93
▁flav	93
▁hire	93
▁integr	93
▁joining	93
▁neutrality	93
▁opponents	93
▁pos	93
▁pronounce	93
▁rage	93
▁reass	93
▁refund	93
▁remarks	93
▁salaries	93
▁separ	93
▁sequence	93
▁suff	93
▁torn	93
▁transf	93
▁unders	93
中	93
...)	92
.4	92
DG	92
LIN	92
Net	92
apan	92
arent	92
ben	92
depth	92
ediatric	92
emption	92
eous	92
falls	92
icro	92
letes	92
making	92
odo	92
posh	92
security	92
uin	92
′	92
▁192	92
▁1997,	92
▁480	92
▁850	92
▁AA	92
▁Commissioner	92
▁Dak	92
▁Dou	92
▁Gan	92
▁Mong	92
▁Overall	92
▁PAL	92
▁Serge	92
▁Shaw	92
▁Yadda	92
▁Yun	92
▁apt	92
▁aro	92
▁assault	92
▁attempted	92
▁conv	92
▁crafts	92
▁databases	92
▁deliberately	92
▁distinction	92
▁entrepreneur	92
▁feeds	92
▁happ	92
▁harder	92
▁honour	92
▁jirgin	92
▁locally	92
▁neighborhood	92
▁nurt	92
▁observation	92
▁ownership	92
▁prescription	92
▁proteins	92
▁reserve	92
▁reviewed	92
▁sewage	92
▁transition	92
▁tries	92
▁trigger	92
▁var	92
▁viol	92
/13	91
7]	91
HR	91
LAND	91
abar	91
annel	91
atable	91
avan	91
eman	91
eram	91
fan	91
gram	91
ibu	91
ifiers	91
isions	91
isp	91
iye	91
lder	91
olid	91
oric	91
oriented	91
poll	91
velop	91
▁1.3	91
▁139	91
▁Activities	91
▁Afric	91
▁Amb	91
▁CIA	91
▁Coll	91
▁Concrete	91
▁Effective	91
▁Jami	91
▁Krist	91
▁Leon	91
▁Mediterranean	91
▁Ministers	91
▁Perm	91
▁Proc	91
▁Rab	91
▁Scott	91
▁Status	91
▁Vest	91
▁Yusuf	91
▁administered	91
▁adoption	91
▁affecting	91
▁altern	91
▁bacteria	91
▁borrow	91
▁calculated	91
▁consulting	91
▁contacted	91
▁copyright	91
▁corro	91
▁crop	91
▁cub	91
▁deadly	91
▁discusses	91
▁dismiss	91
▁efficiently	91
▁fant	91
▁gel	91
▁happily	91
▁investigate	91
▁jaw	91
▁lasted	91
▁nobody	91
▁positively	91
▁presenting	91
▁ritual	91
▁secured	91
▁spared	91
▁stressed	91
▁token	91
▁tom	91
日	91
/100	90
2000	90
abad	90
afushi	90
arna	90
arta	90
atre	90
brid	90
igation	90
iversity	90
pots	90
ragon	90
yel	90
zone	90
▁121	90
▁27.	90
▁280	90
▁6.5	90
▁Agusta	90
▁Cyprus	90
▁Dav	90
▁Fed	90
▁Geneva	90
▁Haw	90
▁Irish	90
▁Pharmaceutical	90
▁Rio	90
▁Sche	90
▁Summit	90
▁VI	90
▁Yank	90
▁adjusting	90
▁allegedly	90
▁announces	90
▁confirms	90
▁contemplate	90
▁destinations	90
▁dried	90
▁empowered	90
▁gig	90
▁impaired	90
▁insecurity	90
▁mechan	90
▁outlined	90
▁passive	90
▁petitions	90
▁rece	90
▁sentenced	90
▁severely	90
▁shoulders	90
▁stimul	90
▁strongest	90
▁strugg	90
▁suited	90
▁unex	90
▁unlikely	90
▁vaccines	90
▁veter	90
▁wished	90
.....	89
390	89
ammed	89
anka	89
aux	89
communication	89
embers	89
five	89
gery	89
iana	89
pelled	89
prof	89
profit	89
rac	89
ski	89
uling	89
wards	89
▁10-	89
▁1994	89
▁2.4	89
▁95%	89
▁Aer	89
▁Banking	89
▁Bund	89
▁GE	89
▁Instit	89
▁Jac	89
▁Linked	89
▁Persons	89
▁Statistics	89
▁Treat	89
▁Veter	89
▁Wu	89
▁calc	89
▁calculate	89
▁comparing	89
▁compounds	89
▁cong	89
▁consequence	89
▁despair	89
▁differently	89
▁elite	89
▁geographical	89
▁inviting	89
▁lic	89
▁marriages	89
▁phenomenon	89
▁possesses	89
▁prev	89
▁rebel	89
▁roughly	89
▁supreme	89
▁termination	89
▁tragedy	89
▁tran	89
▁troub	89
7.0	88
9]	88
ECTION	88
Er	88
Every	88
Mar	88
NET	88
PG	88
Rom	88
ailed	88
asure	88
ecting	88
electric	88
encer	88
fo	88
idi	88
kai	88
kon	88
lation	88
orpor	88
ponents	88
rar	88
ravel	88
rock	88
uti	88
vern	88
viol	88
what	88
▁(11	88
▁BEL	88
▁Bayani	88
▁Ethiopian	88
▁FT	88
▁Fac	88
▁Forest	88
▁Gender	88
▁Hav	88
▁IND	88
▁Nad	88
▁Romania	88
▁SHE	88
▁Saki	88
▁Sapp	88
▁Subject	88
▁Subscribe	88
▁Tit	88
▁aka	88
▁applicants	88
▁claiming	88
▁classical	88
▁creativity	88
▁debate	88
▁discipl	88
▁ec	88
▁expense	88
▁instituted	88
▁involvement	88
▁leakage	88
▁logic	88
▁logical	88
▁margin	88
▁overview	88
▁proposal	88
▁purchases	88
▁rally	88
▁rebels	88
▁refine	88
▁respecting	88
▁samfurin	88
▁si	88
▁streams	88
▁toll	88
▁tunnel	88
▁void	88
▁Ƙ	88
文	88
ATES	87
IMA	87
disc	87
erable	87
gent	87
green	87
hered	87
hn	87
holders	87
iel	87
itus	87
main	87
ople	87
py	87
reak	87
ulsion	87
urdy	87
usp	87
wise	87
ë	87
▁2011.	87
▁Borders	87
▁Certific	87
▁Fox	87
▁Len	87
▁Luxembourg	87
▁POL	87
▁Primary	87
▁Scottish	87
▁Similar	87
▁Wak	87
▁Wanda	87
▁[2]	87
▁amfani	87
▁assess	87
▁burst	87
▁curious	87
▁drama	87
▁empower	87
▁essentially	87
▁facilitate	87
▁goat	87
▁ji	87
▁justify	87
▁mainstream	87
▁minimize	87
▁myth	87
▁outright	87
▁papers	87
▁prone	87
▁pros	87
▁qualification	87
▁refugee	87
▁regulate	87
▁somewhere	87
▁tri	87
▁weighing	87
▁whatsoever	87
.6	86
EMO	86
OY	86
THER	86
alin	86
div	86
ething	86
etics	86
ference	86
hal	86
iane	86
jer	86
minute	86
oding	86
orus	86
rank	86
retched	86
stage	86
uci	86
ustom	86
wat	86
▁127	86
▁2012.	86
▁Ara	86
▁Azerbaijan	86
▁Fulani	86
▁Guy	86
▁Ing	86
▁Kawai	86
▁Lam	86
▁Maur	86
▁Orthodox	86
▁PRIN	86
▁Pap	86
▁Satellite	86
▁Wars	86
▁acad	86
▁boats	86
▁closure	86
▁comparable	86
▁condemn	86
▁crew	86
▁damaging	86
▁depos	86
▁devastated	86
▁drove	86
▁eggs	86
▁encountered	86
▁expecting	86
▁hinder	86
▁intend	86
▁intimid	86
▁league	86
▁minim	86
▁nutri	86
▁originate	86
▁overnight	86
▁oversight	86
▁predictions	86
▁prover	86
▁rarely	86
▁reassuring	86
▁relied	86
▁respectful	86
▁sells	86
▁sticking	86
▁succumb	86
▁switching	86
▁tradem	86
▁ult	86
▁unt	86
▁winding	86
〒	86
本	86
-06	85
IYA	85
^	85
aina	85
ariah	85
assion	85
coming	85
effective	85
ei	85
elia	85
gener	85
ience	85
ijah	85
ilers	85
ilies	85
lamation	85
pton	85
zhen	85
ú	85
İ	85
▁-20	85
▁2.8	85
▁Ans	85
▁Harvard	85
▁Hor	85
▁Insurance	85
▁Jumma	85
▁Kana	85
▁Manufacturing	85
▁Mob	85
▁Position	85
▁Prague	85
▁Problem	85
▁Raj	85
▁SN	85
▁Wal	85
▁accum	85
▁adopting	85
▁advancing	85
▁bak	85
▁chocolate	85
▁cikin	85
▁conferences	85
▁crossing	85
▁directors	85
▁escaped	85
▁excell	85
▁exert	85
▁ferv	85
▁hollow	85
▁inde	85
▁indul	85
▁intim	85
▁mil	85
▁oriented	85
▁oversee	85
▁pillar	85
▁prominence	85
▁pron	85
▁prosperous	85
▁racial	85
▁relying	85
▁shore	85
▁stubborn	85
▁suggestion	85
▁summary	85
▁tanks	85
▁visions	85
▁workplace	85
▁ƙ	85
(1)	84
/22	84
5]	84
actor	84
aden	84
alia	84
asses	84
cap	84
erglass	84
first	84
formance	84
icin	84
iol	84
isual	84
item	84
itional	84
iyy	84
mai	84
matic	84
overed	84
roc	84
standard	84
•	84
▁Aust	84
▁Baba	84
▁Bir	84
▁Bod	84
▁Cameron	84
▁Christopher	84
▁Compl	84
▁Fishing	84
▁Gom	84
▁Imp	84
▁Iy	84
▁MED	84
▁Maritime	84
▁Nazi	84
▁Olympics	84
▁Pak	84
▁Pod	84
▁SR	84
▁Something	84
▁Univers	84
▁Urban	84
▁Yak	84
▁approx	84
▁attach	84
▁attentive	84
▁beer	84
▁beneath	84
▁chains	84
▁closures	84
▁concert	84
▁contempt	84
▁critic	84
▁diff	84
▁divor	84
▁efficacy	84
▁eloqu	84
▁emerged	84
▁estimates	84
▁exer	84
▁expresses	84
▁freight	84
▁influ	84
▁manipulate	84
▁maps	84
▁marketplace	84
▁misl	84
▁morality	84
▁neglected	84
▁notification	84
▁occupy	84
▁perception	84
▁prescribed	84
▁provoked	84
▁rejecting	84
▁shortage	84
▁stakeholders	84
▁talented	84
▁tied	84
▁weakened	84
INK	83
Str	83
VEL	83
VES	83
andom	83
ango	83
atisf	83
bott	83
charg	83
coh	83
icles	83
igen	83
ivated	83
len	83
ordinate	83
orical	83
orts	83
people	83
rea	83
rik	83
ruit	83
−	83
▁1.6	83
▁29.	83
▁Agricultural	83
▁BAS	83
▁DB	83
▁Obama	83
▁Oxford	83
▁Pel	83
▁Siber	83
▁TF	83
▁Tabb	83
▁accelerate	83
▁accompanying	83
▁balancing	83
▁batt	83
▁bish	83
▁cautious	83
▁combines	83
▁cyber	83
▁explosion	83
▁genuinely	83
▁hero	83
▁hiding	83
▁infin	83
▁invent	83
▁justified	83
▁kaw	83
▁nick	83
▁perpet	83
▁protocols	83
▁retirement	83
▁seller	83
▁smallest	83
▁soy	83
▁splend	83
▁therapeutic	83
▁tolerance	83
▁toy	83
▁wider	83
DB	82
EAN	82
Ra	82
Ts	82
abet	82
ayi	82
change	82
chool	82
city	82
equ	82
hering	82
ikh	82
isal	82
llor	82
ogenic	82
ono	82
open	82
oted	82
ouses	82
overs	82
pri	82
sg	82
ternal	82
urities	82
verage	82
vered	82
zon	82
±	82
Φ	82
▁2.1	82
▁Administ	82
▁Conduct	82
▁Deut	82
▁GRO	82
▁Guarantee	82
▁Jing	82
▁Property	82
▁Rat	82
▁Responsibility	82
▁Structure	82
▁barriers	82
▁cancel	82
▁champion	82
▁clos	82
▁consuming	82
▁crow	82
▁diagn	82
▁directing	82
▁eg	82
▁gask	82
▁invoke	82
▁landscape	82
▁loans	82
▁mentioning	82
▁nut	82
▁observance	82
▁parks	82
▁portfolio	82
▁predict	82
▁preservation	82
▁prov	82
▁pulled	82
▁repe	82
▁risen	82
▁simpl	82
▁surv	82
▁therap	82
▁threatening	82
▁tot	82
▁trace	82
▁varieties	82
語	82
13,	81
6/	81
ANC	81
Card	81
INS	81
Tr	81
aban	81
aco	81
ahu	81
aran	81
black	81
carbon	81
dec	81
hus	81
idal	81
jö	81
lass	81
lis	81
rete	81
ternally	81
ufai	81
zan	81
▁1945	81
▁AZ	81
▁Bern	81
▁Dub	81
▁Fight	81
▁Hab	81
▁Lar	81
▁Ox	81
▁Pit	81
▁Promotion	81
▁SAP	81
▁Shang	81
▁Vas	81
▁WIN	81
▁colours	81
▁consultation	81
▁criticism	81
▁disappointment	81
▁discovery	81
▁dominated	81
▁dysf	81
▁enrich	81
▁ferr	81
▁fleeing	81
▁gad	81
▁guards	81
▁implementing	81
▁inquiries	81
▁insisted	81
▁intent	81
▁locked	81
▁oppressed	81
▁picking	81
▁presently	81
▁py	81
▁sched	81
▁settlement	81
▁smoothly	81
▁subsidiary	81
▁targets	81
▁tsarin	81
,,	80
aira	80
atai	80
communications	80
enders	80
lander	80
oooo	80
ruction	80
sing	80
ubbing	80
uine	80
uty	80
▁(+	80
▁136	80
▁2.2	80
▁Aminu	80
▁Compet	80
▁Fail	80
▁Fur	80
▁Hik	80
▁Joh	80
▁Lakes	80
▁OTHER	80
▁Permanent	80
▁Request	80
▁Respect	80
▁Ug	80
▁advances	80
▁affair	80
▁appealed	80
▁attraction	80
▁boarding	80
▁certainty	80
▁collective	80
▁discretion	80
▁enthusi	80
▁excuse	80
▁griev	80
▁harmonious	80
▁helpless	80
▁indu	80
▁instances	80
▁introduces	80
▁lacked	80
▁maza	80
▁misleading	80
▁multilingual	80
▁nutrition	80
▁prem	80
▁recur	80
▁spectacular	80
▁stem	80
▁threaten	80
▁tribal	80
▁ul	80
▁ع	80
199	79
Pa	79
Red	79
angar	79
arse	79
fix	79
ideos	79
iform	79
non	79
ocin	79
olas	79
ouncing	79
ques	79
real	79
rochemical	79
sels	79
unity	79
▁133	79
▁Ai	79
▁Compared	79
▁Ent	79
▁Ethiopia	79
▁Francisco	79
▁Frankfurt	79
▁Fried	79
▁Gon	79
▁HOT	79
▁Independent	79
▁Obviously	79
▁PT	79
▁Reports	79
▁Sarkin	79
▁Seoul	79
▁aer	79
▁asse	79
▁bamb	79
▁citizen	79
▁consisting	79
▁cosmetics	79
▁discourse	79
▁distortion	79
▁emerging	79
▁generic	79
▁hop	79
▁implants	79
▁initiated	79
▁interference	79
▁kayan	79
▁lung	79
▁melt	79
▁owe	79
▁pause	79
▁regulator	79
▁seemingly	79
▁sterling	79
▁supermarket	79
▁undergoing	79
▁visibility	79
,000.	78
/02	78
00,	78
379	78
750	78
AIR	78
ayu	78
bir	78
breaking	78
data	78
earch	78
former	78
group	78
iliar	78
isers	78
neys	78
oping	78
papers	78
rough	78
sim	78
til	78
ubb	78
unar	78
urna	78
©	78
▁-1	78
▁12-	78
▁148	78
▁260	78
▁Abbas	78
▁Cecilia	78
▁Coming	78
▁Considering	78
▁Hungarian	78
▁Incre	78
▁Nowadays	78
▁Oral	78
▁STAT	78
▁TM	78
▁__	78
▁abducted	78
▁annoy	78
▁battles	78
▁baya	78
▁checks	78
▁collapse	78
▁consisted	78
▁delicate	78
▁domination	78
▁earning	78
▁eligible	78
▁fem	78
▁fleet	78
▁flowing	78
▁hits	78
▁hosp	78
▁hostile	78
▁kar	78
▁labour	78
▁legacy	78
▁liber	78
▁liter	78
▁mandatory	78
▁merit	78
▁organizational	78
▁outcomes	78
▁outset	78
▁ozone	78
▁pill	78
▁practically	78
▁regulating	78
▁resemb	78
▁sacrificed	78
▁substances	78
▁translating	78
▁underground	78
▁verify	78
▁vi	78
▁withdrew	78
":	77
.7	77
ASHI	77
OME	77
ahar	77
angu	77
anin	77
anners	77
atorial	77
esis	77
idents	77
ighted	77
iped	77
itics	77
omat	77
orders	77
orption	77
udu	77
Ž	77
▁113	77
▁144	77
▁APP	77
▁Ari	77
▁DEL	77
▁Experts	77
▁Georg	77
▁Kom	77
▁LO	77
▁Nich	77
▁POS	77
▁Rik	77
▁Unfortunately	77
▁Yas	77
▁accusations	77
▁altogether	77
▁assumed	77
▁attachment	77
▁commissioner	77
▁convincing	77
▁dense	77
▁earliest	77
▁fired	77
▁horizon	77
▁impul	77
▁indignation	77
▁introducing	77
▁om	77
▁persu	77
▁releasing	77
▁researc	77
▁scenario	77
▁stocks	77
▁substitute	77
▁touches	77
▁trucks	77
▁unite	77
▁م	77
▲	77
%)	76
DI	76
Gl	76
International	76
Reg	76
TION	76
bands	76
call	76
ceed	76
ember	76
etooth	76
force	76
itorial	76
jud	76
manship	76
ploy	76
plus	76
redit	76
rium	76
urally	76
ƙ	76
▁Bru	76
▁Cancer	76
▁Carr	76
▁Comput	76
▁EF	76
▁Efficiency	76
▁Lind	76
▁Movement	76
▁Roger	76
▁STR	76
▁Tony	76
▁Too	76
▁Vietnamese	76
▁Vo	76
▁acquiring	76
▁allies	76
▁appl	76
▁arises	76
▁cas	76
▁competitions	76
▁devastating	76
▁documentation	76
▁everybody	76
▁farming	76
▁interactive	76
▁irrigation	76
▁journalists	76
▁legitimate	76
▁notifications	76
▁outward	76
▁passionate	76
▁planting	76
▁progressively	76
▁slight	76
▁strain	76
▁substantial	76
▁theirs	76
▁transm	76
▁tune	76
▁workshops	76
'.	75
4/	75
ASU	75
__	75
alla	75
ansk	75
arwa	75
assan	75
aval	75
belie	75
cycles	75
dem	75
erc	75
media	75
mot	75
omed	75
onym	75
orne	75
parable	75
reach	75
rents	75
stud	75
tax	75
ulates	75
usse	75
ά	75
κ	75
▁1.8	75
▁111	75
▁165	75
▁2008.	75
▁Alp	75
▁Chad	75
▁Iranian	75
▁Kl	75
▁Mars	75
▁Nep	75
▁Rap	75
▁Sey	75
▁Thous	75
▁Vel	75
▁Yarjejeniya	75
▁boundaries	75
▁cleaner	75
▁compelled	75
▁confirming	75
▁crypt	75
▁distinctive	75
▁employ	75
▁frag	75
▁galvan	75
▁hor	75
▁incidence	75
▁loses	75
▁lub	75
▁mol	75
▁nickel	75
▁nuna	75
▁parental	75
▁placement	75
▁predicted	75
▁preserving	75
▁prim	75
▁prisoners	75
▁prolonged	75
▁prospective	75
▁rebuild	75
▁reluctant	75
▁salmon	75
▁selective	75
▁sque	75
▁sty	75
▁subst	75
▁surren	75
▁testim	75
▁unlock	75
')	74
==	74
La	74
Part	74
Pol	74
TERN	74
allah	74
cha	74
direct	74
dule	74
elsh	74
heres	74
idon	74
ilis	74
ingu	74
market	74
orp	74
ounding	74
paid	74
pres	74
service	74
tan	74
teg	74
uly	74
ystem	74
▁147	74
▁1988	74
▁30.	74
▁75%	74
▁Bulgarian	74
▁External	74
▁Franç	74
▁Kul	74
▁Peru	74
▁Portal	74
▁Strengthen	74
▁Wai	74
▁abusive	74
▁achievement	74
▁approve	74
▁auction	74
▁cheapest	74
▁concentrated	74
▁conclusions	74
▁creators	74
▁develops	74
▁entities	74
▁fortune	74
▁hem	74
▁hygiene	74
▁inferior	74
▁innovations	74
▁limitation	74
▁overturn	74
▁passenger	74
▁persuaded	74
▁preparations	74
▁reconciled	74
▁resentment	74
▁reserv	74
▁rom	74
▁sequ	74
▁simplify	74
▁spokes	74
▁stimulating	74
▁unaware	74
▁unlawful	74
▁varied	74
▁versus	74
▁whilst	74
177	73
ARI	73
ITION	73
ORN	73
atical	73
dam	73
eta	73
etal	73
generation	73
ithium	73
lining	73
neum	73
qa	73
size	73
tical	73
­	73
б	73
▁2004,	73
▁Berg	73
▁Beyond	73
▁Champ	73
▁Consumer	73
▁Contract	73
▁Creating	73
▁Defense	73
▁Hyper	73
▁Industries	73
▁Kowa	73
▁Liber	73
▁Marie	73
▁NAF	73
▁Nonetheless	73
▁Payments	73
▁Princi	73
▁Qatar	73
▁Tob	73
▁abs	73
▁alternatives	73
▁archives	73
▁bubble	73
▁complement	73
▁consist	73
▁custody	73
▁dominate	73
▁embedded	73
▁fitted	73
▁foundations	73
▁initiatives	73
▁injuries	73
▁insult	73
▁libraries	73
▁nob	73
▁recession	73
▁regist	73
▁remedy	73
▁robust	73
▁segments	73
▁solving	73
▁suffers	73
▁supplying	73
▁uncertain	73
▁vicious	73
(9	72
11)	72
ABA	72
CK	72
ady	72
anan	72
arden	72
aur	72
aware	72
cond	72
coun	72
irin	72
istically	72
obal	72
onom	72
oura	72
raham	72
review	72
vens	72
ynn	72
▁1948	72
▁2006,	72
▁Alf	72
▁Aur	72
▁Banks	72
▁Carol	72
▁Chile	72
▁Consum	72
▁Ford	72
▁Hij	72
▁Intelligence	72
▁Ladies	72
▁Lag	72
▁Lit	72
▁PAR	72
▁Political	72
▁REL	72
▁Rand	72
▁Rules	72
▁Thess	72
▁Thousands	72
▁Uk	72
▁blocking	72
▁borne	72
▁comprises	72
▁counts	72
▁delayed	72
▁eliminated	72
▁extraction	72
▁fores	72
▁frustr	72
▁holders	72
▁imagined	72
▁imminent	72
▁inauguration	72
▁leverage	72
▁mi	72
▁migration	72
▁nat	72
▁necessity	72
▁operational	72
▁overt	72
▁plung	72
▁reasonably	72
▁recognizing	72
▁reliance	72
▁rotating	72
▁shocked	72
▁shorter	72
▁supportive	72
▁tackle	72
▁undermine	72
▁unprecedented	72
(2)	71
1/	71
155	71
German	71
NI	71
NR	71
acked	71
anto	71
asin	71
emia	71
gradu	71
help	71
idu	71
illes	71
jima	71
ocus	71
orf	71
oshin	71
quare	71
thetic	71
vious	71
zal	71
æ	71
▁0.3	71
▁0.6	71
▁114	71
▁138	71
▁28.	71
▁DG	71
▁INTER	71
▁KUKA	71
▁Montreal	71
▁Prior	71
▁Recognition	71
▁Shine	71
▁Som	71
▁Taw	71
▁Zag	71
▁anybody	71
▁appetite	71
▁aur	71
▁bail	71
▁bod	71
▁burdens	71
▁buyer	71
▁dare	71
▁defending	71
▁earthquake	71
▁emerge	71
▁footwear	71
▁glance	71
▁gn	71
▁hes	71
▁hij	71
▁imply	71
▁invo	71
▁journalist	71
▁jun	71
▁launching	71
▁mortality	71
▁newcom	71
▁occurrence	71
▁orphan	71
▁premature	71
▁pret	71
▁remark	71
▁reserves	71
▁separating	71
▁severity	71
▁unwilling	71
▁vegetable	71
1).	70
13.	70
355	70
?'	70
Bel	70
NOW	70
SR	70
TAIN	70
aic	70
amen	70
asan	70
atra	70
being	70
eli	70
esa	70
ilities	70
index	70
itations	70
ogues	70
ommod	70
ounting	70
ront	70
uras	70
vents	70
week	70
ان	70
▁116	70
▁126	70
▁1975	70
▁2005,	70
▁30,000	70
▁ADD	70
▁Adop	70
▁Bush	70
▁Cairo	70
▁Certain	70
▁Compact	70
▁Dif	70
▁Document	70
▁Few	70
▁Forces	70
▁GDP	70
▁Gina	70
▁HY	70
▁Horn	70
▁Lower	70
▁Mul	70
▁NL	70
▁PO	70
▁REV	70
▁Reference	70
▁Senegal	70
▁Strategy	70
▁VAL	70
▁VER	70
▁Yakubu	70
▁ample	70
▁argued	70
▁bawul	70
▁carrier	70
▁celebrating	70
▁communicating	70
▁concludes	70
▁contem	70
▁crimes	70
▁decreased	70
▁delegation	70
▁disastrous	70
▁economics	70
▁employers	70
▁encompass	70
▁forests	70
▁ham	70
▁identical	70
▁inconven	70
▁ki	70
▁labels	70
▁landsc	70
▁lawyers	70
▁leap	70
▁murdered	70
▁prepares	70
▁pressed	70
▁regulatory	70
▁rejection	70
▁sab	70
▁signature	70
▁specifies	70
▁sphere	70
▁submitting	70
▁suppose	70
▁terrorism	70
▁toler	70
▁tu	70
-2000	69
5.0	69
ALY	69
IER	69
OIN	69
Russ	69
agement	69
appe	69
atically	69
bsites	69
chenko	69
enic	69
essional	69
food	69
iev	69
iron	69
iry	69
odi	69
olute	69
outheast	69
ronics	69
school	69
sol	69
umba	69
undred	69
uters	69
won	69
xty	69
Ø	69
ón	69
ص	69
ّ	69
▁122	69
▁134	69
▁430	69
▁Alliance	69
▁Dani	69
▁Gram	69
▁Integrated	69
▁Kawa	69
▁Lanka	69
▁Mallam	69
▁Nearly	69
▁Plastics	69
▁Programme	69
▁Rapid	69
▁Session	69
▁Standing	69
▁Tric	69
▁Wolf	69
▁abortion	69
▁actor	69
▁bases	69
▁breach	69
▁briefly	69
▁calculation	69
▁computing	69
▁continent	69
▁deciding	69
▁determining	69
▁dignified	69
▁disclosure	69
▁discont	69
▁drown	69
▁emergence	69
▁gal	69
▁hung	69
▁hydrogen	69
▁integral	69
▁nad	69
▁pockets	69
▁prizes	69
▁receipt	69
▁restart	69
▁restoring	69
▁revolution	69
▁rout	69
▁shek	69
▁swift	69
▁termin	69
▁unre	69
▁wholeheart	69
▁withdrawals	69
00.	68
4-0	68
ARA	68
ERN	68
RIC	68
bre	68
forming	68
irting	68
lla	68
luding	68
obin	68
oday	68
ogan	68
oqu	68
othes	68
program	68
reatment	68
ukan	68
yp	68
н	68
у	68
ة	68
▁$9	68
▁BRO	68
▁Communities	68
▁ENERGY	68
▁Gida	68
▁Lear	68
▁Parliament	68
▁Resolution	68
▁Sector	68
▁Tuna	68
▁agreements	68
▁anonymous	68
▁buses	68
▁ceased	68
▁cluster	68
▁consecutive	68
▁curriculum	68
▁cushion	68
▁deployed	68
▁distorted	68
▁emphasizes	68
▁experimental	68
▁exports	68
▁financially	68
▁governed	68
▁hybrid	68
▁implied	68
▁importantly	68
▁inaugur	68
▁leak	68
▁liability	68
▁porn	68
▁propri	68
▁raga	68
▁recip	68
▁recruitment	68
▁regime	68
▁replacing	68
▁requiring	68
▁simplicity	68
▁stepping	68
▁supervision	68
▁sympt	68
▁unwanted	68
▁violate	68
2.2	67
Comm	67
Don	67
Islam	67
Min	67
PN	67
Vs	67
ardo	67
arious	67
astern	67
celer	67
emen	67
especially	67
estors	67
fits	67
itious	67
ledge	67
olph	67
pared	67
pract	67
rers	67
shin	67
umped	67
version	67
ysis	67
ο	67
ी	67
▁189	67
▁1958	67
▁Ana	67
▁Angela	67
▁Finnish	67
▁GAME	67
▁Got	67
▁Hamburg	67
▁Heritage	67
▁Lisbon	67
▁McC	67
▁Ott	67
▁Regist	67
▁TRA	67
▁WW	67
▁Zabi	67
▁accumulation	67
▁arrogance	67
▁clarity	67
▁clearer	67
▁commits	67
▁consec	67
▁costly	67
▁derive	67
▁destructive	67
▁disappear	67
▁donor	67
▁electromagnetic	67
▁extensively	67
▁femin	67
▁formally	67
▁fraction	67
▁hik	67
▁lakes	67
▁matched	67
▁needing	67
▁organizing	67
▁outline	67
▁penetration	67
▁permissible	67
▁prevalent	67
▁refined	67
▁residual	67
▁sche	67
▁simplified	67
▁sore	67
▁spectrum	67
▁steep	67
▁treats	67
▁upg	67
▁vitamins	67
410	66
ANI	66
ATIONAL	66
Uk	66
adian	66
asters	66
come	66
europe	66
fici	66
hun	66
ictions	66
ilia	66
okia	66
onds	66
ovsky	66
peace	66
process	66
rc	66
stick	66
thes	66
uli	66
ï	66
া	66
▁178	66
▁Bonn	66
▁Defence	66
▁ET	66
▁Jackson	66
▁Maced	66
▁Prevent	66
▁Releases	66
▁Response	66
▁Sharon	66
▁Tamb	66
▁Written	66
▁achieving	66
▁alama	66
▁barely	66
▁coastal	66
▁commerce	66
▁compiled	66
▁complaints	66
▁craf	66
▁crude	66
▁defects	66
▁democracy	66
▁heav	66
▁intern	66
▁jurisdiction	66
▁lib	66
▁lod	66
▁minerals	66
▁obliged	66
▁outs	66
▁premises	66
▁provinces	66
▁reorgan	66
▁stabil	66
▁tail	66
▁thanked	66
▁thrive	66
▁unacceptable	66
▁undertake	66
▁veget	66
▁von	66
/40	65
ICES	65
Ital	65
abled	65
abling	65
ervation	65
gence	65
gment	65
heart	65
iders	65
imation	65
iques	65
isms	65
itary	65
itative	65
olio	65
pdf	65
rading	65
reading	65
river	65
tta	65
uled	65
ɗ	65
▁Bari	65
▁Estonia	65
▁Gener	65
▁Groups	65
▁Lew	65
▁Manufact	65
▁Mol	65
▁Nobel	65
▁XXX	65
▁Yar	65
▁abstain	65
▁accountable	65
▁adj	65
▁align	65
▁ambient	65
▁ambition	65
▁anch	65
▁anticipated	65
▁beverages	65
▁cardiovascular	65
▁complained	65
▁constitute	65
▁contr	65
▁defici	65
▁eco	65
▁empt	65
▁enhancing	65
▁executives	65
▁fixing	65
▁fool	65
▁funded	65
▁guardian	65
▁integrate	65
▁migr	65
▁posed	65
▁protesters	65
▁responsive	65
▁revel	65
▁sooner	65
▁strengths	65
▁tak	65
▁tuna	65
▁unreasonable	65
▁virt	65
▁yen	65
ANE	64
GI	64
ICA	64
MER	64
URG	64
area	64
children	64
ciences	64
iated	64
idential	64
ité	64
oir	64
onav	64
orated	64
orrow	64
rell	64
rena	64
sin	64
start	64
thern	64
though	64
zhe	64
ק	64
ك	64
द	64
न	64
ह	64
ि	64
्	64
→	64
▁193	64
▁3.2	64
▁330	64
▁Adapt	64
▁Asht	64
▁Awa	64
▁Bai	64
▁Bulk	64
▁Continu	64
▁Gor	64
▁Jak	64
▁NAN	64
▁Peninsula	64
▁Standards	64
▁Stockholm	64
▁Via	64
▁Wah	64
▁accidents	64
▁catalyst	64
▁clash	64
▁connectivity	64
▁consulted	64
▁decentralized	64
▁decides	64
▁dialogue	64
▁disability	64
▁discrimination	64
▁episode	64
▁excluded	64
▁fighters	64
▁flows	64
▁frozen	64
▁impose	64
▁imprisonment	64
▁interfere	64
▁intervene	64
▁registering	64
▁resumed	64
▁retali	64
▁summar	64
▁swa	64
▁vibrant	64
▁yearly	64
DO	63
SG	63
ULT	63
abis	63
anke	63
arra	63
assa	63
backs	63
blow	63
catch	63
east	63
enger	63
gawa	63
icide	63
igr	63
ija	63
istan	63
itous	63
lings	63
mosp	63
otted	63
ources	63
quarters	63
raud	63
rupting	63
ugi	63
uko	63
uminium	63
veys	63
vision	63
▁2010.	63
▁235	63
▁Agreement	63
▁Bangladesh	63
▁Customs	63
▁Dipl	63
▁Edinburgh	63
▁Influ	63
▁Kristi	63
▁Leaders	63
▁Ling	63
▁Malawi	63
▁Mexican	63
▁Morocco	63
▁Nai	63
▁Putin	63
▁Slovakia	63
▁Suc	63
▁Tsarin	63
▁Zamb	63
▁afterwards	63
▁classification	63
▁collabor	63
▁comple	63
▁denial	63
▁disputes	63
▁evac	63
▁exceeded	63
▁flagship	63
▁haram	63
▁hind	63
▁incredibly	63
▁infectious	63
▁liberal	63
▁obsc	63
▁panic	63
▁preference	63
▁prevalence	63
▁propag	63
▁pushing	63
▁sha	63
▁shake	63
▁stays	63
▁strik	63
▁suspect	63
▁theft	63
▁throwing	63
▁tribute	63
▁wing	63
▁yard	63
국	63
한	63
1.6	62
Br	62
EMS	62
French	62
GM	62
ONS	62
adows	62
bial	62
edge	62
erved	62
lib	62
mber	62
ometric	62
oyin	62
rand	62
utrition	62
ق	62
▁-2	62
▁1%	62
▁1987	62
▁2.9	62
▁Ake	62
▁Arabs	62
▁Atlantic	62
▁Boeing	62
▁Brit	62
▁CAM	62
▁CZ	62
▁Carn	62
▁Crow	62
▁Evidence	62
▁Hiro	62
▁Irina	62
▁Kub	62
▁MAG	62
▁NI	62
▁Nishi	62
▁Organisation	62
▁ROS	62
▁Sara	62
▁TEN	62
▁Tatt	62
▁Tir	62
▁Washing	62
▁Zab	62
▁Zimbabwe	62
▁assisting	62
▁cigarette	62
▁combining	62
▁commun	62
▁coordination	62
▁coordinator	62
▁debts	62
▁dele	62
▁determines	62
▁disappro	62
▁dividing	62
▁dom	62
▁exploit	62
▁farms	62
▁fertility	62
▁forged	62
▁imag	62
▁kick	62
▁maintains	62
▁opposing	62
▁overwhel	62
▁phil	62
▁producer	62
▁progressed	62
▁prolong	62
▁pronounced	62
▁protests	62
▁pushed	62
▁retained	62
▁semester	62
▁shocking	62
▁skept	62
▁stepped	62
▁tolerate	62
▁translates	62
▁transparency	62
▁vaccin	62
⭐	62
-000	61
/07/	61
Da	61
East	61
News	61
TB	61
Tur	61
UU	61
alis	61
arda	61
astr	61
block	61
controlled	61
cost	61
due	61
eal	61
enges	61
ested	61
hist	61
iment	61
inci	61
iously	61
ishin	61
offs	61
olia	61
otics	61
phic	61
rets	61
roduce	61
ropol	61
search	61
sions	61
soci	61
unan	61
usiness	61
▁109	61
▁31.	61
▁Afghanistan	61
▁Associated	61
▁Cab	61
▁Ecuador	61
▁Ern	61
▁Frid	61
▁Gunki	61
▁HEALTH	61
▁IRA	61
▁Kok	61
▁MAL	61
▁Medic	61
▁Naples	61
▁Preferences	61
▁Recogn	61
▁Sierra	61
▁abu	61
▁cann	61
▁customary	61
▁dealers	61
▁deployment	61
▁dif	61
▁dire	61
▁domest	61
▁dramatically	61
▁drought	61
▁exh	61
▁fim	61
▁grips	61
▁hannu	61
▁hedge	61
▁incorporate	61
▁induce	61
▁lag	61
▁misery	61
▁municipal	61
▁nationality	61
▁occ	61
▁organisations	61
▁ow	61
▁paral	61
▁passport	61
▁personalities	61
▁publicity	61
▁rebuilding	61
▁remov	61
▁shaken	61
▁suits	61
▁upheld	61
▁variations	61
▁weaker	61
▁weld	61
,.	60
Ass	60
ELS	60
Health	60
abu	60
aper	60
arke	60
attoo	60
condition	60
current	60
edy	60
ellect	60
elli	60
etry	60
haust	60
ifference	60
ipt	60
laud	60
limited	60
owers	60
pecial	60
pi	60
pled	60
rane	60
strong	60
uated	60
ulent	60
ulg	60
usk	60
η	60
▁Basically	60
▁Bucharest	60
▁Fuku	60
▁GmbH	60
▁Kagara	60
▁Kaw	60
▁Poor	60
▁REACH	60
▁STO	60
▁Terror	60
▁Thy	60
▁Tunisia	60
▁UNESCO	60
▁Violence	60
▁Zeal	60
▁accelerated	60
▁ambitious	60
▁approves	60
▁aston	60
▁bills	60
▁burdensome	60
▁compelling	60
▁complaining	60
▁confined	60
▁corre	60
▁councils	60
▁countryside	60
▁defines	60
▁exhausted	60
▁fis	60
▁frustration	60
▁giants	60
▁gras	60
▁ident	60
▁ignoring	60
▁inhabit	60
▁inventory	60
▁lu	60
▁obst	60
▁patron	60
▁preceded	60
▁prosper	60
▁pulling	60
▁readiness	60
▁recommendation	60
▁removes	60
▁rik	60
▁salon	60
▁securities	60
▁splendid	60
▁worries	60
EG	59
Eng	59
ISS	59
WORK	59
West	59
anim	59
apse	59
arya	59
atric	59
ctic	59
gor	59
hl	59
icit	59
iracy	59
odin	59
question	59
sted	59
ulla	59
uminum	59
§	59
انی	59
▁1.7	59
▁200,000	59
▁2000,	59
▁Afrika	59
▁Alert	59
▁Centres	59
▁Ebola	59
▁Ezek	59
▁Gates	59
▁Guidance	59
▁Gö	59
▁IX	59
▁Kayan	59
▁Labour	59
▁Maz	59
▁Pir	59
▁Prim	59
▁Restaur	59
▁Teh	59
▁Zam	59
▁agenda	59
▁breathe	59
▁confidential	59
▁delegates	59
▁destroying	59
▁digit	59
▁diminish	59
▁earnings	59
▁enthusiastic	59
▁fir	59
▁fut	59
▁gases	59
▁handful	59
▁headline	59
▁hypocritical	59
▁incidents	59
▁incorporated	59
▁invented	59
▁iv	59
▁killings	59
▁null	59
▁oils	59
▁parcel	59
▁pel	59
▁persuade	59
▁planes	59
▁preliminary	59
▁prisoner	59
▁privately	59
▁quest	59
▁questioning	59
▁relevance	59
▁seekers	59
▁sentiments	59
▁shortcomings	59
▁subsequently	59
▁understandable	59
▁unl	59
BAN	58
GY	58
Nor	58
alaxy	58
cz	58
fam	58
inare	58
ket	58
ober	58
oyle	58
roes	58
umma	58
utting	58
י	58
▁(%	58
▁124	58
▁1968	58
▁215	58
▁99%	58
▁Already	58
▁Anton	58
▁Antonio	58
▁Cambodia	58
▁Cooperation	58
▁Croatia	58
▁Framework	58
▁Iceland	58
▁Irin	58
▁Kashmir	58
▁Layer	58
▁Libya	58
▁ND	58
▁Naka	58
▁Qing	58
▁Tehran	58
▁Uganda	58
▁accuse	58
▁allegations	58
▁bathing	58
▁beaten	58
▁benefiting	58
▁blamed	58
▁complications	58
▁confront	58
▁contend	58
▁controversial	58
▁cooperative	58
▁deadline	58
▁educate	58
▁emerges	58
▁enforcement	58
▁escap	58
▁frustrated	58
▁governance	58
▁hak	58
▁helicop	58
▁heter	58
▁ide	58
▁imagination	58
▁irregular	58
▁jointly	58
▁kasar	58
▁kyau	58
▁ling	58
▁mamm	58
▁manip	58
▁medicines	58
▁misuse	58
▁norm	58
▁occurring	58
▁optimum	58
▁orderly	58
▁overlooked	58
▁philosoph	58
▁pledge	58
▁pose	58
▁proceeds	58
▁recognizes	58
▁refusing	58
▁replies	58
▁requesting	58
▁richest	58
▁rises	58
▁scientist	58
▁survivors	58
▁traded	58
▁unp	58
▁varying	58
▁vit	58
▁wasted	58
2.4	57
25,	57
AE	57
ATIONS	57
Bissau	57
GN	57
Ps	57
akk	57
arai	57
arshe	57
asonable	57
atibility	57
bish	57
borne	57
cases	57
ccess	57
del	57
duc	57
ensitive	57
headed	57
iability	57
ifest	57
imai	57
isive	57
iyu	57
ounced	57
raphic	57
ricane	57
rison	57
tically	57
ushima	57
él	57
ör	57
▁+39	57
▁117	57
▁1979	57
▁Alh	57
▁Eh	57
▁Franco	57
▁GEN	57
▁Greeks	57
▁JUST	57
▁MEM	57
▁Maca	57
▁Mit	57
▁Nepal	57
▁Nicole	57
▁Presidency	57
▁Prob	57
▁Risk	57
▁Slovenia	57
▁Stat	57
▁archive	57
▁az	57
▁condemns	57
▁convers	57
▁cul	57
▁declined	57
▁defective	57
▁disappoint	57
▁duplic	57
▁embark	57
▁entrust	57
▁exchanged	57
▁fires	57
▁futile	57
▁gum	57
▁horr	57
▁households	57
▁hunting	57
▁incoming	57
▁installations	57
▁interactions	57
▁interpret	57
▁interpreted	57
▁laud	57
▁losers	57
▁monitors	57
▁notion	57
▁notorious	57
▁petrol	57
▁prom	57
▁que	57
▁reassured	57
▁reput	57
▁resid	57
▁responds	57
▁restraint	57
▁retreat	57
▁rightful	57
▁ruwa	57
▁thereof	57
▁trem	57
▁upgraded	57
▁withdrawn	57
-2015	56
IND	56
More	56
athan	56
ciplinary	56
cyc	56
eto	56
fered	56
fs	56
hire	56
ibymas	56
idding	56
ocations	56
opt	56
pending	56
phal	56
raining	56
rett	56
rote	56
uhu	56
urable	56
yal	56
д	56
ف	56
▁2001,	56
▁2007.	56
▁270	56
▁COMM	56
▁Cert	56
▁Cologne	56
▁Colombia	56
▁Econom	56
▁Fis	56
▁Governors	56
▁Hut	56
▁Object	56
▁PART	56
▁Rai	56
▁SAF	56
▁VIS	56
▁accessing	56
▁appropriately	56
▁basin	56
▁beforehand	56
▁behav	56
▁bust	56
▁combustion	56
▁compliant	56
▁defended	56
▁dest	56
▁directive	56
▁draft	56
▁editors	56
▁ele	56
▁ethical	56
▁exec	56
▁fate	56
▁gesture	56
▁ib	56
▁inserted	56
▁inspire	56
▁institutional	56
▁intact	56
▁invention	56
▁kasa	56
▁merged	56
▁mir	56
▁oblig	56
▁observ	56
▁observers	56
▁philosopher	56
▁pigs	56
▁plea	56
▁quantities	56
▁rational	56
▁reviewing	56
▁revised	56
▁sid	56
▁spell	56
▁spon	56
▁terminals	56
▁unauthor	56
▁violated	56
△	56
ICATION	55
IFT	55
akai	55
ascular	55
ayed	55
ews	55
kel	55
plete	55
raid	55
shire	55
track	55
umes	55
users	55
while	55
ér	55
ł	55
М	55
й	55
▁(0.	55
▁129	55
▁155	55
▁1986	55
▁Ahead	55
▁Bologna	55
▁Ced	55
▁Drugs	55
▁Ens	55
▁Georgian	55
▁Kazakhstan	55
▁Mash	55
▁Melan	55
▁Serbia	55
▁Shah	55
▁Verification	55
▁autumn	55
▁awa	55
▁cancelled	55
▁competitor	55
▁correspondence	55
▁cultivated	55
▁diesel	55
▁dign	55
▁disadvantages	55
▁dozen	55
▁drift	55
▁dub	55
▁eliminating	55
▁examines	55
▁exploring	55
▁failures	55
▁granting	55
▁hist	55
▁impartial	55
▁inevitable	55
▁integrating	55
▁intends	55
▁intra	55
▁kun	55
▁obesity	55
▁obstacle	55
▁outlets	55
▁prep	55
▁prevailed	55
▁prophe	55
▁reinforce	55
▁scrat	55
▁spont	55
▁suggesting	55
▁tal	55
▁termed	55
▁thrust	55
▁trapped	55
▁zane	55
▼	55
酒	55
1.3	54
FER	54
SV	54
UNA	54
acin	54
ankan	54
anni	54
anu	54
arma	54
arms	54
asant	54
awar	54
comfort	54
govern	54
heast	54
icient	54
igue	54
itrus	54
pected	54
places	54
ushin	54
ussy	54
wai	54
winning	54
ø	54
Č	54
β	54
▁7.5	54
▁Cod	54
▁Congo	54
▁DSS	54
▁Danna	54
▁Developing	54
▁Hussein	54
▁Independence	54
▁Kennedy	54
▁Luk	54
▁Ning	54
▁Occup	54
▁Rober	54
▁Tobacco	54
▁Walter	54
▁ak	54
▁assuming	54
▁aug	54
▁condemnation	54
▁conjunction	54
▁demonstrating	54
▁differs	54
▁flaw	54
▁greenhouse	54
▁headlines	54
▁humiliation	54
▁incor	54
▁influenza	54
▁instinct	54
▁irre	54
▁meth	54
▁miscon	54
▁nets	54
▁org	54
▁originated	54
▁overse	54
▁politician	54
▁procla	54
▁projected	54
▁proximity	54
▁relent	54
▁rigorous	54
▁schemes	54
▁shameful	54
▁surrender	54
▁theoretical	54
▁triggered	54
▁upgrading	54
Ag	53
EAS	53
ZA	53
abus	53
ailable	53
aje	53
anar	53
anas	53
astro	53
cht	53
design	53
dict	53
digital	53
ighb	53
inj	53
itte	53
iyar	53
last	53
lead	53
mel	53
orry	53
osity	53
reating	53
riel	53
sided	53
ē	53
ـ	53
”:	53
▁2%	53
▁2002,	53
▁3%	53
▁3.1	53
▁Airlines	53
▁Babu	53
▁Bid	53
▁CES	53
▁Candid	53
▁Cape	53
▁Concern	53
▁Duba	53
▁Dublin	53
▁ESP	53
▁Fran	53
▁Lyn	53
▁Malam	53
▁Marm	53
▁Pand	53
▁Protocol	53
▁Romanian	53
▁acknowledges	53
▁admire	53
▁ali	53
▁beneficiaries	53
▁breakthrough	53
▁bridges	53
▁cha	53
▁compe	53
▁compl	53
▁considerably	53
▁consistency	53
▁counterpart	53
▁damages	53
▁deemed	53
▁destiny	53
▁distributing	53
▁entrepreneurs	53
▁ess	53
▁explanations	53
▁expos	53
▁frequencies	53
▁generates	53
▁generating	53
▁gloom	53
▁governmental	53
▁hoc	53
▁imam	53
▁incom	53
▁intellig	53
▁invasion	53
▁landmark	53
▁mortgage	53
▁nom	53
▁nowadays	53
▁organised	53
▁pave	53
▁prisons	53
▁probability	53
▁realities	53
▁recon	53
▁reconstruction	53
▁recycling	53
▁refusal	53
▁reun	53
▁samfur	53
▁seriousness	53
▁shortages	53
▁slaughtered	53
▁straightforward	53
▁stupid	53
▁tailored	53
▁tissues	53
▁undertaken	53
▁upward	53
▁wani	53
▁yin	53
▁Š	53
말	53
Id	52
Mu	52
aci	52
amf	52
asar	52
common	52
elson	52
encies	52
estern	52
ibi	52
icating	52
iour	52
iversary	52
lud	52
nar	52
oca	52
ocolate	52
ologies	52
ource	52
placed	52
rected	52
reness	52
stan	52
think	52
uate	52
udo	52
urement	52
ɓ	52
ى	52
▁+35	52
▁35%	52
▁4.3	52
▁Algeria	52
▁Armenian	52
▁COP	52
▁Electricity	52
▁Gibraltar	52
▁Ina	52
▁Integration	52
▁Kurdish	52
▁Moz	52
▁Patri	52
▁Poll	52
▁Progressive	52
▁Regions	52
▁Serbian	52
▁Tac	52
▁Vil	52
▁Wannan	52
▁absent	52
▁adaptation	52
▁adequately	52
▁airlines	52
▁asylum	52
▁attempting	52
▁breakdown	52
▁cab	52
▁clarified	52
▁clearing	52
▁clever	52
▁compulsory	52
▁congreg	52
▁disappeared	52
▁disg	52
▁disregard	52
▁distances	52
▁dun	52
▁harmon	52
▁hitting	52
▁implicit	52
▁indispensable	52
▁licensing	52
▁manages	52
▁maxim	52
▁misunder	52
▁partially	52
▁producers	52
▁rape	52
▁recipients	52
▁restriction	52
▁revenues	52
▁rivals	52
▁scourge	52
▁settling	52
▁spect	52
▁stopping	52
▁treaty	52
▁trig	52
▁urgently	52
▁vig	52
2010	51
IFE	51
Serv	51
aho	51
arka	51
atri	51
emor	51
health	51
igital	51
imension	51
inned	51
iration	51
lies	51
map	51
orough	51
oxide	51
pez	51
untu	51
upe	51
utu	51
viation	51
Т	51
ו	51
ר	51
▁0%	51
▁2009.	51
▁460	51
▁Boris	51
▁Bou	51
▁Copenhagen	51
▁Croatian	51
▁DIR	51
▁FIN	51
▁Gilashin	51
▁Mao	51
▁Mikhail	51
▁Opportunities	51
▁SHA	51
▁Sic	51
▁Somalia	51
▁Sunni	51
▁UC	51
▁acceleration	51
▁accomp	51
▁alcoholic	51
▁analyst	51
▁arguing	51
▁biology	51
▁briefing	51
▁contributing	51
▁cooperating	51
▁criticized	51
▁deci	51
▁deploy	51
▁enhances	51
▁evaluated	51
▁fatal	51
▁fle	51
▁forging	51
▁girma	51
▁hab	51
▁hiring	51
▁immunity	51
▁inappropriate	51
▁ingredient	51
▁inherent	51
▁interrupted	51
▁invaluable	51
▁lacks	51
▁milestone	51
▁monu	51
▁municipality	51
▁murde	51
▁occas	51
▁orph	51
▁phen	51
▁rav	51
▁recognised	51
▁representation	51
▁resolving	51
▁saman	51
▁scenarios	51
▁traps	51
▁triple	51
▁urging	51
▁waya	51
▁zak	51
-2013	50
6.1	50
EUR	50
UEL	50
achment	50
ajiya	50
alg	50
ansom	50
aren	50
aron	50
ategies	50
athetic	50
burgh	50
distance	50
dog	50
ermost	50
icity	50
inton	50
itant	50
kina	50
left	50
obil	50
odd	50
operative	50
oum	50
ply	50
poses	50
quis	50
quo	50
second	50
ý	50
Ō	50
ƙule	50
▁0.7	50
▁1984	50
▁1996.	50
▁Ace	50
▁Catalan	50
▁Coal	50
▁Contrib	50
▁Edu	50
▁Employees	50
▁Fern	50
▁GN	50
▁Latvian	50
▁Madagascar	50
▁Migration	50
▁Organic	50
▁Pension	50
▁Prem	50
▁Programming	50
▁SON	50
▁TAK	50
▁[3]	50
▁acceler	50
▁accusation	50
▁advocate	50
▁aggregate	50
▁agrees	50
▁anyway	50
▁assemb	50
▁avert	50
▁colleague	50
▁conception	50
▁dairy	50
▁disrupt	50
▁duba	50
▁dutse	50
▁dynamics	50
▁emission	50
▁exped	50
▁expl	50
▁gest	50
▁indications	50
▁insights	50
▁inward	50
▁karfe	50
▁ku	50
▁lever	50
▁liquidity	50
▁mechanisms	50
▁minority	50
▁noon	50
▁obedi	50
▁quarters	50
▁reassure	50
▁retention	50
▁retro	50
▁seaf	50
▁sweep	50
▁turnover	50
▁utterly	50
□	50
	50
added	49
andon	49
anies	49
both	49
contin	49
endix	49
entral	49
established	49
hesion	49
inqu	49
lad	49
qual	49
regular	49
sett	49
stadt	49
system	49
umar	49
ww	49
ía	49
Ə	49
ɛ	49
▁(*	49
▁-10	49
▁1400	49
▁1985	49
▁Alan	49
▁Ambassador	49
▁Assurance	49
▁Baltic	49
▁CY	49
▁Chancellor	49
▁Cultural	49
▁DI	49
▁Evaluation	49
▁Haiti	49
▁ISIS	49
▁Mario	49
▁Mog	49
▁Mubarak	49
▁Naj	49
▁Precise	49
▁Sof	49
▁Sustain	49
▁UR	49
▁Veh	49
▁Veterinary	49
▁Wales	49
▁Waya	49
▁actors	49
▁alliance	49
▁appearing	49
▁assert	49
▁assumption	49
▁bypass	49
▁careers	49
▁citizenship	49
▁clarify	49
▁clearance	49
▁compr	49
▁controversy	49
▁counteract	49
▁deleg	49
▁demol	49
▁denies	49
▁disagree	49
▁distingu	49
▁embod	49
▁ensured	49
▁equity	49
▁exch	49
▁fals	49
▁gradual	49
▁hous	49
▁il	49
▁indigenous	49
▁insol	49
▁insp	49
▁kills	49
▁linking	49
▁makers	49
▁mobility	49
▁modification	49
▁peacefully	49
▁peculiar	49
▁postal	49
▁potato	49
▁prestige	49
▁recipient	49
▁relies	49
▁republic	49
▁simpler	49
▁spends	49
▁spreads	49
▁spur	49
▁steadily	49
▁suppress	49
▁surprisingly	49
▁systematic	49
▁targeting	49
▁telem	49
▁textiles	49
▁timeframe	49
▁transferring	49
▁unpleasant	49
▁violation	49
▁Å	49
店	49
EI	48
ENE	48
Em	48
Fin	48
OCK	48
UKI	48
Ya	48
allel	48
changing	48
compl	48
ein	48
erers	48
igin	48
kawa	48
money	48
orno	48
pecially	48
public	48
quin	48
sign	48
spot	48
Σ	48
ч	48
▁0.8	48
▁0.9	48
▁2.3	48
▁55%	48
▁Accounting	48
▁Goals	48
▁IE	48
▁Increased	48
▁Jose	48
▁Lucia	48
▁Margaret	48
▁Marmari	48
▁Minutes	48
▁Mozambique	48
▁Neil	48
▁PRE	48
▁Priv	48
▁Produc	48
▁Salvador	48
▁Shari	48
▁Suppl	48
▁Sz	48
▁Yugoslavia	48
▁Zo	48
▁abduction	48
▁abundantly	48
▁ambassador	48
▁attracting	48
▁authorization	48
▁bang	48
▁brave	48
▁breeding	48
▁carriers	48
▁complexity	48
▁contentious	48
▁coup	48
▁decre	48
▁defence	48
▁deliberate	48
▁displacement	48
▁disturbing	48
▁embarked	48
▁emissions	48
▁employs	48
▁explicitly	48
▁herb	48
▁hostility	48
▁implications	48
▁indefinitely	48
▁insists	48
▁los	48
▁lucrative	48
▁memb	48
▁merger	48
▁neo	48
▁nowhere	48
▁optimistic	48
▁partnerships	48
▁pertaining	48
▁poultry	48
▁rampant	48
▁redirect	48
▁remedies	48
▁rests	48
▁scandal	48
▁stresses	48
▁swept	48
▁takardar	48
▁transported	48
▁travelling	48
▁um	48
▁unhappy	48
▁unint	48
▁updating	48
▁wholly	48
♦	48
	48
Ac	47
Gree	47
IDA	47
Just	47
KET	47
activity	47
ailand	47
arked	47
awi	47
bsite	47
canic	47
elcome	47
ellig	47
ensation	47
ertain	47
inka	47
iyanci	47
kun	47
odian	47
ospace	47
ouds	47
sheet	47
ummuka	47
vity	47
õ	47
ɓi	47
φ	47
χ	47
ṃ	47
▁4.6	47
▁Addressing	47
▁Bakin	47
▁Belarus	47
▁Budapest	47
▁Commit	47
▁Developed	47
▁Implementing	47
▁Institution	47
▁Issues	47
▁Kham	47
▁Marmara	47
▁Muk	47
▁Opport	47
▁Parad	47
▁Republican	47
▁Roma	47
▁Sams	47
▁Tash	47
▁Vall	47
▁Virt	47
▁allowance	47
▁analytical	47
▁aud	47
▁cancellation	47
▁committees	47
▁communic	47
▁comparative	47
▁competitiveness	47
▁conferred	47
▁conservation	47
▁controll	47
▁cosm	47
▁cumulative	47
▁cycl	47
▁definite	47
▁disclose	47
▁distributors	47
▁districts	47
▁earthquakes	47
▁embracing	47
▁enhancement	47
▁ethics	47
▁fingerprint	47
▁foda	47
▁inclusion	47
▁kyawun	47
▁limiting	47
▁moder	47
▁nurs	47
▁occupational	47
▁pact	47
▁pending	47
▁pillars	47
▁prevailing	47
▁proceedings	47
▁provoke	47
▁purely	47
▁regrets	47
▁reop	47
▁repeating	47
▁reservation	47
▁seas	47
▁structured	47
▁struggles	47
▁substit	47
▁sympathy	47
▁tends	47
▁voted	47
▁welcoming	47
▁worrying	47
▁wrongly	47
▁yan	47
000)	46
3).	46
6-0	46
BET	46
DT	46
NER	46
Na	46
UAL	46
YI	46
abilities	46
adjust	46
afar	46
arar	46
attun	46
domin	46
elan	46
global	46
hira	46
ibia	46
information	46
izon	46
olan	46
oslav	46
otypes	46
price	46
raine	46
rehensive	46
research	46
sibly	46
tops	46
unte	46
ussion	46
worth	46
zech	46
أ	46
ọ	46
▁4.2	46
▁45%	46
▁Baa	46
▁CIN	46
▁CUR	46
▁Constitution	46
▁Dise	46
▁Eight	46
▁Firstly	46
▁Kall	46
▁Karin	46
▁Lithuanian	46
▁Marin	46
▁Meth	46
▁Ottoman	46
▁Peters	46
▁REP	46
▁TRAN	46
▁Television	46
▁Vik	46
▁Whereas	46
▁Zap	46
▁accounted	46
▁accustomed	46
▁advertisements	46
▁adviser	46
▁broadcasts	46
▁confusing	46
▁contaminated	46
▁cuts	46
▁dil	46
▁eleph	46
▁elimin	46
▁enriched	46
▁envelope	46
▁famfo	46
▁flourish	46
▁humanitarian	46
▁investigations	46
▁iya	46
▁motto	46
▁mov	46
▁nit	46
▁odd	46
▁offset	46
▁opport	46
▁owing	46
▁partic	46
▁predecessor	46
▁sako	46
▁scr	46
▁securing	46
▁succession	46
▁suspend	46
▁sustaining	46
▁tam	46
▁unim	46
▁xx	46
,'	45
396	45
American	45
CY	45
ENA	45
Hung	45
Shin	45
TD	45
adin	45
agnetic	45
amma	45
annes	45
atial	45
cedes	45
ceptions	45
hur	45
ilar	45
ilo	45
ission	45
mont	45
oci	45
onance	45
plan	45
pless	45
political	45
project	45
speaking	45
unted	45
ween	45
¡	45
ão	45
ۆ	45
‬	45
▁169	45
▁226	45
▁Aiki	45
▁Austrian	45
▁Azerbai	45
▁Bolivia	45
▁Directors	45
▁Enh	45
▁Fortunately	45
▁Hitler	45
▁Holding	45
▁Instrument	45
▁Intern	45
▁Kank	45
▁Mald	45
▁Marse	45
▁Millennium	45
▁Myanmar	45
▁Sahara	45
▁Secondly	45
▁Sr	45
▁Tomorrow	45
▁abused	45
▁alleviate	45
▁announcing	45
▁appeals	45
▁artistic	45
▁attained	45
▁audit	45
▁beef	45
▁bolster	45
▁capacities	45
▁circles	45
▁consensus	45
▁conven	45
▁credentials	45
▁debates	45
▁delays	45
▁differing	45
▁documented	45
▁enforce	45
▁epis	45
▁exceeding	45
▁finances	45
▁flaws	45
▁frank	45
▁horm	45
▁incorporates	45
▁instrumental	45
▁kara	45
▁lend	45
▁mandate	45
▁masu	45
▁misunderstand	45
▁monitored	45
▁multifunctional	45
▁nevertheless	45
▁obs	45
▁offensive	45
▁plainly	45
▁plight	45
▁provincial	45
▁reinforcement	45
▁reminding	45
▁scrap	45
▁shiga	45
▁subs	45
▁technically	45
▁thriving	45
▁timber	45
▁unduly	45
▁unfortunately	45
▁verdict	45
")	44
)]	44
398	44
Coun	44
agin	44
antin	44
around	44
compass	44
driven	44
edo	44
ethe	44
gments	44
hrop	44
ifiable	44
igenous	44
ikan	44
inf	44
isen	44
issance	44
iverse	44
ivery	44
legram	44
looking	44
lusion	44
mak	44
ois	44
ountain	44
pair	44
porary	44
shed	44
unda	44
usu	44
ò	44
▁''	44
▁2006.	44
▁Bali	44
▁CI	44
▁Caca	44
▁Candidate	44
▁Cases	44
▁Climate	44
▁Commonwealth	44
▁Either	44
▁Fif	44
▁Gross	44
▁Improvement	44
▁Juan	44
▁Lud	44
▁Mali	44
▁Marshall	44
▁Motors	44
▁Naturally	44
▁Preparation	44
▁Sax	44
▁Schn	44
▁Siemens	44
▁Sok	44
▁Taj	44
▁Tay	44
▁Turning	44
▁Venezuela	44
▁Vincent	44
▁Viv	44
▁WORD	44
▁aiming	44
▁arising	44
▁asp	44
▁brutal	44
▁constitution	44
▁contracted	44
▁cooper	44
▁coordinate	44
▁corresponds	44
▁credibility	44
▁demise	44
▁demonstrations	44
▁diplomas	44
▁disagreement	44
▁distort	44
▁enlarged	44
▁exceptions	44
▁excessively	44
▁exploration	44
▁exporter	44
▁harness	44
▁impending	44
▁imperative	44
▁inadequate	44
▁inclusive	44
▁incur	44
▁insignificant	44
▁interm	44
▁interventions	44
▁isolate	44
▁issuing	44
▁jerin	44
▁kaya	44
▁lifelong	44
▁mediator	44
▁mem	44
▁pir	44
▁polic	44
▁preced	44
▁pup	44
▁racism	44
▁recreational	44
▁redu	44
▁remainder	44
▁respondents	44
▁rever	44
▁scra	44
▁stakes	44
▁unch	44
▁undue	44
▁wording	44
ADO	43
ERR	43
Euro	43
South	43
abba	43
acters	43
allon	43
alon	43
awan	43
cutting	43
educ	43
entials	43
ernal	43
finite	43
gang	43
habilit	43
helm	43
ilu	43
imat	43
justice	43
kki	43
mouth	43
office	43
okers	43
pret	43
rodu	43
shima	43
teenth	43
tries	43
ubble	43
uese	43
urban	43
vimas	43
„	43
▁-3	43
▁1.9	43
▁1957	43
▁2.6	43
▁2004.	43
▁Anglo	43
▁Bernard	43
▁Bik	43
▁Birds	43
▁Estonian	43
▁Fuk	43
▁Gaz	43
▁Gur	43
▁Kou	43
▁LT	43
▁Lie	43
▁Mann	43
▁Mare	43
▁Nath	43
▁Networks	43
▁Patent	43
▁Pierre	43
▁Reserve	43
▁Strategic	43
▁Weekly	43
▁aggression	43
▁antibiotics	43
▁bark	43
▁bene	43
▁bioc	43
▁bloc	43
▁compliment	43
▁cooperated	43
▁democratic	43
▁disagreements	43
▁doubtless	43
▁energet	43
▁enlarge	43
▁experiments	43
▁fert	43
▁financing	43
▁geography	43
▁illicit	43
▁initiate	43
▁innov	43
▁ky	43
▁mats	43
▁millennium	43
▁narrative	43
▁ol	43
▁overs	43
▁pedest	43
▁persists	43
▁plastics	43
▁prol	43
▁restrict	43
▁sanctions	43
▁sar	43
▁shifted	43
▁summit	43
▁sums	43
▁surveys	43
▁unstable	43
▁upholding	43
▁vaccination	43
▁wasting	43
/200	42
AGA	42
Call	42
Cloud	42
ILITY	42
ITIES	42
anet	42
atab	42
cipl	42
dar	42
election	42
hic	42
ocaust	42
oubtedly	42
ousing	42
pite	42
rial	42
suing	42
turn	42
uthor	42
uthors	42
Ã	42
ün	42
ʼ	42
دی	42
▁137	42
▁Abe	42
▁Alg	42
▁Amint	42
▁Andr	42
▁Belgian	42
▁Burg	42
▁Cred	42
▁EQU	42
▁Employ	42
▁Immigration	42
▁Innov	42
▁Israeli	42
▁MIL	42
▁Malm	42
▁Masu	42
▁Nassa	42
▁Nemo	42
▁Ore	42
▁Panama	42
▁Renew	42
▁Saka	42
▁Shafi	42
▁Uzbekistan	42
▁advisable	42
▁astonishing	42
▁attent	42
▁boosting	42
▁breed	42
▁catching	42
▁cleared	42
▁coalition	42
▁cris	42
▁defe	42
▁denying	42
▁diamonds	42
▁disturb	42
▁duk	42
▁eld	42
▁fairness	42
▁incon	42
▁incorrect	42
▁inher	42
▁innoc	42
▁interpre	42
▁investig	42
▁jawo	42
▁juris	42
▁lays	42
▁mayor	42
▁merits	42
▁nerv	42
▁notify	42
▁objection	42
▁phases	42
▁rash	42
▁rat	42
▁renounce	42
▁reversal	42
▁rufi	42
▁sch	42
▁schooling	42
▁seiz	42
▁sized	42
▁slowed	42
▁steering	42
▁terminate	42
▁unified	42
▁voluntarily	42
▁wield	42
▁wis	42
▁zai	42
-2010	41
-2012	41
=5.	41
India	41
STR	41
UTION	41
afin	41
amination	41
arbon	41
armed	41
autiful	41
eland	41
elines	41
gic	41
iddle	41
ologically	41
otal	41
otechnology	41
ription	41
roducing	41
sider	41
social	41
special	41
specific	41
thesis	41
tin	41
uating	41
ublic	41
ufi	41
usc	41
án	41
är	41
А	41
я	41
ṇ	41
▁1973	41
▁3.3	41
▁370	41
▁Athen	41
▁DRC	41
▁Dell	41
▁FP	41
▁Fax	41
▁Fourth	41
▁Fra	41
▁Kazakh	41
▁Ll	41
▁Nem	41
▁Partnership	41
▁Ramin	41
▁Regulation	41
▁Ruwa	41
▁Shirya	41
▁TAC	41
▁UNION	41
▁WTO	41
▁Wel	41
▁advis	41
▁amended	41
▁ascertain	41
▁attaining	41
▁biomass	41
▁candid	41
▁catering	41
▁cigarettes	41
▁comprising	41
▁cows	41
▁destro	41
▁disabilities	41
▁emit	41
▁firstly	41
▁frameworks	41
▁futures	41
▁halt	41
▁hindered	41
▁homosexual	41
▁inability	41
▁indirect	41
▁ja	41
▁kafa	41
▁mainland	41
▁mines	41
▁nationally	41
▁observations	41
▁overcoming	41
▁pension	41
▁polluted	41
▁proceeding	41
▁progressing	41
▁prudent	41
▁qualitative	41
▁questionable	41
▁repaid	41
▁revive	41
▁somebody	41
▁strains	41
▁subscrib	41
▁theories	41
▁undert	41
▁undertaking	41
▁unh	41
▁volatility	41
▁whist	41
........	40
ATO	40
Direct	40
ESC	40
Marble	40
Yan	40
[2]	40
alu	40
arshen	40
ateg	40
baric	40
borg	40
elve	40
ficult	40
gw	40
hentic	40
ications	40
icia	40
imately	40
itories	40
lusions	40
oded	40
ongue	40
osm	40
product	40
resent	40
stated	40
tu	40
ushe	40
Ā	40
ش	40
√	40
▁-4	40
▁1996,	40
▁1999,	40
▁2.7	40
▁2003.	40
▁32.	40
▁Airbus	40
▁Aka	40
▁Aliyu	40
▁BUSINESS	40
▁Contrary	40
▁Dennis	40
▁Farmers	40
▁Impro	40
▁Kaf	40
▁Kak	40
▁Kud	40
▁Kus	40
▁LU	40
▁Lang	40
▁Luci	40
▁Mada	40
▁Mam	40
▁Nazarin	40
▁Nobody	40
▁Palestine	40
▁Poverty	40
▁Representative	40
▁Slovak	40
▁Tsaro	40
▁WIT	40
▁Waste	40
▁Yau	40
▁accus	40
▁advantageous	40
▁amounted	40
▁appe	40
▁arena	40
▁bans	40
▁cin	40
▁circumst	40
▁collaborate	40
▁commendable	40
▁commodities	40
▁communicated	40
▁continents	40
▁curb	40
▁dan	40
▁dependence	40
▁desperately	40
▁diam	40
▁differential	40
▁doomed	40
▁endorsed	40
▁eventual	40
▁evolved	40
▁exceptionally	40
▁foster	40
▁freeze	40
▁hectares	40
▁ig	40
▁impacts	40
▁investigated	40
▁jam	40
▁lively	40
▁mech	40
▁mindful	40
▁momentum	40
▁negatively	40
▁nost	40
▁parliament	40
▁pione	40
▁preparatory	40
▁regeneration	40
▁sanitary	40
▁shaf	40
▁sheer	40
▁transc	40
▁transforming	40
▁transit	40
▁triangle	40
▁uneven	40
▁unfortunate	40
▁unrest	40
▁vague	40
▁validity	40
▁whereby	40
市	40
Germany	39
INI	39
IRA	39
________	39
alie	39
arante	39
ateful	39
aults	39
cio	39
cu	39
eca	39
efficiency	39
enth	39
feld	39
fficial	39
iar	39
icting	39
itism	39
pool	39
ready	39
stanbul	39
tun	39
vic	39
yar	39
és	39
ì	39
̄	39
г	39
‐	39
▁-5	39
▁0.4	39
▁152	39
▁295	39
▁Alm	39
▁Assistance	39
▁Businesses	39
▁Coalition	39
▁Columb	39
▁Crisis	39
▁DEC	39
▁Decision	39
▁Election	39
▁Employment	39
▁Esp	39
▁Evans	39
▁Finn	39
▁Fir	39
▁Formats	39
▁Helsinki	39
▁Infl	39
▁LAB	39
▁Lithuania	39
▁MAX	39
▁Maltese	39
▁Mush	39
▁RU	39
▁Rog	39
▁Telecom	39
▁adaptability	39
▁aggreg	39
▁altered	39
▁brut	39
▁coc	39
▁collectively	39
▁compensate	39
▁competing	39
▁counterparts	39
▁deprived	39
▁destined	39
▁disadvantaged	39
▁dism	39
▁eff	39
▁explicit	39
▁hankalin	39
▁ina	39
▁incomplete	39
▁intervened	39
▁jan	39
▁jurisdictions	39
▁lengthy	39
▁logging	39
▁mah	39
▁overthrow	39
▁persistence	39
▁pla	39
▁precaution	39
▁precurs	39
▁preserv	39
▁refuses	39
▁rejects	39
▁renovation	39
▁retire	39
▁satisf	39
▁seminar	39
▁sentiment	39
▁speeches	39
▁subscribe	39
▁successes	39
▁thwart	39
▁unclear	39
▁wan	39
▁ɗin	39
✔	39
-2008	38
EK	38
HSR	38
President	38
RD	38
STA	38
acies	38
alom	38
astically	38
aun	38
docu	38
erting	38
ilan	38
ilding	38
ilin	38
merg	38
ocu	38
ommend	38
onnel	38
oros	38
osion	38
qualified	38
ropolitan	38
sibility	38
stood	38
ternoon	38
udes	38
urai	38
urches	38
utable	38
voc	38
wig	38
Р	38
з	38
ئ	38
▁Abb	38
▁Adri	38
▁Alternative	38
▁Autumn	38
▁Bud	38
▁Catherine	38
▁Cox	38
▁Dab	38
▁Dy	38
▁Entrepreneur	38
▁Gordon	38
▁José	38
▁KAR	38
▁Kuwait	38
▁Liberia	38
▁MID	38
▁Mata	38
▁Membership	38
▁Ministerial	38
▁Olymp	38
▁Ruh	38
▁Sach	38
▁Seattle	38
▁Stella	38
▁Summary	38
▁Yesterday	38
▁abstract	38
▁ally	38
▁atmospheric	38
▁bilateral	38
▁biom	38
▁burd	38
▁caca	38
▁complementary	38
▁complied	38
▁configur	38
▁constitutes	38
▁convicted	38
▁correcting	38
▁deepest	38
▁deprive	38
▁designation	38
▁diminished	38
▁ecosystem	38
▁entails	38
▁expenditure	38
▁explo	38
▁formidable	38
▁ideology	38
▁incentive	38
▁interf	38
▁interloc	38
▁irin	38
▁jima	38
▁journeys	38
▁lardin	38
▁lending	38
▁mafi	38
▁malaria	38
▁methodology	38
▁metres	38
▁monet	38
▁overth	38
▁pledged	38
▁preoccup	38
▁prohibition	38
▁pupils	38
▁recru	38
▁replaces	38
▁resent	38
▁retaining	38
▁seasonal	38
▁sett	38
▁shar	38
▁supervis	38
▁suppression	38
▁taxation	38
▁tertiary	38
▁trivial	38
▁underway	38
▁unemployment	38
▁vigorous	38
▁violating	38
▁warming	38
▁workforce	38
▁ش	38
▁€2	38
Bur	37
CDD	37
EPA	37
ESSES	37
Green	37
IDS	37
Ka	37
Office	37
Sec	37
ackage	37
adm	37
afety	37
ahn	37
astik	37
azard	37
enti	37
etimes	37
feren	37
idan	37
illar	37
istrib	37
keep	37
norm	37
occ	37
official	37
osi	37
phony	37
raising	37
ratory	37
represent	37
resa	37
riers	37
ropical	37
sche	37
ubarak	37
uctions	37
vard	37
worthy	37
ystall	37
ß	37
än	37
én	37
ð	37
ř	37
ط	37
ব	37
›	37
▁34.	37
▁36.	37
▁45.	37
▁Andre	37
▁Bayanin	37
▁Burkina	37
▁Conventions	37
▁Declaration	37
▁Diversity	37
▁Dü	37
▁Faso	37
▁Gaza	37
▁Hun	37
▁Jensen	37
▁Jima	37
▁KAL	37
▁Lah	37
▁Securities	37
▁Soci	37
▁Sta	37
▁Yana	37
▁acknowledging	37
▁additives	37
▁adherence	37
▁aggrav	37
▁aikin	37
▁antic	37
▁assessments	37
▁attacking	37
▁autonomous	37
▁aven	37
▁cessation	37
▁concluding	37
▁cornerstone	37
▁diversified	37
▁entrenched	37
▁exempl	37
▁exerted	37
▁fishermen	37
▁handic	37
▁haske	37
▁hunt	37
▁incomp	37
▁infect	37
▁iska	37
▁jud	37
▁moderation	37
▁nationalities	37
▁outdated	37
▁quant	37
▁reconcile	37
▁refin	37
▁reforms	37
▁regretted	37
▁restrictive	37
▁retraining	37
▁revision	37
▁risky	37
▁safeguarded	37
▁shim	37
▁storms	37
▁suspects	37
▁suspicion	37
▁swine	37
▁tan	37
▁tangible	37
▁tef	37
▁territorial	37
▁threatens	37
▁upwards	37
▁wishing	37
✓	37
.500	36
/95	36
Africa	36
EFA	36
Ku	36
Secret	36
TML	36
ansa	36
antu	36
arded	36
ardin	36
artan	36
ashion	36
ayawa	36
chet	36
enburg	36
essed	36
forth	36
ifferent	36
igl	36
illions	36
iton	36
iyan	36
learning	36
orage	36
rage	36
rez	36
stant	36
trust	36
unta	36
urar	36
wegian	36
Â	36
ز	36
▁1998,	36
▁Administrative	36
▁Admittedly	36
▁Aegean	36
▁Alk	36
▁Arrest	36
▁Clinton	36
▁Emerg	36
▁Fon	36
▁Franz	36
▁Hug	36
▁Isha	36
▁Karanta	36
▁LONDON	36
▁Luis	36
▁MG	36
▁Miller	36
▁Principles	36
▁academics	36
▁anticipate	36
▁ay	36
▁bias	36
▁bir	36
▁broadband	36
▁cancell	36
▁chang	36
▁chaos	36
▁compromised	36
▁concent	36
▁continuation	36
▁discouraging	36
▁disruption	36
▁divid	36
▁equals	36
▁fluct	36
▁focal	36
▁geo	36
▁guideline	36
▁homose	36
▁hopefully	36
▁impartiality	36
▁indifferent	36
▁intensified	36
▁introductory	36
▁invoked	36
▁karantawa	36
▁manipulation	36
▁mash	36
▁missiles	36
▁neg	36
▁occupying	36
▁opposes	36
▁outlines	36
▁perv	36
▁plural	36
▁poetry	36
▁poorly	36
▁reacting	36
▁recovering	36
▁shaping	36
▁successive	36
▁suffice	36
▁sup	36
▁surplus	36
▁sympath	36
▁telecom	36
▁traum	36
▁tyr	36
▁undesirable	36
▁valu	36
▁vigorously	36
▁volatile	36
▁wasu	36
▁widen	36
(4)	35
YN	35
abetes	35
aily	35
amura	35
ancies	35
atform	35
bone	35
cape	35
cember	35
connected	35
enda	35
enne	35
growing	35
igrants	35
iliation	35
iments	35
nce	35
okin	35
ptember	35
rehensible	35
rub	35
vention	35
ystal	35
ù	35
ą	35
ć	35
ɔ	35
ʻ	35
ш	35
فا	35
▁('	35
▁2003,	35
▁3.6	35
▁50,	35
▁85%	35
▁Albanian	35
▁Ayyuka	35
▁BP	35
▁Bosn	35
▁CFP	35
▁Carlos	35
▁Citizens	35
▁Commenting	35
▁Deutsche	35
▁ECU	35
▁Franc	35
▁Funds	35
▁Hung	35
▁Institutions	35
▁Italians	35
▁Kariya	35
▁Kyr	35
▁Leh	35
▁Leone	35
▁Morgan	35
▁NATO	35
▁NU	35
▁Offic	35
▁Oslo	35
▁Pala	35
▁Reduction	35
▁Rwanda	35
▁Shirin	35
▁Terrorism	35
▁Tort	35
▁Uzbek	35
▁broader	35
▁bubbles	35
▁civilization	35
▁conducive	35
▁contra	35
▁contradict	35
▁critically	35
▁decreasing	35
▁displaced	35
▁downward	35
▁economies	35
▁elaborate	35
▁exporting	35
▁farashin	35
▁federation	35
▁forcing	35
▁genital	35
▁likelihood	35
▁lor	35
▁lowered	35
▁lowering	35
▁marg	35
▁origins	35
▁particip	35
▁partly	35
▁pie	35
▁prevails	35
▁proportional	35
▁quantitative	35
▁rana	35
▁resisted	35
▁retailers	35
▁roba	35
[...]
