▁da	748943
,	365893
▁a	276275
.	235105
▁.	215096
▁ya	214569
▁na	184370
▁,	176817
▁kuma	139524
▁ba	113971
▁ta	110871
▁yi	97116
-	95468
▁ne	94947
▁su	86576
'	83012
’	79640
▁:	77200
▁(	72119
▁za	69465
▁mai	65495
▁mu	63002
▁ga	62636
▁-	61257
:	60315
▁cikin	59736
▁A	52854
▁iya	52376
▁ka	52369
▁daga	51729
▁shi	51051
▁don	49922
▁cewa	47955
▁sa	45549
▁“	44177
▁Allah	43367
▁?	42856
▁ko	41682
▁yana	41135
a	40316
▁wa	40201
▁”	39393
▁wannan	38753
▁wani	38671
▁suka	36938
▁zai	36311
▁ce	35941
▁)	35921
▁aka	35058
▁amfani	33130
▁kan	32281
▁masu	31605
▁tare	30778
▁ke	30109
▁sun	29586
▁1	28494
▁zuwa	27872
)	27503
▁yin	27481
▁suna	27206
▁wanda	26459
▁Jehobah	26280
an	25871
▁haka	25676
ar	25365
▁ku	24906
▁"	24502
i	24269
▁Mai	23929
▁m	23286
▁ma	22975
▁abin	22815
▁yake	22797
▁aiki	22796
▁yadda	22472
▁zama	22375
▁K	21721
▁kamar	21430
▁’	21330
▁/	21146
▁nan	20937
▁lokacin	20388
▁Yesu	19635
▁2	19474
▁game	19463
wa	19454
▁mutane	19278
u	19253
▁wasu	19135
o	19120
ad	19112
in	18996
▁nuna	18964
▁kyau	18565
sa	18509
▁gaba	18482
▁3	18179
▁domin	18151
▁kai	18118
▁yawa	17851
▁—	17696
s	17680
▁suke	17537
▁mafi	16640
▁Ya	16532
▁M	16492
su	16463
▁5	16430
▁har	16168
▁S	16104
▁duniya	16048
▁ji	16048
▁k	15583
▁Kuma	15536
un	15346
▁an	15182
▁Ka	15048
▁B	15033
iya	14933
▁Ta	14898
▁Da	14820
▁ciki	14771
▁al	14734
▁4	14715
?	14680
▁T	14642
▁ci	14642
k	14461
▁;	14264
▁amma	14206
▁'	14109
ka	14080
▁idan	14059
▁kasance	14036
▁G	14004
▁	13481
▁lokaci	13378
▁Tsarki	13376
▁bayan	13373
mu	13369
▁sosai	13088
▁Littafi	12888
▁biyu	12847
▁D	12794
▁dukan	12771
awa	12677
uwa	12626
▁kayan	12566
▁F	12527
▁10	12422
▁duk	12353
▁R	12200
▁6	11973
▁ni	11968
▁H	11805
▁waɗanda	11502
ai	11482
▁Wannan	11368
▁Y	11366
▁irin	11326
▁Amma	11288
▁‘	11236
▁hanyar	11172
...	11167
▁N	11114
ara	11022
yan	10976
▁shekara	10929
▁Na	10928
▁ake	10832
▁in	10736
▁kawai	10679
▁farko	10653
▁samar	10647
▁An	10575
▁ƙ	10529
▁sai	10399
/	10340
on	10318
ã	10290
▁san	10273
▁hakan	10225
▁7	10218
m	10190
▁wata	10185
al	10166
▁yaya	10152
▁yan	10121
▁C	10032
▁kamata	10005
▁Idan	9997
▁[	9994
▁Za	9991
▁so	9902
b	9899
▁mutum	9875
▁kasa	9843
▁8	9842
y	9821
▁_	9787
▁samun	9786
▁L	9763
▁yanzu	9756
▁aikin	9730
▁Ubangiji	9528
as	9481
▁muna	9479
▁Sa	9432
at	9398
▁samu	9374
!	9325
"	9324
▁taimaka	9319
▁12	9312
▁W	9310
▁15	9272
t	9262
▁Ba	9243
▁wajen	9196
▁girma	9148
▁matsayin	9089
▁b	9059
▁sha	9039
▁g	9034
▁sama	8912
en	8848
▁9	8765
A	8744
h	8702
▁Z	8698
▁to	8669
ata	8650
ya	8636
▁wurin	8574
▁kowane	8537
▁t	8486
ana	8462
▁gare	8453
▁son	8446
2	8391
▁tsarin	8355
▁>	8328
▁bai	8324
▁gaskiya	8283
▁yau	8233
S	8232
ura	8210
K	8187
;	8143
▁Me	8143
ina	8092
ari	8074
▁bayyana	8040
ak	8014
▁J	8011
g	8001
▁kafa	7990
▁magana	7987
▁muka	7984
▁masa	7969
▁daya	7962
▁11	7945
D	7940
M	7928
am	7927
▁sami	7816
▁mana	7803
▁bi	7796
B	7735
iyar	7731
w	7728
▁waɗannan	7685
▁Jehovah	7665
▁ts	7658
▁Duk	7592
ada	7572
▁bukatar	7512
▁&	7504
▁ruwa	7498
ab	7479
▁rana	7466
▁musamman	7446
4	7442
3	7385
▁14	7342
ci	7292
▁babban	7279
▁13	7269
▁The	7255
▁Yana	7222
z	7210
▁d	7156
▁ra	7152
▁saboda	7151
▁baya	7095
1	7060
▁sauran	7058
▁fi	7056
▁fiye	7051
▁hankali	7039
▁abubuwa	7031
ani	7022
una	7002
▁farin	6991
▁20	6921
▁abu	6869
▁z	6862
▁shafi	6845
▁18	6837
▁muke	6835
W	6825
▁bauta	6805
▁16	6802
▁bar	6797
6	6760
▁24	6760
▁19	6750
▁dace	6746
ila	6672
d	6634
▁sabon	6615
▁bisa	6611
▁akwai	6603
f	6579
▁h	6564
C	6561
▁gidan	6541
▁shekaru	6541
▁17	6540
▁mata	6531
▁masana	6480
ur	6456
▁s	6444
▁P	6417
war	6412
▁dai	6412
ama	6406
8	6389
▁zo	6388
aya	6383
I	6364
▁$	6348
▁tana	6345
▁Hotel	6331
▁kuwa	6329
▁daban	6325
▁mun	6307
▁fara	6290
▁Al	6244
▁rai	6226
▁Don	6225
▁musu	6218
l	6155
anta	6150
e	6097
is	6083
H	6075
7	6056
▁misali	5981
ir	5965
▁Bulus	5948
G	5944
com	5931
us	5917
#	5898
▁jin	5885
er	5882
▁n	5872
▁f	5865
▁shiga	5827
▁Ina	5813
aka	5795
▁y	5792
▁tsakanin	5790
▁Saboda	5773
▁–	5773
U	5763
▁guda	5757
▁lafiya	5748
▁yanar	5747
▁j	5693
T	5689
▁ana	5683
im	5674
▁sake	5670
▁muhimmanci	5668
arin	5662
ay	5662
▁ɗaya	5657
ƙ	5655
j	5647
▁Domin	5639
▁kula	5635
▁...	5605
▁+	5597
▁ita	5582
▁nufin	5568
n	5562
▁kana	5561
awar	5559
▁Ko	5541
▁abubuwan	5536
ing	5523
▁!	5523
▁rubuta	5516
r	5514
▁ɗan	5513
F	5511
▁Isra	5507
▁Mun	5500
▁Sai	5500
▁inda	5486
daban	5462
▁]	5459
5	5457
▁yawan	5445
).	5422
▁mutanen	5408
▁I	5407
▁w	5407
▁Sh	5378
▁kira	5343
▁gaya	5342
▁Sun	5322
▁Kiristoci	5310
▁gida	5297
▁rayuwa	5279
ashi	5276
9	5273
N	5251
▁tabbatar	5240
▁Muna	5219
▁ciniki	5216
ik	5165
shi	5130
▁kar	5128
ah	5121
▁ban	5117
▁ranar	5112
▁yanayin	5108
ayi	5098
aki	5093
▁sani	5065
▁Mini	5064
▁uku	5063
iy	5056
▁kafin	5047
▁l	5029
▁shine	5028
▁addu	5006
ku	5005
▁kasar	5005
▁tafiya	4998
id	4967
uwar	4947
azi	4940
um	4940
uk	4912
▁Bayan	4912
▁Shin	4899
▁Kristi	4886
▁Stone	4880
▁hanya	4880
arar	4879
▁tun	4860
▁for	4842
it	4829
anci	4823
uka	4822
▁kansa	4814
L	4813
▁rashin	4804
▁damar	4789
are	4782
▁aminci	4780
c	4753
▁O	4738
▁babu	4735
anin	4728
▁ina	4717
▁sauransu	4714
▁ƙarfafa	4710
Y	4701
▁<	4690
▁ganin	4674
ansu	4671
▁sh	4659
x	4654
asa	4650
▁ɗ	4650
▁sanya	4644
▁2019	4643
▁Ma	4637
▁25	4636
▁waje	4634
▁r	4633
▁jiki	4627
▁Ku	4624
AN	4618
▁akan	4618
ayin	4606
▁kashe	4590
▁Menene	4578
antu	4559
▁bayar	4558
▁*	4553
ansa	4549
▁cika	4544
Z	4537
▁kusa	4535
▁c	4532
▁Shi	4529
ta	4516
P	4512
▁soma	4505
▁ƙasar	4490
re	4469
▁zan	4466
▁E	4453
▁30	4439
▁ISO	4435
aye	4412
ji	4386
ant	4367
▁Kayan	4356
▁manyan	4350
▁koya	4348
▁21	4347
▁sau	4336
▁22	4328
▁ayyukan	4324
af	4315
il	4311
▁jirgin	4308
▁take	4304
IN	4303
or	4301
▁•	4285
▁maza	4281
▁Kamar	4279
▁daidai	4278
▁kada	4273
ce	4263
),	4256
▁yayin	4249
▁23	4247
▁CE	4243
▁V	4236
▁halin	4231
▁karfe	4225
▁ƙasa	4220
00	4216
R	4210
▁Mu	4183
▁kawo	4179
▁kayayyakin	4167
▁of	4159
▁0	4158
▁la	4153
▁dama	4150
▁high	4150
▁Dutse	4130
▁bincike	4130
▁kamfanin	4117
▁dur	4101
▁abokan	4093
ic	4085
▁hannu	4082
▁ikon	4081
ma	4076
ut	4060
▁gaban	4060
▁duba	4058
ul	4056
▁abinci	4041
▁karanta	4030
▁caca	4026
▁bayani	4010
▁start	4003
ace	3965
na	3965
▁sabis	3965
ita	3961
▁Ƙ	3960
V	3948
(	3933
▁faru	3916
_	3912
ba	3911
▁X	3908
▁Yohanna	3902
="	3901
▁ja	3899
AR	3898
▁#	3895
▁Ts	3873
▁taron	3843
ag	3829
▁Yi	3827
▁tsara	3819
▁duka	3816
▁Hakika	3813
▁gani	3812
arka	3799
▁Mat	3796
▁Daga	3786
▁cikakken	3782
aba	3762
iri	3762
▁iko	3746
▁kw	3745
akar	3734
arwa	3730
▁nau	3720
aw	3717
▁dabam	3714
▁gina	3706
cin	3697
▁lantarki	3696
▁watan	3696
ia	3690
ika	3684
le	3677
▁your	3677
▁Yin	3673
▁yarda	3672
▁Yaya	3670
▁saka	3664
▁bayanai	3653
▁dole	3653
▁zaman	3633
20	3622
▁Abin	3620
yar	3611
10	3610
▁neman	3604
▁dutse	3596
▁Yanzu	3593
▁haske	3593
▁yanayi	3591
▁hana	3567
urar	3566
▁kyauta	3559
uri	3553
▁kudi	3553
▁je	3551
▁jama	3547
▁mak	3540
da	3521
▁Ga	3504
▁Babu	3501
▁Mene	3501
▁alama	3479
▁hidima	3474
▁ƙauna	3463
ig	3459
mm	3450
▁kansu	3450
ida	3438
▁Kirista	3437
▁tunani	3437
▁ha	3436
p	3434
▁gyara	3431
▁software	3429
el	3427
ub	3427
▁shugaban	3413
ra	3412
▁halitta	3410
▁Zabura	3409
atar	3406
unan	3398
▁tuna	3398
▁littafin	3386
▁Yadda	3385
▁samfurin	3375
▁28	3367
://	3354
]	3347
▁tsarki	3347
▁Musa	3346
”	3342
▁dan	3342
O	3341
">	3334
▁kama	3332
E	3326
▁gizo	3322
▁gudanar	3307
ot	3306
."	3300
▁DA	3298
▁zane	3298
▁tunanin	3289
▁fahimci	3283
and	3278
▁wuri	3276
▁hada	3266
▁amsa	3261
▁bã	3250
▁2018	3248
▁U	3247
▁jami	3243
hi	3239
▁man	3227
arta	3213
▁Akwai	3211
▁ruwan	3207
X	3205
▁Amurka	3203
et	3201
▁kun	3196
ima	3194
ki	3188
if	3184
antar	3175
▁Lokacin	3172
inta	3168
v	3168
▁Baya	3156
▁shirin	3153
▁kara	3149
▁kowace	3148
ala	3147
▁gaske	3147
os	3141
▁maka	3135
▁wasan	3134
▁sunan	3133
▁tafi	3128
▁launi	3123
▁nazarin	3117
ib	3113
▁bin	3112
▁shafin	3104
ali	3099
12	3096
ira	3085
urin	3083
▁Shaiɗan	3076
▁yara	3074
ance	3073
▁wato	3064
15	3058
▁26	3055
ane	3052
▁China	3047
▁bukata	3047
▁shirya	3042
arsa	3038
▁Sin	3037
▁Wasu	3031
▁sakamakon	3018
▁adalci	3016
▁wasa	3014
õ	3012
▁ilimi	3011
▁rage	3011
▁Babban	3009
anda	3004
▁shawara	2998
ang	2997
▁koyi	2993
▁Mafi	2991
▁taimakon	2990
▁fa	2986
inku	2985
▁birnin	2985
amar	2983
▁Tsarin	2977
▁farashin	2977
▁Masu	2976
es	2971
▁dogara	2966
▁lura	2963
▁Shaidun	2958
19	2949
ashin	2947
▁kasuwanci	2942
▁Bitrus	2938
▁wuya	2937
▁ƙaunar	2934
▁juna	2931
▁fasaha	2930
▁Wane	2926
▁aika	2922
J	2917
▁kullum	2911
▁100	2909
▁Wani	2907
fa	2903
ɓ	2902
ke	2900
▁Ad	2899
ukan	2896
▁ayyuka	2895
▁Suka	2889
all	2888
ɗa	2888
▁nasara	2884
ure	2878
ƙa	2878
▁kasancewa	2876
▁ado	2871
ash	2863
▁ƙara	2863
▁jerin	2862
▁Dauda	2858
▁cutar	2858
▁shirye	2855
▁yankin	2855
▁ruhaniya	2854
▁gama	2852
ed	2847
▁bakin	2844
▁inganta	2842
▁zuciya	2837
uma	2823
▁goyon	2822
▁mutu	2817
▁Aika	2816
▁bada	2816
▁kake	2806
▁27	2805
anku	2803
16	2802
▁mat	2799
aikata	2797
▁aure	2795
▁mini	2794
▁Karanta	2790
17	2785
▁kuka	2782
▁Wata	2780
▁daraja	2780
▁Har	2779
▁dā	2778
▁riƙa	2775
uwan	2774
▁biyayya	2770
se	2769
ami	2768
anar	2767
irin	2764
▁zunubi	2759
▁ƙarfi	2758
▁aikace	2746
akari	2738
adi	2735
▁wanka	2732
▁jihar	2724
▁Alal	2718
▁shawarar	2714
▁In	2712
▁inji	2710
▁abokin	2708
▁shaida	2707
ol	2696
om	2696
▁Kw	2689
▁Turai	2689
▁yar	2689
▁tattauna	2688
▁wadannan	2685
▁aikata	2683
13	2682
▁labarin	2682
▁wuce	2678
▁shakka	2671
▁Ana	2669
▁kaya	2667
▁cin	2666
▁iri	2663
▁Kalmar	2655
18	2653
▁Kai	2652
ark	2645
▁wasanni	2642
fe	2638
th	2637
uw	2636
▁Maris	2632
▁sanin	2631
▁taro	2627
aru	2625
uta	2624
▁Yan	2622
ake	2621
25	2620
▁is	2613
▁kusan	2606
▁me	2606
▁tsaye	2606
▁Mulkin	2605
▁waya	2605
▁sadarwa	2604
▁Kasa	2603
az	2598
▁tsaya	2595
armu	2590
▁Android	2590
▁tsawon	2583
14	2582
▁kowa	2580
▁online	2574
▁tabbata	2573
▁40	2568
▁faɗa	2568
▁amince	2567
▁sana	2564
▁fata	2562
▁Google	2556
jin	2550
ĩ	2550
▁Adam	2550
30	2542
▁1.	2540
▁Am	2535
▁Ch	2533
▁gabatar	2532
▁tsaro	2531
ren	2530
za	2522
▁muku	2518
ayar	2514
▁kuna	2507
ers	2506
▁motsa	2504
ro	2500
▁Karfe	2497
ɗ	2493
▁29	2493
▁Su	2492
▁tsari	2490
ha	2489
▁50	2489
▁Tare	2485
▁baƙin	2483
▁Matta	2476
▁sauri	2469
▁sauki	2468
▁Bar	2462
▁buga	2458
▁yanke	2455
▁zafi	2454
▁biya	2447
▁taimake	2441
▁taimako	2438
▁mamaki	2432
▁hali	2424
50	2421
▁shigar	2417
ts	2412
ch	2411
yi	2410
▁marasa	2408
▁taɓa	2399
iyawa	2398
▁ad	2395
▁p	2392
▁sauƙi	2385
▁wadanda	2385
ud	2384
▁ƙarin	2375
anka	2374
▁ikilisiya	2374
▁bukatun	2372
▁ƙarshe	2365
▁ƙi	2352
▁ɗauki	2351
80	2347
▁zauna	2347
0	2337
akin	2336
▁hikima	2335
▁canja	2330
▁kas	2328
ikan	2323
ine	2321
ok	2321
▁Jami	2321
▁wuta	2315
▁(2	2311
▁kare	2310
▁hanyoyin	2304
99	2303
▁binciken	2302
▁ingancin	2302
▁ruhu	2297
q	2295
▁rufe	2294
ats	2292
▁Duniya	2283
▁hannun	2283
og	2282
▁gano	2281
▁bincika	2275
▁mutuwa	2272
▁more	2271
▁tashi	2270
▁fita	2267
▁Ibrahim	2264
▁gwajin	2260
▁zamanin	2259
▁zamani	2257
▁Annabi	2256
▁haifar	2255
▁Tun	2249
▁had	2248
▁Ab	2245
he	2235
▁Gida	2234
▁shan	2234
▁gizon	2231
▁labarai	2228
amin	2226
▁abada	2223
▁kwatanta	2218
▁wadda	2215
>	2209
bar	2208
▁Facebook	2208
▁koma	2207
▁https	2206
ga	2197
40	2179
ist	2179
▁riga	2178
▁isa	2177
▁iska	2169
ũ	2168
▁batun	2166
▁kwanaki	2164
iki	2163
▁Kada	2162
▁daina	2161
▁bude	2159
▁fito	2153
▁To	2152
sh	2150
▁ƙarfin	2146
▁hanyoyi	2138
24	2136
art	2135
▁2017	2134
▁Kasuwanci	2134
▁mayar	2131
▁Sanya	2124
▁kudin	2124
iz	2120
▁Japan	2120
▁video	2118
▁St	2111
▁32	2106
▁Bari	2104
ass	2101
▁am	2100
▁e	2100
▁31	2098
▁bindiga	2098
ill	2096
▁farkon	2094
▁ƙa	2094
▁University	2088
▁cibiyar	2088
▁tak	2081
▁kam	2080
:00	2076
▁ambata	2076
ank	2073
iyya	2072
▁mataki	2072
fin	2064
▁2.	2064
aj	2062
aikace	2059
▁bangaskiya	2058
▁free	2055
▁saman	2055
▁kokarin	2053
▁kanka	2052
▁bango	2050
akan	2042
umma	2040
▁miliyan	2038
▁dare	2032
▁yayi	2032
▁wahala	2031
man	2029
32	2026
▁din	2023
▁arziki	2022
alin	2020
▁Hakan	2018
▁albarka	2018
▁60	2012
▁Mulki	2012
▁Yoh	2011
▁hasken	2006
▁raba	2006
▁sayar	2004
▁koyar	2000
be	1997
▁Wanda	1994
▁sanar	1994
▁€	1994
▁Dukkan	1987
ie	1984
abi	1983
▁Mar	1983
▁haɗin	1981
st	1978
▁Co	1978
▁karkashin	1978
▁kuɗi	1977
▁NA	1975
▁Ishaya	1973
▁ainihin	1961
▁girman	1961
▁tsanani	1961
▁nake	1959
uni	1958
▁iPhone	1955
▁godiya	1952
▁kashi	1949
▁mutumin	1949
▁watsa	1949
ob	1948
▁Riga	1947
fi	1945
▁matsalar	1944
▁fitar	1942
▁Mutane	1941
▁sassa	1941
▁New	1935
ale	1934
▁33	1933
35	1930
▁Suna	1930
▁dalla	1929
▁shekarar	1929
,000	1928
.,	1927
ilawa	1925
▁gudun	1924
▁zabi	1924
▁mas	1923
▁kiyaye	1919
60	1918
uro	1918
000	1916
▁kungiyar	1914
atu	1910
▁biyan	1910
ice	1907
ri	1905
▁35	1905
▁sauti	1905
afa	1904
▁samuwa	1904
ocin	1903
▁hal	1902
▁Ban	1901
▁atomatik	1901
▁haɗa	1901
▁fassara	1899
▁gwada	1898
▁mota	1898
oma	1897
ate	1894
▁daɗewa	1894
owa	1893
▁Aiki	1893
▁bidiyo	1892
ann	1886
▁2016	1880
▁Ayyukan	1880
▁i	1879
uki	1878
ushi	1875
.5	1873
▁Gidan	1871
▁Kar	1871
▁3.	1869
▁dalilin	1865
▁maganar	1864
▁mugunta	1857
▁gane	1855
▁Buhari	1853
▁quality	1850
▁kammala	1849
▁as	1847
op	1844
ge	1842
▁Far	1841
tallace	1839
▁Granite	1839
ne	1838
▁matakin	1835
iyoyi	1834
▁bari	1832
▁yawancin	1829
▁karatu	1827
ow	1824
▁Bakin	1824
▁dattawa	1824
34	1819
▁Kor	1819
▁kasuwa	1819
1,	1818
AS	1814
▁gwaji	1814
37	1809
38	1809
▁and	1809
▁Kamfanin	1806
▁zaɓi	1806
aran	1803
ame	1802
▁tawali	1799
▁Wa	1796
▁Waɗanne	1796
-2	1794
11	1792
▁matasa	1792
▁sarrafa	1792
ancin	1790
▁dalibai	1790
▁hidimar	1790
45	1787
▁2020	1787
▁baftisma	1787
▁34	1785
▁kunne	1784
▁Ƙari	1781
acce	1780
od	1777
▁kasashen	1774
min	1772
-1	1771
▁has	1768
oyi	1763
▁canza	1759
▁matattu	1759
▁biyar	1758
1)	1756
▁Zai	1756
▁far	1753
▁Jirgin	1752
▁Cibiyar	1750
▁Manzanni	1750
▁shari	1750
▁Luka	1749
▁can	1746
ish	1744
ac	1743
39	1742
▁©	1741
▁jini	1740
iyan	1739
▁wurare	1736
▁nemi	1735
▁by	1732
▁magani	1732
iyyar	1731
▁kimiyya	1730
▁lõkacin	1730
atan	1729
▁ɓ	1729
adin	1725
▁fari	1725
▁maimakon	1723
▁Dar	1721
90	1720
▁Hoto	1719
asu	1718
▁rayuwar	1718
▁SA	1717
▁dawo	1717
WA	1716
▁Yahudawa	1714
▁ɗaukaka	1714
▁Bayani	1713
▁Zab	1712
▁kanmu	1711
▁All	1708
▁lalle	1708
▁watanni	1708
▁Ne	1704
70	1699
ary	1699
▁ƙoƙarin	1696
ɗi	1694
▁roba	1693
▁Game	1690
▁dauki	1690
em	1689
AM	1686
▁misalin	1686
▁Mag	1684
▁cire	1684
azin	1682
ici	1675
36	1666
me	1665
▁nauyi	1665
6)	1664
▁ITA	1664
kar	1663
▁Kana	1659
asar	1657
▁layi	1656
afi	1655
▁Jamus	1655
▁Windows	1653
▁halaka	1653
▁kal	1650
uy	1649
▁karfi	1649
▁Gode	1647
▁Home	1647
▁ajiya	1647
▁jar	1647
▁kuke	1647
▁takardar	1647
▁tara	1646
▁ƙarya	1645
▁ƙwarai	1644
▁ƴan	1643
▁sakamako	1642
▁Romawa	1638
▁yanki	1638
▁kus	1636
▁lamba	1635
▁dangantaka	1634
▁nufi	1634
ike	1633
▁damuwa	1632
1.	1631
ummai	1627
▁Fushi	1627
▁faruwa	1627
▁fayil	1626
▁akwatin	1624
▁dogon	1623
▁4.	1622
▁Ar	1620
aman	1619
▁Hasken	1619
▁Shugaban	1619
▁Zamu	1619
8.	1617
95	1617
▁bishara	1617
▁matsa	1617
ashe	1613
▁45	1613
▁alkawari	1612
aga	1608
aro	1607
▁goma	1606
▁tabbaci	1606
▁mag	1605
:5	1603
ayya	1596
▁Tsaro	1596
▁iyali	1596
▁ro	1596
▁Ɗan	1596
▁shiri	1595
ans	1594
▁horo	1591
▁Lesbiyan	1590
▁jawo	1590
ip	1589
▁bayanan	1588
▁gan	1588
▁gwiwa	1588
▁saukar	1588
▁tsoron	1587
▁Daya	1585
ru	1584
▁daidaita	1583
▁koyarwa	1583
▁sabuwar	1583
umi	1581
ug	1580
▁Laser	1580
28	1578
▁ab	1576
add	1575
▁Kan	1574
▁Nigeria	1574
▁babbar	1573
▁rubutu	1573
▁aiwatar	1569
▁Ha	1567
▁gudu	1565
▁iy	1565
kin	1564
▁Mas	1564
▁matsala	1564
ƙi	1562
2.	1561
▁mãsu	1560
insa	1556
arku	1555
▁tambayoyi	1554
▁tarihi	1552
▁2015	1551
▁San	1550
any	1546
▁asali	1546
ako	1545
▁dukkan	1544
▁Urushalima	1543
▁adadin	1543
▁tashar	1542
ƙar	1541
▁So	1541
▁o	1541
▁ƙoƙari	1537
▁Q	1535
▁tattalin	1535
▁marar	1534
ent	1533
ian	1533
▁yiwu	1533
▁taba	1529
▁tarayya	1529
▁Sink	1527
oy	1525
▁ƙarshen	1525
▁x	1524
▁Ru	1523
anni	1520
▁fasahar	1520
▁kawar	1518
▁gab	1517
ori	1514
▁tallace	1514
75	1513
▁faɗi	1512
wan	1511
▁shafukan	1511
ly	1510
usa	1508
▁lalata	1507
▁Jin	1506
ayen	1505
▁ɗin	1505
▁tambaya	1502
ili	1500
▁inganci	1500
▁mara	1500
▁bayanin	1499
▁tikiti	1499
▁Ayuba	1498
▁Ni	1498
▁filin	1498
▁mace	1498
▁dõmin	1497
▁wutar	1497
▁on	1496
4)	1495
ayy	1492
▁mala	1492
▁Amfani	1491
▁karshe	1490
▁tar	1490
▁jari	1489
▁Sam	1488
▁miƙa	1488
▁min	1484
▁Mosaic	1483
▁Zan	1483
▁gode	1481
▁2013	1479
attun	1478
▁37	1478
▁kaf	1478
9.	1477
▁alheri	1474
▁kyawun	1474
▁matsaloli	1473
▁Waɗannan	1470
ink	1469
▁200	1468
7)	1467
▁Hausa	1467
acin	1465
▁kaɗai	1465
▁jikin	1464
▁kir	1464
65	1463
▁5.	1463
age	1462
▁tal	1462
ap	1461
▁Kur	1461
▁fit	1461
▁mahimmanci	1461
▁blog	1459
46	1458
Yan	1458
▁bayin	1457
▁ila	1456
▁Ibraniyawa	1454
▁La	1454
▁36	1453
▁Najeriya	1453
▁kwarewa	1452
ona	1451
▁mulki	1451
4.	1450
ry	1447
uci	1447
▁Abu	1447
▁data	1447
AD	1446
▁LED	1445
▁maf	1443
▁kwa	1442
▁Marble	1441
▁kariya	1441
▁the	1441
de	1440
▁manzo	1440
%	1439
one	1439
▁dauke	1439
▁kasuwar	1439
AT	1437
iga	1437
▁menene	1436
▁yiwuwa	1436
YA	1435
▁Our	1435
▁karin	1435
ij	1432
▁KA	1430
▁ki	1430
inka	1429
▁Rasha	1429
ain	1428
▁sarki	1428
▁Mak	1427
▁Marmara	1427
▁wane	1427
▁tuba	1425
ini	1421
urorin	1421
3)	1418
▁Sarki	1418
▁kiwon	1418
▁Lalle	1416
3.	1415
▁1,	1415
▁kwana	1413
▁tasiri	1412
▁Farawa	1411
▁kwamfuta	1411
26	1410
▁jakar	1410
AI	1409
irar	1409
▁kalmomin	1409
▁dashi	1408
▁Nan	1407
▁launin	1407
afin	1406
-5	1402
▁nuni	1400
▁all	1399
▁Man	1397
int	1396
▁q	1396
DA	1393
▁tushen	1393
ati	1391
▁ɓata	1391
▁jima	1390
oki	1389
▁asusun	1389
▁baƙi	1388
▁bututu	1388
▁Mis	1386
▁Shafin	1386
dalla	1385
mi	1384
ov	1384
▁daɗin	1384
▁tsare	1381
▁rasa	1380
ko	1379
▁Forex	1379
▁Manzo	1379
aikacen	1377
▁1:	1377
▁tashin	1375
▁Shiga	1369
▁kore	1368
ye	1367
ā	1366
▁ciwon	1365
annin	1364
bi	1364
▁wuraren	1364
2)	1363
▁digiri	1363
▁imani	1363
▁iyaye	1363
▁karfin	1362
▁halaye	1361
▁sayarwa	1360
▁Instagram	1359
Ya	1357
ard	1357
aikatan	1356
iyoyin	1356
▁38	1356
▁Kano	1356
▁laifi	1356
hu	1355
▁gargaɗi	1354
▁mulkin	1353
▁Janairu	1351
▁ƙaun	1351
▁WordPress	1350
▁manufa	1349
▁80	1348
▁mahaif	1348
▁raga	1348
oshin	1345
▁Marmaris	1345
▁gadi	1342
▁ranka	1341
att	1340
org	1340
▁ƙarni	1340
-19	1339
▁kur	1339
▁duniyar	1338
▁Almasihu	1336
▁Kuna	1334
okin	1333
ire	1332
▁juya	1332
tar	1331
ou	1328
▁Dutsen	1328
▁riƙe	1326
▁|	1326
ide	1324
▁amfana	1324
ong	1323
▁makaranta	1322
▁»	1321
amm	1320
▁wucin	1320
▁Biyu	1319
▁Can	1319
awan	1317
▁2014	1317
ISO	1315
io	1315
▁low	1315
▁(1)	1314
▁Sati	1313
▁cuta	1313
▁hukumar	1312
▁magance	1312
ora	1311
▁APC	1311
▁Hanyar	1310
▁sunã	1310
▁garin	1309
▁°	1309
▁ƙunshi	1309
▁kalmar	1308
amb	1306
▁Sama	1305
Sa	1304
▁Cikin	1304
▁haƙuri	1303
▁kananan	1303
▁kark	1303
▁mah	1303
AB	1302
▁Sarkin	1302
▁kome	1302
▁Binciken	1300
?"	1299
▁Dan	1296
▁ido	1295
▁nazari	1294
▁zasu	1294
▁mutuwar	1293
▁43	1291
▁karshen	1289
oyin	1288
ɓe	1288
▁=	1288
▁Sab	1288
▁dam	1288
▁taka	1288
▁ƙyale	1288
▁Fabrairu	1286
▁kewaye	1286
abar	1284
adar	1283
▁Fit	1283
▁jiragen	1283
unin	1281
▁darajar	1279
▁mugun	1278
▁Yahaya	1277
7.	1276
▁2:	1275
iku	1274
▁az	1274
▁fuskantar	1274
of	1273
uke	1273
ɗe	1272
▁News	1272
▁gidajen	1272
▁cikinsu	1271
▁hukunci	1271
▁ky	1270
▁MU	1269
▁Ak	1267
▁tsakiyar	1266
▁rik	1265
uba	1263
▁Sad	1263
▁500	1262
▁Irin	1261
▁Ltd	1261
▁rubutun	1259
▁likita	1258
▁Shirin	1256
▁Haram	1255
▁fushi	1255
▁kyakkyawan	1255
▁le	1255
▁saya	1255
accen	1253
▁sauraron	1253
abb	1252
▁abun	1252
▁ar	1251
▁kamfanoni	1251
ation	1250
▁guje	1250
▁kud	1250
▁taimakawa	1250
du	1248
ewar	1248
▁Mal	1248
▁tsoro	1248
▁fayiloli	1247
▁ziyarci	1247
▁kāre	1246
▁matsayi	1246
omi	1245
▁zuba	1245
+	1243
▁Bugu	1242
ade	1239
▁kirki	1239
▁bonus	1238
▁Wataƙila	1237
iti	1236
▁dacewa	1236
itin	1235
▁High	1235
▁littattafai	1235
▁yaƙi	1235
▁tsohon	1234
▁zaune	1234
▁Fil	1232
▁iyalin	1232
▁tatt	1232
▁zaka	1232
UN	1231
▁Haka	1231
▁Misalai	1231
▁gwamnatin	1231
▁koda	1230
ask	1229
ite	1229
▁zafin	1229
oda	1226
▁ikilisiyar	1226
,,	1224
era	1224
▁Turanci	1224
▁abok	1223
48	1222
▁Adamu	1222
▁Haruna	1222
▁fas	1222
▁ray	1219
6.	1218
▁Dukan	1218
▁hoto	1217
▁mako	1216
33	1215
ƙo	1215
▁ajiye	1215
ung	1213
▁wataƙila	1212
ore	1211
▁ƙungiyar	1211
▁dokokin	1210
▁koyarwar	1210
hen	1207
▁Majalisar	1207
iv	1206
▁Tuna	1206
▁gine	1205
▁Faransa	1204
▁jam	1202
▁salama	1202
▁mita	1201
▁As	1200
▁Boko	1200
▁tarihin	1200
antawa	1199
▁gaskata	1199
icin	1197
▁Sal	1196
▁Abubuwan	1195
▁alkawarin	1194
ban	1193
▁Iy	1193
▁danna	1193
▁ilimin	1193
omin	1192
▁Kasuwancin	1192
▁aik	1190
▁bambanta	1190
umin	1188
www	1188
}	1187
▁umurnin	1185
▁v	1185
▁addini	1183
▁kõ	1182
8)	1181
▁ɗauke	1181
▁matakan	1180
▁wayar	1178
▁Yar	1177
▁sarauta	1177
▁Nuwamba	1176
unt	1175
la	1174
▁2012	1174
▁CIKIN	1174
▁Dokar	1174
▁Gaskiya	1174
▁Maimakon	1174
Q	1173
▁Hukumar	1173
▁dokar	1173
▁sã	1173
".	1170
▁bakwai	1170
▁doka	1170
5.	1169
abe	1169
▁Ruwa	1169
▁Sha	1169
▁Satumba	1168
▁maj	1168
ilin	1167
▁Gama	1167
▁janye	1167
▁adam	1165
9)	1164
▁ofishin	1163
ram	1162
▁Uku	1162
▁kwanan	1162
▁ran	1162
▁ƙarƙashin	1162
▁hak	1161
idodin	1159
▁jira	1158
ƙe	1157
▁takarda	1157
▁jimre	1156
▁ɗaukan	1156
▁post	1154
amu	1153
to	1153
▁hakkin	1153
▁shida	1152
▁ƙananan	1152
▁ceto	1151
obin	1150
▁daɗa	1150
ff	1149
▁bikin	1148
▁Littafin	1146
▁buƙatar	1146
aku	1145
▁sirri	1145
:0	1144
ON	1144
▁teku	1144
▁fitarwa	1143
▁iyaka	1142
▁umarnin	1142
▁hann	1141
CE	1140
oc	1140
▁sanyi	1140
▁lambar	1139
▁Afrilu	1138
▁PDP	1137
▁tsabta	1137
uh	1136
▁gabata	1135
▁yaushe	1135
inda	1134
ja	1134
▁baki	1134
adu	1133
cen	1133
AK	1132
▁amfanin	1130
ter	1129
▁cike	1127
▁ciyar	1126
▁tabbacin	1126
▁Red	1125
▁gora	1125
-0	1124
kan	1124
",	1122
▁fahimtar	1122
47	1121
▁gari	1121
▁kalmomi	1121
▁Nuna	1120
▁tsada	1120
▁dubawa	1119
▁kadan	1119
▁site	1119
▁Airline	1118
▁PC	1117
▁kari	1117
▁zunub	1117
▁maganin	1116
▁tambayar	1116
▁hankalin	1115
▁ɗa	1114
▁Car	1113
▁Maldives	1113
▁tattaunawa	1113
pe	1112
▁almajiransa	1112
▁tso	1112
go	1111
ilar	1111
▁fuskanta	1111
▁maz	1111
▁Fir	1110
▁Disamba	1109
iye	1108
▁300	1107
▁gaskiyar	1107
▁ru	1107
68	1105
▁bawan	1105
▁kiran	1105
▁version	1105
ãwa	1104
▁hotuna	1104
▁majagaba	1104
imas	1103
unta	1103
▁Lafiya	1103
▁Yanar	1103
▁maida	1103
27	1102
ž	1102
▁@	1102
▁canje	1101
▁taf	1101
▁tsai	1101
▁Tsohon	1100
▁mutanensa	1099
▁zã	1099
oli	1098
▁fadi	1097
67	1096
IS	1095
Sh	1095
est	1095
▁tebur	1094
shiryen	1092
▁sauke	1092
▁zahiri	1092
adda	1090
▁halayen	1090
▁Lab	1089
▁She	1089
▁gwamnati	1088
▁sab	1087
▁shaf	1085
atin	1084
ushe	1084
▁Oktoba	1084
ibi	1083
▁3:	1083
▁dang	1083
▁famfo	1083
▁tafiyar	1083
▁Products	1081
shirye	1080
ƙin	1077
▁Mats	1077
▁dubu	1077
▁matsalolin	1077
▁nauyin	1077
▁samaniya	1077
▁Bai	1076
▁begen	1075
▁katin	1075
▁shafaffu	1075
uf	1074
uwansa	1074
▁100%	1074
▁kazalika	1074
▁ɗauka	1074
):	1073
▁Jihar	1073
▁SH	1072
stimuliavimas	1071
▁Ke	1071
ins	1069
uwanmu	1069
akai	1068
olin	1067
▁3,	1067
▁Yayin	1067
▁iyakar	1067
▁rufi	1067
▁samfurori	1067
▁fuska	1066
98	1065
▁Kalmomin	1064
▁kaɗan	1064
▁siyasa	1064
BA	1063
▁Kafin	1063
aniya	1062
▁Ra	1062
▁bashi	1062
▁fili	1062
▁fuskanci	1062
▁hudu	1062
▁kanta	1062
▁hadin	1061
iko	1060
▁dangane	1060
▁(5	1059
▁48	1059
▁tawagar	1059
▁damu	1058
▁Paris	1057
▁Sake	1056
ach	1055
ato	1055
▁rinj	1055
▁yunwa	1055
▁Free	1054
▁CRI	1053
▁Slab	1053
▁haihuwa	1053
▁kwanakin	1053
ɓa	1052
▁El	1052
▁Tarihi	1052
▁injin	1052
ashen	1051
▁tace	1051
▁ub	1050
▁Black	1049
▁Dole	1049
▁lafiyar	1049
▁mug	1048
29	1047
▁Kawai	1047
▁Musamman	1045
▁gefen	1045
▁Kara	1044
▁Ukraine	1044
up	1043
▁Bit	1042
▁rukunin	1042
▁tsarkake	1042
les	1041
:2	1040
▁kwakwalwa	1040
aji	1039
▁USB	1038
uren	1036
▁Twitter	1036
▁tsira	1036
▁Harkokin	1035
arki	1034
oshi	1034
▁matakai	1034
▁was	1034
▁39	1033
▁70	1033
▁Hotuna	1031
aikatar	1029
anya	1028
▁minti	1028
▁sauya	1028
▁EA	1027
▁buɗe	1027
▁Mac	1026
AL	1025
▁fama	1025
▁saƙon	1025
je	1024
▁yaro	1024
▁ƙasashe	1023
inci	1022
▁2,	1022
▁karantawa	1021
IYA	1019
ken	1019
▁~	1019
ix	1018
▁alamar	1018
▁gafarta	1018
▁gā	1018
▁Samun	1017
▁Is	1016
unar	1015
▁tag	1014
SA	1013
unsa	1013
▁cinye	1012
▁rike	1011
obi	1010
▁kaina	1010
▁kame	1010
▁tambaye	1010
ast	1009
▁kallon	1009
▁Muhammad	1008
anan	1007
▁itace	1007
▁rarraba	1007
31	1006
utan	1006
▁line	1006
▁mar	1006
▁Kas	1005
▁halarci	1005
49	1003
ensu	1003
▁Mataki	1003
▁Yuni	1002
▁lashe	1000
▁shakatawa	1000
▁up	1000
22	999
▁bat	999
▁gw	998
abin	997
▁6.	997
▁kuɗin	996
▁manta	996
ɗin	995
▁kafofin	995
ho	994
▁foda	993
▁00	992
▁Aka	992
▁Irmiya	992
▁dalili	992
▁mallaka	992
/1	991
able	991
▁rahoton	991
▁و	991
annan	990
ion	990
▁annabi	988
▁cim	987
▁dake	987
ive	985
ull	985
▁maye	985
▁harshen	984
▁	984
ator	983
tan	983
▁Had	983
▁sashen	983
▁Dr	982
▁10.	980
▁Sani	980
▁Filib	979
▁Next	978
▁sand	978
▁sune	978
4,	977
▁imel	977
▁Danna	976
▁yasa	976
so	975
way	975
▁9001	975
,"	974
▁Amirka	974
attu	973
▁madadin	973
▁tsufa	973
▁0.	972
▁tattara	972
▁Sar	971
▁cibiyoyin	971
alan	970
▁shekarun	970
ə	969
▁gilashin	969
▁keɓe	969
▁shawo	969
▁Top	968
▁wajibi	968
3,	967
isa	967
ista	967
▁saba	967
▁tsofaffi	967
▁Korinthiyawa	966
▁dabbobi	966
▁haɗu	966
her	965
▁Isa	965
▁app	965
▁tsawo	965
▁Koy	962
▁fanel	960
ush	959
▁fahimta	958
IM	957
▁AM	957
▁Daban	957
▁ƙari	957
▁littattafan	956
▁Istanbul	955
▁waɗansu	955
aban	954
-8	953
:30	952
▁gaɗi	952
▁sababbin	952
▁More	951
▁Kun	950
▁Rom	950
alla	949
arawa	949
▁matarsa	949
▁ƙarfe	949
xBet	948
▁Sanin	948
▁bas	948
-3	947
77	947
ilan	947
▁motsi	947
▁ruhun	947
ind	946
she	946
▁gir	945
▁Italiya	944
@	943
▁komai	942
co	941
ni	941
we	941
▁hira	941
▁zaku	941
ayyar	940
uko	940
▁cewar	939
88	938
▁kamfanonin	938
▁sannan	938
anne	936
ogi	936
te	936
und	936
▁Duba	936
▁do	936
▁sarautar	936
▁barin	935
▁Gizo	933
ẽ	931
▁rauni	931
▁Re	930
▁Ruhu	930
=	929
▁shar	929
▁Mayu	928
▁Nazarin	928
▁aiko	927
ng	926
▁Wadannan	926
97	925
ve	925
▁Wall	925
▁rajista	925
▁wasi	925
66	924
▁Min	924
▁daukar	924
▁42	923
▁7.	923
▁Online	923
▁kuskure	923
owar	922
uran	922
▁(4	922
▁Agusta	922
▁haɓaka	922
▁dar	921
▁Farashin	920
utar	919
▁Kula	919
▁Shari	919
▁gud	919
▁harsuna	919
▁nagarta	919
▁rag	918
▁sace	918
▁amint	917
▁nisa	917
▁bawul	916
ars	915
ware	915
86	914
istan	914
▁matar	914
IR	913
atun	912
ifi	912
ox	912
▁website	912
▁www	912
▁5:	911
▁mm	911
85	910
ula	910
▁Yakubu	910
▁ƙar	910
ph	909
▁faranta	909
▁sabõda	909
zu	907
▁majalisar	907
▁Ji	906
▁karatun	906
▁rubuce	906
▁ĩmãni	906
ID	905
▁naɗa	905
▁shugabannin	905
▁gini	904
▁zinariya	903
unci	902
▁Kol	902
▁Waɗanda	902
▁hade	902
▁tambayi	902
anna	901
ile	901
▁City	901
US	900
▁shir	900
▁yaren	899
ens	898
aurata	897
▁kwayoyin	897
mai	896
▁Allahu	896
▁shafe	896
▁shuka	896
▁bayarwa	895
▁gargajiya	895
▁share	895
42	894
end	894
uj	894
▁labari	894
▁sanda	894
idan	893
▁Be	893
0.	892
▁tallafin	891
wo	890
▁KYAUTA	890
ano	889
▁Bisa	889
▁Tim	889
▁TV	888
▁kanku	888
▁karya	888
▁mad	888
▁tas	888
▁kayayyaki	887
▁kim	887
44	885
ishi	884
▁Rashin	884
▁dalilai	884
jan	883
▁90	883
▁kab	883
▁shige	883
▁alaka	882
▁bege	882
▁huɗu	882
▁kwanciyar	882
▁takardun	881
▁lokatai	880
▁Muka	879
▁jim	879
▁Sulemanu	878
▁guji	878
▁karɓi	877
▁saki	877
▁Nuhu	876
▁Tuntuɓi	876
▁Wuta	876
▁tushe	876
▁wak	876
▁fatan	875
▁gwaje	871
▁faɗin	870
▁Afirka	869
▁Bay	869
▁http	869
▁nesa	869
▁Machine	868
▁Manzon	868
▁dab	868
▁mus	868
▁44	866
iban	865
net	865
▁co	865
▁go	865
▁maƙ	865
*	864
TA	864
▁talifin	864
▁ay	863
▁Casino	862
▁Lokaci	862
▁sallam	862
69	861
▁tumaki	861
ayan	860
▁Afisawa	860
▁Timothawus	860
▁tur	860
▁ch	859
imar	858
▁Sau	857
▁fiber	857
▁lam	857
▁wat	857
The	856
▁Bitcoin	856
▁·	856
eb	855
▁Isha	855
▁Jade	855
▁Technology	855
▁gas	855
▁mashahuri	855
AY	854
IT	854
arm	854
▁bayinsa	854
▁fãce	854
▁Yuli	853
▁Ilimin	852
▁girmama	851
UR	850
▁BA	850
▁dal	850
▁addinin	849
▁gang	849
▁4:	848
▁gashi	846
▁hours	846
▁Beach	845
▁Haske	845
▁sulhu	845
▁Pro	844
▁canji	843
▁lissafi	843
▁£	843
idar	842
▁150	842
▁Mut	842
▁fadin	842
ated	841
ron	841
▁Hosting	841
▁Tas	841
▁kyautar	841
▁Bayanai	840
▁ibada	840
▁Kudu	839
▁wallafa	839
uru	838
▁harshe	837
▁zazzabi	837
kun	836
▁Im	836
▁bimbini	836
▁harkokin	836
ih	835
▁kunna	835
zo	834
▁tunawa	834
▁tura	834
▁Gw	833
▁hawa	833
▁key	833
▁tasirin	833
▁saur	832
▁saurari	832
adan	831
▁Kaya	831
▁Dal	830
▁zuciyar	830
▁Wace	829
▁Yaƙub	829
▁bambanci	829
▁hadaya	829
▁kewayon	829
EN	828
▁ƙwazo	828
/2	827
▁bautar	827
▁dukiya	827
▁jefa	827
43	826
▁May	826
▁dabarun	826
▁YA	825
▁wad	825
▁nasarar	823
▁(1	822
▁Apple	822
▁makamashi	822
▁sukan	822
UK	821
▁(2)	821
▁ɗaukar	821
arda	820
▁faɗ	820
gine	819
▁mur	819
▁tattoo	819
2,	818
aron	818
hin	818
▁John	818
▁Markus	818
▁alihi	818
▁shawarwari	818
▁matukar	817
▁Tak	816
▁Talla	816
▁ann	816
▁samo	816
umb	815
▁Gu	815
▁Yau	815
▁makiy	815
▁tã	815
oto	814
▁400	814
▁Law	814
▁8.	813
CI	812
▁de	812
▁download	812
▁No	811
atawa	810
▁Luk	810
▁dakatar	810
aje	809
▁Hak	809
▁Karin	809
▁MP	809
av	808
▁Ali	808
▁Rah	808
eh	807
ulu	807
▁bu	807
▁ƙoƙ	807
▁juriya	806
▁ri	806
per	805
▁kullun	805
▁mab	805
▁war	805
asha	804
kw	804
▁asibiti	804
▁murya	804
200	803
oh	803
ors	803
uya	803
▁9:	803
▁Hakanan	803
▁Microsoft	803
▁nag	803
salla	802
wai	802
▁By	802
▁Neja	802
▁yabo	802
far	801
▁kwallon	801
▁uwar	801
-4	800
▁Sheikh	800
▁Labarai	799
▁YI	799
▁bene	799
▁anti	798
▁hukuncin	798
▁Ayukan	797
▁Nassosi	797
▁rawaya	797
/?	796
▁yafi	796
ATA	795
▁[...]	795
▁abincin	795
▁dak	795
▁sashe	795
▁waɗanne	795
▁bir	793
▁shigarwa	793
▁tanadin	793
gan	792
▁yawanci	792
▁Girma	791
▁kyautata	791
▁saurin	791
▁yankan	791
ies	790
▁Ci	790
▁Onyx	790
▁Yawancin	790
▁sararin	790
▁kwal	789
fute	788
onin	788
unk	788
▁way	788
▁auren	787
▁karfafa	787
.0	786
▁COVID	786
▁Hanya	786
▁KO	786
▁barci	786
-6	785
▁banki	784
▁zaɓa	783
▁Roma	782
ensa	781
▁Ibran	781
▁Sakamakon	781
▁banza	781
Ka	779
▁65	778
▁dadin	778
▁Cin	777
▁daji	777
iba	776
ml	776
▁jagoranci	776
arn	775
yl	775
▁10:	775
▁Aikin	775
▁KUMA	775
▁Kir	775
iyo	774
▁mal	774
IL	773
res	773
▁Magana	773
▁birni	773
▁Mata	772
▁dijital	772
▁hatsari	772
ayayy	771
gy	771
uga	770
▁Wurin	770
▁bay	770
▁waj	770
igo	769
uda	769
▁Iya	769
▁zanen	769
▁41	768
▁Matiyu	768
▁muhalli	768
auna	767
AC	766
▁Gudanar	766
▁Pet	765
▁Yake	765
▁ingantaccen	765
umm	764
▁%	764
▁biliyan	764
inch	763
▁haƙĩƙa	763
▁nema	763
▁Kasance	762
▁amf	762
▁kaddamar	762
▁ram	762
▁Ay	761
▁My	761
▁Ag	760
▁Bikin	760
▁injiniya	760
100	759
ARA	759
ummar	759
▁Waya	759
▁dakin	759
▁farawa	758
▁haɗ	758
▁taimaki	758
▁Ƙar	758
AH	757
▁asalin	757
▁55	756
▁model	756
bu	755
▁IP	755
▁baiwa	755
▁rayuwarmu	755
▁Bank	754
▁Tal	754
▁warware	754
&	753
More	753
di	753
▁sak	753
41	752
alli	752
▁kat	752
▁ƙas	752
▁tab	749
anawa	748
▁Ray	748
▁annabci	747
ue	746
▁Yusufu	746
▁baturi	746
▁no	746
▁sanyaya	746
▁zur	746
▁ɓangare	746
oni	745
udi	745
▁Sauran	745
▁il	745
▁marmara	744
▁riba	744
▁ɓoye	744
▁Mutanen	743
▁Nijeriya	743
▁umurni	743
Na	742
▁6:	742
▁shiryawa	741
ãn	740
arra	739
ayoyin	739
▁annabta	739
▁audio	739
▁manufacturer	739
▁mats	739
▁sall	739
▁Zama	738
▁management	738
arg	737
▁ak	737
▁...]	736
▁PVC	736
▁furta	736
21	735
▁International	735
▁fetur	735
▁rat	735
▁rig	735
▁ɗal	735
oss	734
wararren	734
▁Fulani	734
▁un	734
®	733
▁Babila	733
▁Aikace	732
▁Mot	732
▁duwatsu	732
▁gaggawa	732
▁gami	732
▁tsabar	732
▁Hasumiyar	731
▁Sabon	731
▁Mad	730
▁Tar	730
▁cancanci	730
▁makarantar	730
▁Sunan	729
▁asarar	729
??	728
▁Maryamu	728
▁katako	728
▁zuciyarmu	728
▁ƙare	728
▁baz	727
▁gaf	727
annu	725
▁gar	725
▁music	725
An	724
antun	724
▁12:	724
▁gasar	724
▁maki	724
▁sunansa	724
akawa	723
▁Hot	723
▁dadi	722
▁yad	722
Marble	721
▁allon	721
▁mut	721
gu	720
▁Bincike	720
▁abokai	720
▁Aik	719
▁fada	719
▁rah	719
▁shugabanci	719
▁st	719
▁shigo	718
asan	717
can	717
▁cututtukan	717
▁mafita	717
▁siffofin	717
▁Ɗa	717
agon	716
▁Manufacturer	716
▁daɗi	716
▁sarari	716
▁zaɓ	716
▁alb	715
▁annabcin	715
▁fim	715
▁horar	715
▁lokuta	715
▁mallakar	715
▁sam	715
iw	714
▁um	714
MA	713
▁Kam	713
▁batutuwa	713
▁murna	713
▁tsananin	713
▁yankunan	713
▁Dak	712
▁Manyan	712
▁Shafi	712
▁kauce	712
▁shah	712
▁Blog	711
Kuma	710
▁2010	710
▁bara	710
▁bayyane	710
▁koyaushe	710
▁talla	710
▁yakan	710
ber	709
uce	709
▁amincewa	709
▁kasashe	709
▁mabiyansa	709
▁motoci	709
iyarsa	708
umar	708
▁kwalban	708
▁tambayoyin	708
-10	707
▁11:	707
▁Bo	707
▁Masar	707
▁Tambayoyi	707
▁batu	707
Ra	706
aina	706
▁ag	706
▁naka	706
▁sakon	706
▁buk	705
▁kasuwancin	705
▁nufinsa	705
▁daidait	704
▁dutsen	704
▁sammai	704
▁umarni	704
-00	703
ado	702
▁Masana	702
▁National	702
▁USD	702
▁bukaci	702
▁ginin	702
ics	701
ings	701
▁gidaje	701
obe	700
ude	700
▁Girman	700
▁layin	700
▁tsammanin	700
ek	699
imi	699
▁Saul	699
▁adana	699
▁lambobin	699
-20	698
▁Gaba	698
▁kifi	698
▁sur	698
ism	697
▁kunn	697
▁zag	697
▁Bi	696
▁gefe	696
▁jaka	696
▁Mallam	695
▁Samfurin	695
Al	694
▁Wann	694
▁dauka	694
.”	693
ology	693
▁fansa	693
▁mene	693
▁murabus	693
▁yaransu	693
OS	692
▁Sauke	692
▁Ɗ	692
bo	691
ray	691
▁Quality	691
▁Sabuwar	691
▁karɓa	691
▁muhimmancin	691
▁sabunta	691
▁zarafin	691
▁zarar	691
▁Az	690
▁Marmari	690
▁buƙ	690
▁sauraro	690
ifin	689
▁250	689
▁duhu	689
▁CNC	688
▁Play	688
▁Train	688
▁gor	688
iyata	687
ons	687
xbet	687
▁9.	687
▁Kowane	687
▁kwanduna	687
anti	686
▁Hack	686
▁farf	686
▁fuskar	686
alai	685
amai	685
amf	685
▁Gal	685
▁Mutum	685
.)	684
="2.	684
addun	684
ayensu	684
iru	684
▁Il	683
▁Iliya	683
▁alk	683
▁fusk	683
▁kak	683
▁sarrafawa	683
-12	682
▁Ainihin	682
▁Gumi	682
▁tamani	682
irai	681
lar	681
▁At	681
▁Muhammadu	681
▁rayu	681
▁sal	681
▁tuk	681
▁7:	680
▁Ayyuka	680
▁Gwamnoni	680
▁Post	680
▁gabatarwa	680
▁gargaɗin	680
▁Farin	679
▁at	679
▁rare	679
AF	678
arkar	678
ushin	678
▁Id	678
▁Sc	678
alar	677
▁+0000	677
▁dã	677
▁Hana	676
▁kum	676
▁matashi	676
abil	675
alle	675
anke	675
itoci	675
▁Buk	675
▁cimma	675
pl	674
▁Un	674
▁sauk	674
="1.	673
ARI	673
▁factory	673
▁gwa	673
▁nasa	673
▁wace	673
orin	672
▁Air	672
▁Fasaha	672
▁Se	672
▁bushe	672
▁gigice	672
▁hoton	672
▁littafi	672
▁Allahn	671
▁Fara	671
▁Ce	670
▁Center	670
▁Ranar	670
▁fil	670
▁surface	670
ino	669
its	669
utu	669
▁sarkin	669
7,	668
▁MAI	668
▁aluminum	668
▁bayyanar	668
▁cece	668
▁kulawa	668
▁mobile	668
In	667
awo	667
ãt	667
▁Samu	667
▁dabi	667
▁nas	667
red	666
▁75	666
▁DVD	666
▁allura	666
ER	665
▁mash	665
▁maw	665
▁size	665
Ku	664
▁code	664
▁dokoki	664
▁haƙ	664
▁shelar	664
▁yaba	664
▁Ɗansa	664
arce	663
▁bit	663
▁soja	663
ity	662
▁Jagororin	662
▁Sak	662
▁km	662
ail	661
utt	661
▁(20	661
▁magantu	661
▁misalai	661
▁tallafa	661
oo	660
▁Le	660
▁hotunan	660
▁ware	660
▁yamma	660
amp	659
ton	659
▁bawa	659
▁kalaman	659
▁page	659
▁sassan	659
▁sauƙin	659
▁shaidar	659
ãnin	658
▁De	658
▁Multi	658
▁manzannin	658
▁ãy	658
▁Hakazalika	657
▁bank	657
▁Fasinjojin	656
▁Shugaba	656
▁Tall	656
▁jan	656
▁kwall	656
▁taga	656
sin	655
▁He	655
▁haifi	655
▁te	655
▁wacce	655
MT	654
▁gona	653
▁gurbin	653
▁re	653
▁Neman	652
ararren	651
ating	651
▁Kashe	651
▁Yahuda	651
ants	650
itan	650
ys	650
▁Gwamnatin	650
▁Light	650
eng	649
▁Plastics	649
zana	648
▁(3	648
▁Farko	648
▁Jar	648
▁Web	648
▁Yuguda	648
▁gid	648
ukar	647
š	647
▁120	647
▁Ajiye	647
▁Bat	647
▁HURIWA	647
▁Shaw	647
▁filayen	647
▁iOS	647
▁ƙasashen	647
▁Abinci	646
▁Ubangij	646
▁gam	646
▁mis	646
▁nass	646
HE	645
▁AC	645
▁Birtaniya	645
▁Br	645
▁Cl	645
▁Mary	645
▁amincin	645
▁nada	645
IC	644
uwansu	644
wacin	644
▁Kungiyar	644
▁gado	644
▁Amsa	643
▁Gab	643
▁Juna	643
▁takwas	643
▁tufafi	643
▁GPS	642
▁Iblis	642
▁Previous	642
▁bayyan	642
TO	641
antarwa	641
▁tinnitus	641
▁Bayanin	640
▁Hal	640
▁Jer	640
▁Kh	640
▁Wasanni	640
agu	639
▁2000	639
▁Download	639
▁haɗari	639
▁plugin	639
▁real	639
96	638
aft	638
ajin	638
▁8:	638
▁Rub	638
▁salon	638
▁Uba	637
▁kwat	637
▁sadaukar	637
▁tsayayya	637
▁bugu	636
▁makonni	636
87	635
▁ceci	635
▁ciwo	635
▁FX	634
▁Medical	634
▁Tabb	634
▁marm	634
▁ransa	634
anmu	633
atsa	633
ment	633
▁IT	633
▁bug	633
▁zargin	633
ikin	632
▁Mr	632
▁motar	632
▁nasu	632
amura	631
itt	631
▁46	631
▁Yanayin	631
▁amb	631
▁halittar	631
▁sojojin	631
▁Kal	630
▁iyayen	630
▁manya	630
▁saita	630
▁ƙung	630
ling	629
▁hamayya	629
▁musayar	629
IK	628
cho	628
ick	628
ort	628
▁Shar	628
▁kenan	628
▁kow	628
▁shig	628
/20	627
▁Power	627
▁cik	627
▁sũ	627
TC	626
ec	626
ES	625
gwaje	625
ifa	625
rom	625
▁alamun	625
▁firist	625
▁haraji	625
gen	624
▁lok	624
ular	623
wal	623
▁Cikakken	623
▁hukuma	623
▁mutãne	623
▁ƙud	623
IG	622
▁Kafa	622
▁System	622
▁caji	622
▁fur	622
▁ɗabi	622
ANA	621
▁dangantakar	621
▁lab	621
IF	620
▁Imam	620
▁Misali	620
▁Samsung	620
▁poly	620
▁siffar	620
▁tsananta	620
▁ziyara	620
▁Abuja	618
amba	617
ath	617
ates	616
ms	616
▁US	616
▁Um	616
OR	615
▁fasali	615
▁halicci	615
▁jiran	615
ilu	614
▁Korona	614
▁jagor	614
▁rahama	614
-7	613
acc	613
ido	613
ãni	613
8,	612
annen	612
ishin	612
shekara	612
▁Your	612
▁chat	612
▁gorar	612
▁tausayi	612
▁watsi	612
ky	611
ota	611
▁47	611
▁Arewa	611
▁basira	611
▁karɓar	611
▁rabo	611
▁sura	611
▁cryptocurrency	610
▁samarwa	610
▁yã	610
arshe	609
ene	609
ial	609
▁wakiltar	609
▁Duwatsu	608
▁cyan	608
▁ruwaito	608
▁sada	608
▁shiry	608
mat	607
▁alhẽri	607
▁bangare	607
▁tilasta	607
gun	606
isan	606
land	606
▁Ciki	606
▁Te	606
▁button	606
▁id	606
▁namiji	606
500	605
▁lu	605
▁maɓallin	605
▁rayuwarsu	605
AP	604
uniya	604
▁CO	604
▁Lar	604
▁amsar	604
▁bayyanannu	604
▁may	604
▁shinge	604
・	604
▁Shigar	603
▁albarkatun	603
....	602
ataccen	602
▁Abubakar	602
▁ceton	602
▁ƙwa	602
waye	601
▁Fa	601
▁Majami	601
▁Nassi	601
▁SAUKI	601
▁lasisi	601
anen	600
ulin	600
▁1000	600
▁Square	600
▁alkaw	600
▁format	600
▁idanun	600
▁labaran	600
▁Daniel	599
▁Naka	599
▁Zabi	599
▁fassarar	599
▁gudana	599
▁shin	599
ical	598
let	598
ost	598
▁Nakadashi	598
▁baka	598
▁kyawawan	598
▁rab	598
▁zamantakewa	598
▁zuk	598
atsu	597
▁ID	597
23	596
ode	596
▁School	596
udu	595
▁Kira	595
▁Yank	595
▁farashi	595
▁haɗewa	595
▁sad	595
out	594
▁Church	594
▁GA	594
▁HD	594
▁Indiya	594
▁Led	594
76	593
aziyya	593
▁hau	593
▁makarantu	593
isi	592
▁mada	592
▁rub	592
▁ƙaramin	592
9,	591
abawa	591
▁tsak	591
ofi	590
▁Jan	590
▁Ky	590
▁SAN	590
▁White	590
▁idanu	590
▁mijinta	590
ajiya	589
▁Ph	588
▁hars	588
▁suk	588
▁CSO	587
▁It	587
▁ren	587
▁same	587
▁tayi	587
aik	586
mo	586
▁Gyara	586
▁Shirye	586
▁gund	586
▁price	586
▁takalma	586
▁wahalar	585
▁wanke	585
Ch	584
Tuntuɓi	584
aja	584
allon	584
▁Nemo	584
▁Sinks	584
▁Yã	584
▁adireshin	584
▁ig	584
▁mo	584
▁Ƙungiyar	584
▁14:	583
▁Bish	583
▁Labaran	583
▁live	583
▁malamai	583
▁via	583
▁zurfin	583
ulla	582
▁Tana	582
▁gon	582
▁sunayen	582
Shi	581
▁Good	581
▁Ubangijin	581
▁bak	581
,...	580
ayawa	580
iyarmu	580
▁Afis	580
▁Gano	580
▁Shekara	580
▁Shinsaibashi	580
▁maƙwab	580
▁tsakiya	580
▁tallafawa	579
▁zurfi	579
Da	578
GB	578
joji	578
oci	578
▁Hasiya	578
▁bangon	578
▁inabi	578
SS	577
▁Go	577
▁Sp	577
OM	576
aun	576
ubar	576
▁Dubai	576
▁Gina	576
▁Lissafi	576
▁YouTube	576
▁kowanne	576
..	575
MS	575
▁bitcoin	575
▁dire	575
▁gyaran	575
▁waƙa	575
KA	574
▁NE	574
▁Samar	574
▁Yahuza	574
▁kauri	574
="3.	573
▁Unlimited	573
▁gur	573
▁wasannin	573
2019	572
arya	572
▁gasa	572
▁sanyin	572
ier	571
ofin	571
▁Club	571
▁matu	571
▁tarin	571
asin	570
▁(19	570
▁Super	570
▁gyare	570
▁maroki	570
zane	569
▁sarai	569
▁wakil	569
allin	568
assa	568
der	568
▁dũ	568
▁fl	568
▁koyo	568
▁yawon	568
li	567
▁Ai	567
▁cikinsa	567
▁coci	567
PC	566
▁Tafiya	566
▁firistoci	566
▁sl	566
▁yaud	566
odi	565
▁rabu	565
▁tube	565
▁yaron	565
afawa	564
▁2011	564
▁Dok	564
▁jink	564
▁tsammani	564
▁CS	563
▁TA	563
▁kunya	563
▁yaki	563
▁ƙaunaci	563
anga	562
▁lalacewa	562
▁maraba	562
▁waldi	562
-15	561
▁alhãli	561
▁karo	561
▁yancin	561
ew	560
▁Shekaru	560
▁mam	560
ikawa	559
ome	559
▁Nas	559
▁zamu	559
ajabi	558
ungiyar	558
ust	558
▁kimanin	558
▁saduwa	558
▁warkar	558
ube	557
ɓɓ	557
▁08	557
▁600	557
▁AL	557
▁Aljanna	557
▁Barin	557
▁Kakakin	557
▁azumi	557
▁hutu	557
▁musul	557
▁soyayya	557
ASA	556
▁Canja	556
▁saf	556
▁sauka	556
HA	555
ando	555
anz	555
ena	555
▁Tamb	555
▁ams	555
▁bal	555
▁daukan	555
bn	554
▁Fitowa	554
▁Th	554
▁albarkace	554
▁garken	554
▁talifi	554
▁Bab	553
▁tall	553
har	552
yin	552
é	552
▁--	552
▁Video	552
▁hijira	552
▁shag	552
▁Ƙa	552
ase	551
ich	551
▁Dodo	551
▁Tatt	551
▁farantin	551
afiya	550
▁Asiya	550
▁dandamali	550
▁kwayar	550
▁wahayi	550
▁×	550
ema	549
▁izinin	549
EC	548
igar	548
▁memb	548
▁mũ	548
▁shafa	548
5)	547
5,	547
mail	547
▁Aids	547
▁IN	547
▁sp	547
▁tsark	547
▁wancan	547
idu	546
▁Bang	546
▁Comments	546
▁Marufi	546
▁almaj	546
▁mosaics	546
▁zagaye	546
UNA	545
was	545
▁Allahnku	545
▁Bur	545
▁Janar	545
▁Mashaid	545
▁allo	545
▁salonka	545
6,	544
iman	544
ishe	544
▁Dama	544
▁Mon	544
▁bala	544
▁baut	544
▁hack	544
▁nama	544
▁zaton	544
oya	543
tr	543
wordpress	543
▁Dawuda	543
▁Lamb	543
▁cututtuka	543
▁halittu	543
arshen	542
▁Factory	542
▁Share	542
▁Ubansa	542
▁cikinta	542
▁fad	542
▁rundunar	542
▁sufuri	542
▁tuntu	542
▁bunkasa	541
une	540
uruwa	540
ū	540
▁College	540
CH	539
ahar	539
▁marub	539
▁sautin	539
▁ubangij	539
ASU	538
akunan	538
▁dad	538
▁jarida	538
▁jawabi	538
▁roƙon	538
▁tsabtace	538
▁Hannun	537
▁ƙary	537
Mu	536
▁Hoton	536
▁Kanada	536
▁Kow	536
▁ƙy	536
▁And	535
▁Gid	535
▁Shaidu	535
▁bambancin	535
▁cajin	535
▁micro	535
▁ƙware	535
▁Cikakke	534
▁jituwa	534
▁AN	533
▁BMW	533
▁Ministan	533
▁Sur	533
▁jitu	533
▁wah	533
▁zuriyar	533
uraren	532
▁Allahnmu	532
▁Mana	532
▁Taim	532
▁shugab	532
lu	531
▁4,	531
▁Barka	531
▁Lines	531
▁York	531
▁takamaiman	531
▁zam	531
suwa	530
▁(9	530
▁AB	530
▁Falsafa	530
▁Hikimar	530
▁Kwanan	530
▁giya	530
bur	529
fafa	529
▁Add	529
▁Lantarki	529
▁alamu	529
▁laifin	529
▁she	529
PS	528
esa	528
ess	528
▁Katolika	528
▁be	528
▁kwarai	528
▁kwararru	528
▁ɗari	528
IY	527
ep	527
ft	527
ization	527
wararrun	527
▁Bir	527
▁Jama	527
▁Timotawus	527
▁Yawan	527
▁dun	527
▁fadada	527
▁launuka	527
▁nawa	527
aloli	526
▁Software	526
▁basu	526
▁cikakke	526
▁kwamitin	526
▁▪	526
jo	525
line	525
ukaka	525
yn	525
▁KU	525
▁are	525
▁sar	525
CoV	524
ola	524
▁Park	524
▁dandalin	524
▁kung	524
ets	523
yansa	523
õyin	523
▁>>	523
▁David	523
▁Solar	523
▁dattijo	523
▁fare	523
▁hanz	523
▁lik	523
:21	522
Kalam	522
ciya	522
▁Ram	522
▁auna	522
Sun	521
▁Lambar	521
▁bangaren	521
▁rahoto	521
▁ƙaura	521
IP	520
uncin	520
▁Kul	520
▁Umar	520
▁carbon	520
▁dalibi	520
▁hallaka	520
▁labarun	520
▁ƙin	520
nin	519
urn	519
▁15:	519
▁Art	519
▁Shim	519
▁malaman	519
▁mil	519
▁sayi	519
74	518
▁Abubuwa	518
▁Audio	518
▁Converter	518
▁Ed	518
▁Mik	518
▁aw	518
▁matsakaici	518
ɓi	517
ẽwa	517
”.	517
▁gwargwadon	517
▁kadai	517
▁sabbin	517
▁Ham	516
▁babba	516
▁darasi	516
▁ham	516
▁sakin	516
arraba	515
ots	515
ury	515
▁Bal	515
▁Bethel	515
▁fans	515
▁iPad	515
▁jagorancin	515
▁kirk	515
▁rukuni	515
cl	514
istar	514
▁maig	514
▁rami	514
▁uwa	514
▁yada	514
ayoyi	513
▁13:	513
▁SHI	513
▁izini	513
▁kã	513
▁sc	513
▁yiwuwar	513
:22	512
▁Jos	512
▁SHAFI	512
▁mutãn	512
IA	511
▁Tel	511
▁Ur	511
ayu	510
▁Lura	510
▁hadayar	510
▁manufar	510
▁wai	510
ua	509
aho	508
▁Green	508
▁Kirist	508
▁On	508
▁WAƘOƘI	508
▁dari	508
▁himma	508
▁kaw	508
▁salla	508
ized	507
▁imanin	507
▁jigon	507
ium	506
oba	506
urwa	506
â	506
▁Service	506
▁Taimako	506
▁azaman	506
▁haife	506
▁iyalinsa	506
▁juy	506
▁mã	506
▁sanarwa	506
6.25	505
▁Ub	505
▁hul	505
▁kofa	505
▁kwaikwayo	505
▁mummunan	505
%.	504
uku	504
▁Formats	504
▁Mus	504
▁NDDC	504
▁aikinsa	504
▁gata	504
▁shiryar	504
acciyar	503
sk	503
ss	503
▁Farfesa	503
▁aya	503
▁miliyoyin	503
bin	502
▁Amazon	502
▁Datt	502
▁Labarin	502
▁Musulunci	502
▁iyak	502
▁jirgi	502
▁mot	502
▁Wai	501
▁sadarwar	501
▁tan	501
▁wal	501
▁zargi	501
UT	500
mar	500
ments	500
▁gwiwar	500
▁haikalin	500
▁zabura	500
▁ƙarf	500
GO	499
ger	499
▁Wah	499
▁aboki	499
▁batsa	499
:23	498
amuran	498
▁Bidiyo	498
▁Ge	498
▁Travel	498
▁World	498
▁almajiran	498
▁azurfa	498
▁ladabi	498
▁Daniyel	497
▁Galatiyawa	497
▁Tabbatar	497
▁Tag	497
▁Yarjejeniya	497
▁itacen	497
▁videos	497
falen	496
ll	496
▁***	496
▁Kalmomi	496
▁Max	496
▁ainihi	496
▁internet	496
▁kamfani	496
▁karbi	496
▁rayuw	496
▁safe	496
Lambobin	495
ear	495
ito	495
ley	495
▁49	495
▁MCD	495
▁Say	495
▁Son	495
▁Street	495
▁toshe	495
ET	494
ith	494
oz	494
▁Gwamnan	494
▁Mobile	494
▁Tile	494
▁halartar	494
▁hari	494
▁hats	494
▁ilmi	494
▁sadu	494
▁zarafi	494
Am	493
ric	493
wata	493
ãra	493
▁16:	493
▁Halaye	493
▁birane	493
▁biy	493
▁daruruwan	493
▁dubi	493
▁Ashe	492
▁Bayanan	492
▁Halitta	492
▁Kudin	492
▁Shida	492
▁muryar	492
▁seconds	492
▁shugaba	492
▁195	491
▁Dace	491
▁Kyakkyawan	491
▁Musul	491
▁PCB	491
▁Wat	491
▁ayar	491
▁fahimi	491
▁gark	491
▁mataimakin	491
icci	490
illa	490
▁2009	490
▁Hauwa	490
▁Sand	490
▁gaj	490
▁Business	489
▁betting	489
rai	488
ƙu	488
▁(10	488
▁Alamar	488
▁Hotunan	488
▁ajizai	488
▁yankuna	488
72	487
ãnar	487
▁06	487
▁Yankin	487
▁dubban	487
uciya	486
▁900	486
▁madaida	486
="4.	485
▁Abdullahi	485
▁Amman	485
▁Gir	485
▁House	485
▁Taron	485
▁bisharar	485
▁dakunan	485
▁maras	485
▁miyagun	485
▁panel	485
▁rayuwarsa	485
▁zata	485
ı	484
▁Daida	484
▁Galaxy	484
▁Radio	484
▁Shirya	483
▁hadu	483
▁samfur	483
89	482
▁Data	482
▁Malam	482
▁hor	482
▁kyaut	482
rad	481
uc	481
▁But	481
▁Holm	481
▁gayy	481
▁maha	481
▁rasu	481
▁AD	480
▁Huvafen	480
▁Ind	480
▁Kotun	480
▁haikali	480
ango	479
▁Hali	479
▁Makarantar	479
▁Saki	479
St	478
ifofin	478
lin	478
pa	478
▁zuciyarsa	478
▁ɗauk	478
ht	477
ks	477
▁Australia	477
▁Bluetooth	477
▁GB	477
▁ambaci	477
▁daidaito	477
▁gams	477
▁jawabin	477
▁nanata	477
▁raina	477
▁ƙaunarsa	477
ANI	476
▁Abok	476
▁Ramin	476
▁goge	476
▁kamuwa	476
ANE	475
afushi	475
▁Gudun	475
▁Yara	475
▁azaba	475
▁bag	475
▁bangaskiyar	475
▁bel	475
▁cancanta	475
▁cikakkiyar	475
▁kuri	475
▁kurkuku	475
▁umurce	475
Ba	474
€	474
▁17:	474
▁Dangane	474
▁Moscow	474
▁Sl	474
▁alh	474
▁hannunsa	474
▁kunshi	474
▁kwamfy	474
▁magab	474
▁musulunci	474
▁nak	474
▁Ƙasar	474
osh	473
▁gurb	473
▁hang	473
▁jũ	473
▁kew	473
▁lambu	473
▁rawa	473
▁sait	473
NA	472
▁Addu	472
▁Watch	472
▁email	472
▁kudade	472
▁kumb	472
▁zubar	472
="0.	471
iran	471
wane	471
▁Abokin	471
▁KAS	471
▁alhakin	471
▁madawwami	471
Shin	470
ananan	470
mg	470
pt	470
▁52	470
▁Ass	470
▁sashi	470
▁tayin	470
AMA	469
gaba	469
▁Sanar	469
▁Siy	469
▁Ukrainian	469
▁martani	469
▁►	469
uhu	468
▁Ibrananci	468
▁tse	468
▁umurci	468
/5	467
▁:⁠	467
▁Hid	467
▁burin	467
▁manne	467
▁marubucin	467
rub	466
ushen	466
▁Shaf	466
▁dukanmu	466
▁kwamfutarka	466
▁lissafin	466
▁rikodin	466
▁sayen	466
▁“”	466
akiya	465
uck	465
▁Brazil	465
▁Dub	465
▁Or	465
▁iz	465
▁kwance	465
▁shã	465
▁tafarkin	465
TS	464
idd	464
iji	464
▁19:	464
▁En	464
▁KYA	464
▁alƙ	464
▁ayyuk	464
▁maso	464
▁yadu	464
acen	463
shin	463
warewa	463
▁Gwamna	463
▁Joshua	463
▁Rana	463
▁Series	463
▁Zuwa	463
▁bane	463
▁dala	463
▁rij	463
▁windows	463
▁ofis	462
HI	461
achi	461
air	461
atãwa	461
▁Arabic	461
▁Inda	461
▁Takarda	461
▁Turk	461
▁dub	461
aha	460
rin	460
▁05	460
▁Abincin	460
▁Dai	460
▁Zaka	460
▁Ɗaya	460
Allah	459
atarwa	459
ery	459
yansu	459
▁197	459
▁acid	459
▁hagu	459
▁sit	459
▁ƙuduri	459
001	458
itar	458
á	458
▁DC	458
▁Group	458
▁Qu	458
▁Sira	458
▁ashirin	458
▁dabaru	458
▁jij	458
▁u	458
▁GASKIYA	457
▁Rund	457
▁bidiyon	457
▁ƙera	457
aren	456
ock	456
ps	456
urs	456
uz	456
▁Code	456
▁Golf	456
▁Nak	456
▁Ruh	456
▁bud	456
▁fice	456
▁hadarin	456
▁hukunta	456
▁(3)	455
▁07	455
▁Ann	455
▁App	455
▁Bathroom	455
▁dabba	455
▁kwale	455
▁tut	455
▁ziyar	455
▁galvanized	454
▁namu	454
▁tant	454
▁taw	454
▁gumaka	453
▁jinin	453
▁kungiyoyin	453
▁rabin	453
▁tsa	453
anye	452
canje	452
urori	452
ɓar	452
▁09	452
▁Akw	452
▁Do	452
▁Inganta	452
▁dasu	452
▁goyi	452
▁jaridar	452
▁maimaita	452
▁ziyarar	452
che	451
▁(14	451
▁AIK	451
▁Intanet	451
▁Koya	451
▁Sil	451
▁alam	451
▁zirga	451
▁Ing	450
▁Mash	450
▁fitila	450
▁it	450
▁kwarar	450
▁ƙofar	450
▁امام	450
UWA	449
aff	449
ster	449
▁Kasar	449
▁Litt	449
▁Tarihin	449
▁block	449
▁say	449
▁zamaninmu	449
79	448
UL	448
annun	448
ca	448
gin	448
ty	448
▁Takaddun	448
▁siff	448
etare	447
idodi	447
ogo	447
oton	447
uts	447
va	447
▁bangarori	447
▁located	447
▁tef	447
iyayy	446
▁Fikihu	446
▁Kalmarsa	446
▁aj	446
▁daɗe	446
▁hakki	446
▁iTunes	446
▁matalauta	446
▁player	446
▁yanka	446
AG	445
ex	445
huwa	445
▁Day	445
▁Jun	445
▁mujallar	445
▁sanye	445
▁zaba	445
▁Ƙauna	445
rol	444
urare	444
▁20:	444
▁Know	444
▁We	444
▁asib	444
▁hourly	444
▁sarakuna	444
▁yaƙin	444
▁ɗayan	444
55	443
91	443
bon	443
ica	443
▁119	443
▁2021	443
▁Sir	443
▁Tur	443
▁amo	443
▁hukum	443
▁kwang	443
▁reshe	443
84	442
SP	442
arfin	442
warar	442
▁Rayuwa	442
▁Taimakon	442
▁cl	442
▁hik	442
▁ik	442
▁komawa	442
▁roƙi	442
act	441
ا	441
▁Irfani	441
▁Read	441
▁cikak	441
▁haɗi	441
▁juyin	441
▁kwatancin	441
▁tasowa	441
Wannan	440
kai	440
▁01	440
▁64	440
▁Kyauta	440
▁karamin	440
▁murabba	440
92	439
ayil	439
ibin	439
iyarwa	439
top	439
▁5,	439
▁bashin	439
▁magunguna	439
▁mahim	439
▁ƙai	439
ABA	438
els	438
ev	438
ran	438
ting	438
uss	438
ver	438
▁Alk	438
▁Lokuta	438
▁Tek	438
▁aljanna	438
▁garanti	438
▁harabar	438
▁pre	438
▁yawo	438
cm	437
idai	437
ubi	437
▁54	437
▁66	437
▁Bug	437
▁Dog	437
▁MA	437
▁عرفان	437
▁های	437
ler	436
urb	436
▁130	436
▁Company	436
▁cut	436
▁jimrewa	436
▁kalma	436
▁kantin	436
▁nunawa	436
undin	435
uyi	435
▁Kusa	435
▁Misira	435
▁bukatan	435
▁haruffa	435
▁kank	435
▁kunshin	435
▁sinadaran	435
▁tsaftace	435
▁اخلاق	435
▁پیامبران	435
ibai	434
▁04	434
▁Aiko	434
▁Hdisi	434
▁Irinta	434
▁Jiki	434
▁Nem	434
▁Sarakuna	434
▁Ubanmu	434
▁aji	434
▁kallo	434
▁marufi	434
▁raj	434
▁talakawan	434
▁اسلامی	434
atta	433
inki	433
ner	433
ره	433
▁Aj	433
▁London	433
▁addinai	433
▁ikilisiyoyi	433
▁Ƙarin	433
▁مبانی	433
ADA	432
▁Awowi	432
▁Fiye	432
▁Saka	432
▁jet	432
▁kudu	432
▁اندیشه	432
▁حکومت	432
▁خمینی	432
▁شیعه	432
▁فقیه	432
▁قرآنی	432
▁مفاهیم	432
▁ولایت	432
arorin	431
isha	431
lokaci	431
ƙwalwar	431
▁..	431
▁Host	431
▁Jagor	431
▁gidansa	431
▁hank	431
▁or	431
UM	430
addara	430
imin	430
▁10,	430
▁Grammar	430
▁Li	430
▁kwar	430
▁matan	430
▁zuciyarka	430
,.	429
▁Kus	429
▁arzikin	429
▁he	429
▁matata	429
▁matsakaicin	429
▁sil	429
▁soji	429
▁zaben	429
-18	428
▁Kyau	428
▁Muh	428
-30	427
amban	427
nan	427
▁21:	427
▁CD	427
▁Shenzhen	427
▁Yanã	427
▁arewa	427
▁gwan	427
▁koyon	427
▁kujer	427
▁latsa	427
▁tawaye	427
▁yarin	427
Don	426
ige	426
▁Afrika	426
▁hakora	426
▁sako	426
▁ƙirƙirar	426
▁●	426
78	425
Bar	425
anking	425
box	425
qu	425
▁Wanene	425
▁alm	425
▁fitowa	425
▁hannunka	425
▁lak	425
▁wu	425
▁yashi	425
ɗan	424
▁Jim	424
▁KARANTA	424
▁albarkar	424
▁nace	424
▁{	424
63	423
82	423
▁18:	423
▁FREE	423
▁Jah	423
▁Korintiyawa	423
▁Leadership	423
▁hawan	423
▁sannu	423
2018	422
ck	422
▁11.	422
▁51	422
▁Af	422
▁Copyright	422
▁HGH	422
▁Jumma	422
▁Mahaliccin	422
▁OEM	422
▁annabce	422
▁fannin	422
▁mika	422
adinai	421
kon	421
ufi	421
zz	421
▁Smart	421
▁abinda	421
▁bututun	421
▁gudanarwa	421
▁gwamnan	421
▁kisan	421
ous	420
sc	420
°	420
▁Cor	420
▁For	420
▁Kagara	420
▁Net	420
▁Tra	420
▁fasalin	420
▁gaji	420
▁hakika	420
▁raunana	420
▁tsõ	420
RI	419
▁MUT	419
▁kotu	419
▁makamai	419
AKA	418
ammacin	418
ararrun	418
udan	418
▁2008	418
▁Philosophy	418
▁akai	418
▁garke	418
▁kõme	418
▁mabiyan	418
▁miji	418
ISA	417
ert	417
▁Che	417
▁JINGHAO	417
▁darussa	417
▁kwan	417
▁lardin	417
HS	416
mb	416
tic	416
urt	416
▁(12	416
▁Helenanci	416
▁Mo	416
▁WHSR	416
▁Wannask	416
▁blockchain	416
▁ganewa	416
▁tabbatarwa	416
agg	415
akam	415
by	415
▁EUR	415
▁Fas	415
▁fif	415
▁pouches	415
GA	414
ell	414
iyu	414
osin	414
xx	414
▁Mur	414
▁dafa	414
▁girg	414
▁shafuffuka	414
alci	413
do	413
erm	413
▁(40	413
▁Hab	413
▁Ig	413
▁Sara	413
▁furcin	413
allo	412
azz	412
ips	412
waya	412
won	412
▁Fiber	412
▁Sweden	412
▁Wasannin	412
▁awa	412
▁gwani	412
▁haramta	412
▁kulle	412
▁shimfidar	412
▁yanci	412
EL	411
amma	411
arwar	411
iss	411
▁Kimiyya	411
▁Kya	411
▁Mil	411
▁Soneva	411
▁Test	411
▁dangantakarmu	411
▁daukaka	411
05	410
ack	410
akk	410
ussan	410
▁Nazari	410
▁hidimarsa	410
▁kwamfutar	410
▁shahara	410
▁waye	410
:27	409
abu	409
▁(6	409
▁7,	409
▁Bak	409
▁Bet	409
▁English	409
▁Koyarwa	409
▁Media	409
▁dog	409
▁kasuwanni	409
▁kofin	409
▁samfuran	409
600	408
hausa	408
iza	408
▁Ams	408
▁Koh	408
▁akalla	408
▁lamb	408
▁mallaki	408
▁yakin	408
!!	407
▁Alkawari	407
▁Je	407
▁Kubawar	407
▁Logic	407
▁dabara	407
▁shela	407
▁sik	407
▁tsib	407
han	406
▁198	406
▁Gabas	406
▁Gar	406
▁Watan	406
▁WorldLingo	406
▁juyayi	406
▁nishaɗi	406
▁taru	406
▁ung	406
▁yabon	406
▁yini	406
▁85	405
▁Att	405
▁Huk	405
▁Kat	405
▁ayyukansu	405
▁canjin	405
▁facebook	405
▁goyan	405
▁isar	405
▁judgments	405
:26	404
Idan	404
asi	404
raft	404
▁Asusun	404
▁Bin	404
▁DAGA	404
▁Ib	404
▁Matasa	404
▁Pl	404
▁fir	404
▁tanadi	404
▁ƙayyade	404
huwar	403
▁Korantiyawa	403
▁Manuf	403
▁Matsa	403
▁WANNAN	403
▁ed	403
▁saitin	403
ilai	402
jen	402
umama	402
unsu	402
xy	402
▁Mah	402
▁biɗan	402
▁magang	402
▁niyyar	402
:28	401
CC	401
udin	401
▁Abdul	401
▁DSS	401
▁Met	401
▁cinikin	401
▁gwamn	401
▁jagora	401
▁kamu	401
▁kway	401
▁kyakkyawa	401
▁mahara	401
▁sanannen	401
/10	400
RA	400
amala	400
amari	400
iah	400
ord	400
usu	400
▁Best	400
▁Kare	400
▁Of	400
▁bang	400
▁—⁠	400
94	399
▁1914	399
▁56	399
▁State	399
▁Waj	399
▁Was	399
▁Yoga	399
▁girgije	399
▁kul	399
▁tsoho	399
▁Ƙara	399
-11	398
-9	398
isin	398
iyarka	398
iyon	398
son	398
▁Alb	398
▁Cutar	398
▁Sany	398
▁UK	398
▁bamb	398
▁kudaden	398
▁tabbat	398
▁taken	398
arts	397
▁annabawa	397
▁diamita	397
▁muhim	397
▁rufin	397
▁sharuddan	397
▁ton	397
▁ƙanƙ	397
DM	396
itawa	396
▁Asabar	396
▁Hanyoyin	396
▁Ita	396
▁LITTAFI	396
▁Mota	396
▁azãba	396
▁bayi	396
▁daw	396
▁haɓ	396
▁talakawa	396
▁zabin	396
▁ƙunsa	396
$	395
afiyar	395
board	395
ime	395
ise	395
odayake	395
▁Alhaji	395
▁Cloud	395
▁Jet	395
▁Karatu	395
▁Muhim	395
▁Poland	395
▁Tool	395
▁kalla	395
▁mul	395
▁zina	395
▁ƙaddamar	395
ging	394
gir	394
▁Blue	394
▁Injin	394
▁Kowa	394
▁SARS	394
▁ZA	394
▁ayoyi	394
▁gamsuwa	394
▁hadari	394
▁rediyo	394
▁sabuntawa	394
▁sujada	394
▁tseren	394
▁ƙwayoyin	394
Lalle	393
ux	393
yo	393
▁03	393
▁22:	393
▁GSS	393
▁Iskar	393
▁Kaduna	393
▁Lit	393
▁Wak	393
▁Yaƙ	393
▁babur	393
▁ingant	393
▁yaran	393
irci	392
▁800	392
▁Aluminum	392
▁Music	392
▁bugun	392
▁kirkiro	392
▁kom	392
▁mij	392
▁tuntube	392
▁yarjejeniya	392
▁zuwan	392
UKA	391
lo	391
▁Litinin	391
▁Tattaunawa	391
▁Yak	391
▁Ziyarci	391
▁gy	391
▁halitt	391
▁shak	391
▁ɗakin	391
ester	390
▁50%	390
▁Bayyana	390
▁Gabatarwa	390
▁Gwaji	390
▁Kamata	390
▁Mutuwar	390
▁PS	390
▁Spain	390
▁haihuwar	390
▁mart	390
▁talauci	390
▁ƙasƙ	390
-14	389
annama	389
lang	389
ory	389
▁Design	389
▁OS	389
▁Rai	389
▁Zo	389
▁alaƙa	389
▁casino	389
▁jinkirin	389
▁matsi	389
▁tank	389
▁zartar	389
▁zaž	389
▁ƙulla	389
ت	388
▁ALL	388
▁Akai	388
▁Nag	388
▁wur	388
ax	387
inin	387
wanda	387
▁Live	387
▁Shine	387
▁Siff	387
▁Ubangijinmu	387
▁jins	387
▁magan	387
▁muhimman	387
▁tabbas	387
▁ƙafaf	387
▁Ah	386
▁Tura	386
▁WP	386
▁fina	386
▁kãfirta	386
for	385
inmu	385
mancin	385
ubale	385
ucin	385
▁Metal	385
▁Shan	385
▁rigakafin	385
▁yanã	385
▁yardar	385
alk	384
fito	384
san	384
si	384
ters	384
ume	384
▁0.0	384
▁Key	384
▁karu	384
▁manzanni	384
OL	383
book	383
fani	383
uch	383
▁Bauta	383
▁Box	383
▁Mall	383
▁Scanner	383
▁dandali	383
▁nat	383
▁numfashi	383
▁tallafi	383
ST	382
manci	382
ogin	382
▁Ruwan	382
▁Timoti	382
▁itat	382
▁kayyade	382
UB	381
alon	381
aur	381
ayensa	381
iro	381
▁12.	381
▁Kark	381
▁Saint	381
▁haskaka	381
▁horarwa	381
▁hujja	381
▁lambobi	381
▁rawar	381
▁wadata	381
▁Ƙung	381
antaka	380
▁Koyi	380
▁Rig	380
▁bata	380
▁gal	380
▁hidimarmu	380
▁jariri	380
▁sanarwar	380
▁search	380
Ina	379
rar	379
▁58	379
▁Bayy	379
▁Ik	379
▁Management	379
▁gabaki	379
▁ikonsa	379
▁jinƙai	379
▁kisa	379
▁masoya	379
▁raunin	379
▁watau	379
▁ƙof	379
▁ƙunci	379
KE	378
ararrawa	378
day	378
gar	378
ukuwa	378
▁Kway	378
▁Ok	378
▁Zaton	378
▁cẽwa	378
▁gun	378
▁kunnen	378
▁lalace	378
▁saurare	378
▁ƙaruwa	378
afta	377
leadership	377
ti	377
▁Digital	377
▁Harshen	377
▁Intanit	377
▁Maz	377
▁bita	377
▁girmamawa	377
=5.6.1	376
[	376
don	376
idojin	376
untar	376
▁Babbar	376
▁Bayar	376
▁Kina	376
▁Maf	376
▁Sauya	376
▁dabb	376
▁las	376
▁sarkar	376
Ga	375
udun	375
”,	375
▁CIN	375
▁Jagora	375
▁Littattaf	375
▁Server	375
▁mizanan	375
oka	374
ÆTM	374
▁2019.	374
▁India	374
▁Iran	374
▁alherin	374
▁arir	374
▁name	374
▁siginar	374
EM	373
awon	373
▁CH	373
▁Cire	373
▁Paul	373
▁Hig	372
▁Ingila	372
▁Naijeriya	372
▁VPS	372
▁ajiyar	372
▁gabashin	372
Sai	371
atic	371
kh	371
oid	371
our	371
▁6,	371
▁Tsar	371
▁auri	371
▁bangaskiyarmu	371
▁juyawa	371
▁ruhunsa	371
▁tsan	371
▁tukuna	371
ED	370
ishiri	370
▁Canada	370
▁Fat	370
▁Inc	370
▁Review	370
▁Tarayyar	370
▁magungunan	370
▁noma	370
▁tufafin	370
▁you	370
▁Den	369
▁Kiwon	369
▁hat	369
▁kebantawa	369
▁kunnawa	369
▁tam	369
▁ƙarancin	369
▁ƙaz	369
-13	368
OW	368
akila	368
gw	368
over	368
ر	368
▁02	368
▁DUK	368
▁Mala	368
▁SHA	368
▁Saitama	368
▁cigaba	368
▁cm	368
▁gayyatar	368
▁iyakance	368
▁kware	368
▁malami	368
▁samarda	368
▁sauƙa	368
▁tsayi	368
Hz	367
anu	367
eter	367
hed	367
ole	367
▁AS	367
▁Auto	367
▁Baby	367
▁Bl	367
▁Kim	367
▁Wasan	367
▁auku	367
▁gunaguni	367
ova	366
▁AK	366
▁Real	366
▁Talata	366
▁direkta	366
▁fashe	366
▁huj	366
▁hukumomi	366
▁jik	366
▁nuf	366
▁Ir	365
▁maƙiy	365
▁mumm	365
▁naúrar	365
▁taus	365
▁zum	365
OB	364
arewasound	364
itaccen	364
udd	364
▁ABIN	364
▁ISHA	364
▁bindaga	364
▁hakkoki	364
▁kiy	364
▁motocin	364
▁zunubin	364
arkin	363
▁Jonathan	363
▁Ki	363
▁Majalisa	363
▁Yahud	363
▁biyo	363
▁canzawa	363
▁cikar	363
▁fannoni	363
▁hanci	363
▁kalli	363
▁karni	363
▁shafan	363
▁tattoos	363
▁yarjejeniyar	363
▁zãlunci	363
atch	362
▁53	362
▁Kaz	362
▁Maima	362
▁Matsayin	362
▁Nass	362
▁Sashen	362
▁United	362
▁albarkaci	362
▁dann	362
▁laf	362
▁matattara	362
▁taso	362
▁taƙa	362
▁woofer	362
▁zato	362
MP	361
als	361
ines	361
č	361
ƙoƙi	361
▁Ake	361
▁Dating	361
▁Gas	361
▁II	361
▁Lu	361
▁Od	361
▁Ofishin	361
▁Sah	361
▁en	361
▁sig	361
:29	360
ds	360
hot	360
ont	360
wasa	360
▁AKA	360
▁Buga	360
▁Fe	360
▁KUKA	360
▁Wad	360
▁aikinsu	360
▁hotel	360
▁menu	360
▁muradin	360
▁rikice	360
▁warke	360
Ma	359
OK	359
Ta	359
Ts	359
afar	359
pping	359
uff	359
▁PM	359
▁Takard	359
▁Yaren	359
▁gudummawa	359
▁hidim	359
▁hula	359
▁ill	359
▁jiya	359
USA	358
imb	358
ize	358
ugi	358
▁Albarka	358
▁Kwa	358
▁faif	358
▁gins	358
▁igiyoyi	358
▁rarrab	358
▁sabili	358
64	357
acci	357
aira	357
suka	357
uman	357
▁000	357
▁Gwa	357
▁Phone	357
▁matsaka	357
▁pe	357
▁raya	357
▁rund	357
▁yare	357
abijin	356
anki	356
ham	356
unansu	356
yd	356
▁180	356
▁Amin	356
▁Bayarwa	356
▁Bonus	356
▁Gold	356
▁Maki	356
▁Taswirar	356
▁boye	356
▁gabas	356
▁jah	356
omatik	355
ƙule	355
▁Dubi	355
▁Jam	355
▁Ob	355
▁Rik	355
▁Tattoo	355
▁ZOMO	355
▁fā	355
▁takarar	355
▁welded	355
ididdigar	354
ook	354
▁Katin	354
▁Rage	354
▁fahariya	354
▁hadd	354
▁haya	354
▁jaw	354
▁miz	354
▁saukewa	354
▁sayan	354
▁sub	354
▁wurinsa	354
▁zak	354
▁15.	353
▁Kalam	353
▁Kwan	353
▁Wondershare	353
▁haɗuwa	353
▁likit	353
▁siffofi	353
RO	352
aranta	352
aza	352
eta	352
sib	352
urai	352
▁DON	352
▁Lahadi	352
▁Mũ	352
▁Professional	352
▁ins	352
▁jẽ	352
▁latest	352
▁masanin	352
▁sark	352
▁sunadarai	352
▁ƙone	352
adon	351
▁Ben	351
▁Con	351
▁Halayen	351
▁Krist	351
▁Tan	351
▁Tsakiya	351
▁kau	351
▁kyakkyawar	351
▁rera	351
▁res	351
▁rigakafi	351
▁wayoyin	351
asud	350
kamar	350
ny	350
oman	350
▁Amint	350
▁Fi	350
▁Golden	350
▁Gun	350
▁Matsaka	350
▁Road	350
▁alfah	350
▁daidaici	350
▁garg	350
▁super	350
▁timu	350
-16	349
1">	349
au	349
ayayya	349
indindin	349
tsaye	349
▁Daily	349
▁Tantancewar	349
▁apps	349
▁dattawan	349
▁hosting	349
▁raira	349
▁sasa	349
ACE	348
yawa	348
▁Academy	348
▁Gine	348
▁Jamhuriyar	348
▁Kab	348
▁Layer	348
▁dukansu	348
▁dukkanin	348
▁iyal	348
▁manaj	348
▁rushe	348
▁sih	348
▁«	348
UD	347
ago	347
akon	347
amarin	347
arai	347
awara	347
▁110	347
▁96	347
▁Alhamis	347
▁Brown	347
▁Caca	347
▁Duka	347
▁Mataimakin	347
▁Player	347
▁cikinku	347
▁fall	347
10.	346
="2	346
arun	346
ily	346
yr	346
▁14.	346
▁Haik	346
▁Hakata	346
▁Hu	346
▁Mark	346
▁Maza	346
▁Tower	346
▁bangask	346
▁ramummuka	346
izer	345
▁American	345
▁Bil	345
▁Bot	345
▁Lev	345
▁Tsakanin	345
▁burge	345
▁furo	345
▁fã	345
▁ikilis	345
▁nẽ	345
▁pl	345
▁ridda	345
▁soke	345
tani	344
uti	344
▁Godiya	344
▁Gunki	344
▁Halin	344
▁jure	344
▁tashoshin	344
▁tumakin	344
▁yakamata	344
▁ƙwayar	344
▁ɓangarorin	344
QL	343
aid	343
ũbuwan	343
▁Gilashin	343
▁Poly	343
▁fagen	343
▁gask	343
▁mahada	343
▁rayuwata	343
▁taƙ	343
▁zuciyarsu	343
▁ɗansa	343
koki	342
ukansu	342
▁Disc	342
▁Science	342
▁Trend	342
▁alf	342
▁daidaitawa	342
▁kamilt	342
▁rarra	342
83	341
imci	341
warsa	341
▁(16	341
▁2018.	341
▁Dam	341
▁bark	341
▁idon	341
▁mamaye	341
▁→	341
ct	340
iyarta	340
ujiza	340
▁(7	340
▁Kash	340
▁Vessel	340
▁Wajen	340
▁firam	340
▁haifa	340
▁kogin	340
▁manufofin	340
▁saye	340
Shine	339
USD	339
▁Katsina	339
▁MINI	339
▁Magung	339
▁Mahim	339
▁Trading	339
▁daidaituwa	339
▁filastik	339
▁gabansa	339
▁gãf	339
▁jarrabawa	339
▁kwashe	339
01	338
ankali	338
ididd	338
ō	338
▁Linj	338
▁Sw	338
▁Tiles	338
▁dangi	338
▁hayan	338
71	337
ME	337
angar	337
cija	337
ern	337
ld	337
ute	337
▁Jeh	337
▁Thailand	337
▁War	337
▁gana	337
▁gareshi	337
▁lamarin	337
▁sansanin	337
▁tsun	337
▁wucewa	337
93	336
wayen	336
▁(8	336
▁30%	336
▁Amf	336
▁Itama	336
▁Maganar	336
▁Rubutun	336
▁Tr	336
▁anda	336
▁keɓa	336
▁manz	336
▁muh	336
▁ruh	336
▁tafiye	336
addamar	335
ajar	335
bs	335
kawa	335
oth	335
ukarwa	335
Ƙ	335
▁Internet	335
▁Zamani	335
▁daki	335
▁dawowa	335
▁lim	335
▁mashaya	335
▁rangw	335
▁sabobin	335
▁yaɗa	335
62	334
hel	334
▁Bello	334
▁WhatsApp	334
▁annab	334
▁datt	334
▁kuskuren	334
▁sojoji	334
▁sā	334
▁wanene	334
-2018	333
INA	333
NUMX	333
adun	333
tsaren	333
▁8,	333
▁Gen	333
▁QR	333
▁Umman	333
▁gagar	333
▁gung	333
▁jigilar	333
▁miy	333
900	332
="5.	332
FP	332
OT	332
ayinsa	332
а	332
▁360	332
▁Hy	332
▁Jaridar	332
▁Naira	332
▁Private	332
▁Society	332
▁Turkey	332
▁akw	332
▁bur	332
▁cr	332
▁dangana	332
▁forex	332
▁jak	332
▁lahani	332
▁shawar	332
ange	331
pp	331
umai	331
utawa	331
▁202	331
▁Hann	331
▁Maha	331
▁YAN	331
▁cell	331
▁halartan	331
▁malam	331
▁saurara	331
▁top	331
IB	330
KO	330
gi	330
jima	330
ohin	330
yana	330
zirga	330
▁Em	330
▁Ilimi	330
▁Ja	330
▁Res	330
▁Tambaya	330
▁aurensu	330
▁bãbu	330
▁halicce	330
▁maɓalli	330
▁mor	330
▁taurari	330
-17	329
amurran	329
orn	329
pcs	329
ult	329
▁Ginin	329
▁Kariya	329
▁Kull	329
▁dannah	329
▁iyakokin	329
▁jiyya	329
▁kafar	329
▁shafaffun	329
▁yabi	329
▁yalwa	329
▁zana	329
▁1.5	328
▁Institute	328
▁Jig	328
▁almajir	328
▁cinikayya	328
▁janareta	328
▁jih	328
▁matsananci	328
▁muni	328
ajen	327
aura	327
ð	327
ɗar	327
▁(24)	327
▁Lee	327
▁Open	327
▁annabin	327
▁gil	327
▁kaka	327
▁matsin	327
▁tarb	327
▁tuƙuru	327
bot	326
▁57	326
▁Kamfan	326
▁Long	326
▁Social	326
▁jijiyoyin	326
▁kwakwal	326
▁muhimmin	326
▁rabi	326
▁rantsuwa	326
▁ziyartar	326
mast	325
otanni	325
wira	325
ze	325
▁(0	325
▁Are	325
▁Arsa	325
▁Mace	325
▁kima	325
▁koyan	325
▁kwam	325
▁wanzu	325
,”	324
elin	324
ero	324
less	324
▁Ant	324
▁Bango	324
▁Fast	324
▁Hanza	324
▁Kwamitin	324
▁Window	324
▁barga	324
▁kurak	324
▁kāriya	324
▁laif	324
▁mahaifinsa	324
▁makon	324
▁rungumi	324
▁ƙalubale	324
inn	323
mit	323
ocinsu	323
▁196	323
▁Anti	323
▁Gy	323
▁Metatrader	323
▁Wutar	323
▁ajiz	323
▁drive	323
▁ing	323
▁marketing	323
▁rant	323
▁rum	323
▁tashe	323
▁zukatan	323
300	322
CO	322
Me	322
▁2007	322
▁5000	322
▁Aliyu	322
▁Annab	322
▁Baba	322
▁Main	322
▁Singapore	322
▁Wan	322
▁sif	322
`	321
atasa	321
fen	321
isu	321
ood	321
otun	321
uwana	321
▁Dang	321
▁Hol	321
▁Kusatsu	321
▁Mab	321
▁PP	321
▁alamomin	321
▁intanet	321
▁makaman	321
▁mury	321
Host	320
enn	320
ree	320
▁(4)	320
▁Fanel	320
▁ir	320
▁kowacce	320
▁sabo	320
▁til	320
▁zumunta	320
CS	319
arnuka	319
ayye	319
con	319
tal	319
▁BAY	319
▁Card	319
▁Lin	319
▁biyun	319
▁kof	319
▁rãy	319
▁smartphone	319
▁zuciyata	319
▁ƙirƙ	319
ney	318
ucen	318
urruka	318
▁Fare	318
▁Ish	318
▁Nadasaka	318
▁Nasara	318
▁SAM	318
▁Saur	318
▁alkawarinsa	318
▁fal	318
▁gajeren	318
▁karbar	318
▁kilomita	318
▁kuzari	318
▁manyanta	318
▁style	318
▁tanadar	318
▁ɓangaren	318
Mun	317
arant	317
eth	317
iyy	317
▁Han	317
▁IC	317
▁Kirsimeti	317
▁Nau	317
▁Nov	317
▁Tashar	317
▁asiri	317
▁fun	317
▁gum	317
▁lallai	317
▁quite	317
▁sim	317
**	316
*,	316
iyayya	316
ukin	316
▁API	316
▁Alamu	316
▁Birnin	316
▁Global	316
▁Ikon	316
▁Mosque	316
▁Ningbo	316
▁SU	316
▁biɗi	316
▁fage	316
▁ib	316
▁karɓan	316
▁kãf	316
▁lalacewar	316
▁maci	316
▁makarant	316
▁net	316
▁pm	316
▁raka	316
▁salula	316
▁tips	316
▁total	316
▁tub	316
▁twe	316
▁ɓace	316
abo	315
oro	315
▁Hong	315
▁Low	315
▁Maj	315
▁Ubangijinka	315
▁aukuwa	315
▁furucin	315
▁kasafin	315
▁kunã	315
▁sananne	315
▁takobi	315
▁taur	315
▁ƙan	315
allafe	314
ayaki	314
onn	314
use	314
ãfi	314
▁1-	314
▁2020,	314
▁62	314
▁TSARKI	314
▁kad	314
▁narkewa	314
▁sigogi	314
(2	313
jawa	313
ƙiya	313
▁20,	313
▁Kit	313
▁Kusk	313
▁Maɗaukaki	313
▁Office	313
▁PDF	313
▁Ruk	313
▁Tai	313
▁babi	313
▁days	313
▁fan	313
▁farm	313
ering	312
ife	312
ness	312
ww	312
▁304	312
▁DUN	312
▁Faculty	312
▁Research	312
▁albark	312
▁bab	312
▁blue	312
▁gurasa	312
▁imam	312
▁tsink	312
▁tsir	312
:10	311
izing	311
tra	311
▁Ikilis	311
▁Kall	311
▁ara	311
▁farfadowa	311
▁ker	311
▁oda	311
▁wakili	311
%,	310
alcin	310
iyanci	310
pper	310
▁2.0	310
▁Glass	310
▁Mor	310
▁Transposh	310
▁main	310
▁square	310
▁Ƙananan	310
ANN	309
KI	309
MU	309
ahim	309
untu	309
▁Fale	309
▁Kay	309
ose	308
▁12,	308
▁oxygen	308
iger	307
usk	307
yst	307
▁Amsoshi	307
▁Hor	307
▁Micro	307
▁Raw	307
▁tamb	307
▁tu	307
0%	306
9001	306
assan	306
irt	306
▁Ap	306
▁Babba	306
▁James	306
▁LLC	306
▁Mada	306
▁Zag	306
▁jer	306
▁kujera	306
aca	305
arau	305
ations	305
kg	305
mas	305
▁Pre	305
▁zalunci	305
▁Halitt	304
▁Kuwa	304
▁cheap	304
▁fak	304
▁furs	304
▁rad	304
▁shek	304
ikai	303
imai	303
ions	303
▁10%	303
▁Kon	303
▁Lik	303
▁Lite	303
▁Muk	303
▁SUN	303
▁im	303
▁play	303
-25	302
04	302
alm	302
▁Alma	302
▁Anfi	302
▁Est	302
▁Marte	302
▁kay	302
▁sk	302
▁yank	302
IDA	301
aster	301
hun	301
oke	301
ufin	301
ö	301
▁Dis	301
▁Ex	301
▁Jul	301
▁Kank	301
▁Kom	301
▁ball	301
▁sinad	301
arl	300
bel	300
inc	300
õda	300
▁99.	300
▁Education	300
▁Model	300
▁Nishi	300
▁Stella	300
▁tsay	300
81	299
BR	299
▁Custom	299
▁Gr	299
▁Xi	299
02	298
amur	298
ince	298
rewa	298
row	298
▁72	298
▁Ash	298
▁Cr	298
▁lal	298
▁review	298
arna	297
eto	297
jojin	297
oph	297
ufa	297
ü	297
▁Gudanarwa	297
▁Mahal	297
▁Roll	297
▁Ste	297
▁Sula	297
▁ant	297
▁touch	297
IMA	296
ararra	296
oll	296
onni	296
▁Dare	296
▁Maw	296
▁ac	296
▁canc	296
▁shawarw	296
▁tsofaff	296
▁ƙal	296
ight	295
uchi	295
už	295
▁(13	295
▁350	295
▁Ball	295
▁Bas	295
▁Generator	295
▁Huɗ	295
▁Ol	295
▁Roba	295
▁bis	295
▁girm	295
▁haif	295
▁inch	295
▁inj	295
▁stock	295
▁zamant	295
-200	294
ITA	294
arko	294
ote	294
▁Dec	294
▁Gwamn	294
▁Raba	294
▁film	294
▁image	294
DE	293
bul	293
fer	293
▁11,	293
▁95	293
▁Binci	293
▁Osaka	293
▁Tso	293
▁Uban	293
▁dand	293
▁ge	293
blog	292
iff	292
itsyn	292
oot	292
rav	292
▁Engineering	292
ARE	291
ASHI	291
▁Arewasound	291
▁Bu	291
▁Has	291
▁SHAF	291
▁Win	291
obar	290
▁1998	290
▁Atoll	290
▁Aviv	290
▁BAR	290
▁Jima	290
▁WA	290
▁samf	290
Ad	289
URA	289
hy	289
ب	289
▁15,	289
▁Dun	289
▁bus	289
▁liss	289
▁tr	289
/12	288
YO	288
awarci	288
comment	288
uan	288
wall	288
yy	288
▁FileCatalyst	288
▁Hus	288
▁IS	288
▁mall	288
▁membrane	288
fl	287
iwatar	287
no	287
tta	287
wood	287
ƙon	287
▁Pe	287
arb	286
builttobrag	286
▁(5)	286
▁86	286
▁Electric	286
▁Gl	286
▁One	286
▁Ro	286
▁cam	286
▁fat	286
OG	285
ummuka	285
utun	285
▁**	285
▁2017,	285
▁59	285
▁Elisha	285
▁GAME	285
▁bul	285
▁yal	285
/3	284
led	284
play	284
ript	284
tin	284
ãy	284
▁MAG	284
▁Shanghai	284
▁Zam	284
▁ago	284
ability	283
amara	283
ris	283
run	283
▁Amos	283
▁Audi	283
▁Ezekiel	283
▁Kitchen	283
▁google	283
/16	282
aton	282
enta	282
▁Dab	282
▁Hany	282
▁Shug	282
▁Store	282
▁Task	282
▁auto	282
▁dans	282
);	281
3">	281
rab	281
▁AR	281
▁Ahmed	281
▁NAN	281
▁mahaifin	281
:12	280
OD	280
\	280
raw	280
unana	280
usan	280
▁2-	280
▁California	280
▁Col	280
▁Ganduje	280
▁JH	280
▁TS	280
/09	279
AKI	279
ams	279
ihu	279
ites	279
ussa	279
▁0.5	279
▁Baa	279
▁Lanta	279
▁tash	279
▁tsor	279
DP	278
▁3*	278
▁HA	278
▁Inter	278
▁Ruth	278
▁Shir	278
▁TAF	278
Ray	277
och	277
ubu	277
▁20.	277
▁AZ	277
▁Start	277
▁murm	277
▁shim	277
ple	276
▁aur	276
:15	275
ING	275
TP	275
hira	275
idi	275
igin	275
irta	275
▁Carbon	275
▁Control	275
73	274
IZ	274
aden	274
attaf	274
attoo	274
ukaki	274
–	274
▁Feb	274
▁Fl	274
▁Project	274
▁ur	274
HO	273
ahu	273
qi	273
vis	273
▁Ahmad	273
▁Motor	273
▁library	273
▁lit	273
▁madaww	273
▁neuro	273
▁rib	273
ASH	272
Ab	272
alen	272
alis	272
arc	272
nd	272
▁20%	272
▁Lat	272
▁motor	272
▁rsquo	272
,00	271
FF	271
arni	271
cc	271
mut	271
ool	271
▁16,	271
▁61	271
▁Asia	271
▁Easy	271
▁Screen	271
▁XL	271
▁lay	271
▁ا	271
/4	270
1-	270
WAR	270
askiya	270
ä	270
▁Din	270
▁Kawa	270
▁MAT	270
▁Michael	270
▁art	270
▁gay	270
KK	269
OP	269
ged	269
▁1,000	269
▁190	269
▁Farm	269
▁Jak	269
▁Soviet	269
▁West	269
▁black	269
▁mint	269
▁nad	269
▁short	269
▁th	269
!"	268
ages	268
ific	268
ones	268
▁Bag	268
▁Bible	268
▁Sami	268
arci	267
inare	267
zan	267
▁FSX	267
▁IM	267
▁Magnetic	267
▁Pay	267
▁browser	267
▁comments	267
▁zal	267
SC	266
hes	266
urf	266
▁67	266
▁Beijing	266
▁Chat	266
▁Fort	266
▁TM	266
▁sul	266
EMA	265
asta	265
izar	265
▁125	265
▁13.	265
▁2005	265
▁Dakar	265
▁Exchange	265
▁Flight	265
▁kok	265
▁mi	265
ii	264
oku	264
▁(18)	264
▁19.	264
▁Link	264
▁Master	264
▁NLS	264
▁Translation	264
▁web	264
angij	263
aph	263
tech	263
▁Esp	263
▁Fence	263
▁PL	263
▁RoHS	263
▁account	263
▁engine	263
▁photo	263
▁saw	263
1%	262
IGA	262
To	262
agawa	262
arke	262
ted	262
▁Cook	262
▁Hassan	262
▁Miy	262
▁Sem	262
▁USA	262
abbin	261
izo	261
url	261
با	261
▁18,	261
▁Get	261
▁Marketing	261
▁Off	261
▁bish	261
▁cor	261
▁non	261
ence	260
vel	260
▁2.5	260
▁Int	260
▁Mi	260
:4	259
izmas	259
izz	259
lex	259
mon	259
▁2018,	259
▁Bel	259
▁INA	259
▁Mohammed	259
▁RAY	259
▁haram	259
oj	258
ope	258
▁700	258
▁9,	258
▁AP	258
▁About	258
▁Er	258
▁Mercedes	258
▁Sy	258
▁Tor	258
▁Up	258
▁iPod	258
▁vs	258
▁zuci	258
.00	257
allai	257
sv	257
▁Hall	257
▁Last	257
▁Mel	257
▁RA	257
▁\	257
▁effects	257
▁photos	257
(5	256
-000	256
2">	256
izon	256
old	256
rat	256
ual	256
ô	256
▁83	256
▁Basin	256
▁Borno	256
▁SSL	256
▁add	256
▁ƙir	256
52	255
Air	255
LO	255
ş	255
▁Hai	255
▁Haw	255
▁IR	255
▁JAPAN	255
▁Med	255
▁Skirting	255
▁Switzerland	255
▁bil	255
▁ind	255
▁se	255
:14	254
DC	254
ides	254
mel	254
osi	254
▁19,	254
▁CPU	254
▁Hon	254
▁North	254
▁car	254
61	253
:13	253
ache	253
ayyad	253
key	253
rop	253
ule	253
د	253
ل	253
▁3-	253
▁Express	253
▁Gil	253
▁Ost	253
▁Ot	253
▁Plus	253
▁gad	253
ires	252
iyama	252
rama	252
▁Rot	252
▁Tips	252
▁Training	252
▁images	252
TF	251
▁1)	251
▁Bauchi	251
▁Habakkuk	251
▁MG	251
▁Pol	251
▁binci	251
▁with	251
400	250
dar	250
lic	250
▁(15	250
▁Foundation	250
▁Mug	250
▁Port	250
▁frame	250
▁jun	250
▁machining	250
alisa	249
aps	249
▁2003	249
▁TO	249
▁info	249
:9	248
▁Per	248
▁SD	248
▁files	248
▁lin	248
証	248
unda	247
▁0,	247
▁Him	247
▁King	247
▁SMS	247
▁fin	247
▁hormone	247
▁kā	247
:3	246
itter	246
lam	246
oye	246
sp	246
▁24,	246
▁88	246
▁ARE	246
▁Av	246
▁Hij	246
▁Mam	246
▁ju	246
.000	245
:200	245
HD	245
OY	245
rid	245
▁17,	245
▁80%	245
▁Ezek	245
▁Gan	245
▁Oh	245
▁TAM	245
▁Taw	245
▁tuf	245
▁umurn	245
RE	244
cut	244
ond	244
unce	244
▁''	244
▁14,	244
▁16.	244
▁220	244
▁23,	244
▁Health	244
▁Sk	244
▁batut	244
ason	243
free	243
lect	243
maj	243
rd	243
▁Engine	243
▁HOTEL	243
▁Lis	243
▁Railway	243
▁SP	243
▁Silk	243
▁jarrab	243
▁kwaikway	243
▁rash	243
▁raw	243
❤	243
MAN	242
cer	242
ee	242
emi	242
ender	242
jejeniyar	242
zon	242
▁Guang	242
▁Non	242
▁bo	242
▁fals	242
aska	241
ret	241
▁(32	241
▁13,	241
▁CC	241
▁EN	241
▁Yam	241
▁addin	241
▁mold	241
▁ms	241
▁satin	241
/8	240
Bl	240
but	240
km	240
Ã	240
▁(1,	240
▁Cross	240
▁Industrial	240
▁Island	240
▁SO	240
▁anytime	240
▁day	240
▁events	240
LE	239
Web	239
race	239
ufai	239
zer	239
ن	239
▁Ac	239
▁CBD	239
▁Hezek	239
▁Hiroshima	239
▁Lo	239
▁Madrid	239
▁Tash	239
▁dig	239
▁tit	239
ech	238
hab	238
ijin	238
▁(6)	238
▁2019,	238
▁PE	238
▁SEO	238
▁Tw	238
▁Zur	238
▁baby	238
BD	237
agram	237
ugu	237
yu	237
zin	237
Ɓ	237
▁90%	237
▁Hat	237
▁KAR	237
▁List	237
▁Sofia	237
▁sir	237
SE	236
We	236
code	236
coin	236
iso	236
▁2)	236
▁63	236
▁70%	236
▁Fuj	236
▁Las	236
▁Systems	236
▁Take	236
ect	235
ids	235
ural	235
▁Kaf	235
▁NEW	235
▁Note	235
▁Peter	235
▁Sim	235
▁qu	235
--	234
:11	234
andan	234
fan	234
iccin	234
osis	234
pr	234
▁6.5	234
▁Aminu	234
▁Network	234
▁Work	234
▁hur	234
▁mir	234
ays	233
gawa	233
inihi	233
▁1400	233
▁160	233
▁Karn	233
▁Kin	233
▁Lights	233
▁Nehem	233
▁Sm	233
▁bet	233
▁fam	233
▁met	233
▁spins	233
▁tra	233
CM	232
URE	232
acks	232
bit	232
osai	232
ç	232
▁(17	232
▁Atiku	232
▁SS	232
▁Shah	232
▁Support	232
▁Ul	232
▁kull	232
▁manual	232
',	231
abba	231
oon	231
▁2020.	231
▁316	231
▁Expert	231
▁Palace	231
▁Standard	231
▁]]>	231
▁hardware	231
Ar	230
ges	230
ša	230
ی	230
▁Abram	230
▁Yah	230
▁core	230
▁dr	230
:20	229
ching	229
▁Amsterdam	229
▁Big	229
▁Cartrend	229
▁MB	229
▁general	229
▁shipping	229
▁tari	229
▁tawa	229
▁±	229
12.	228
4">	228
54	228
LM	228
Point	228
inter	228
ireshin	228
outube	228
rypt	228
▁2006	228
▁2017.	228
▁26.	228
▁69	228
▁Asa	228
▁Cable	228
▁FTTH	228
▁Join	228
▁Rubber	228
▁TAL	228
▁Zamfara	228
▁Zh	228
明	228
3"	227
AKE	227
awi	227
bl	227
ilo	227
ott	227
uwanci	227
▁3000	227
▁InMotion	227
▁MAR	227
▁Sch	227
/07/	226
port	226
the	226
uɗ	226
win	226
ymas	226
▁Dong	226
▁End	226
▁Gh	226
▁Just	226
▁LCD	226
▁Netherlands	226
▁Satin	226
▁baw	226
▁jig	226
▁kid	226
:8	225
ALL	225
CP	225
hai	225
imm	225
ological	225
press	225
rah	225
▁Its	225
▁Kn	225
▁Special	225
▁Star	225
▁band	225
▁gidaj	225
▁multimedia	225
▁resistant	225
1"	224
ater	224
fo	224
ider	224
▁25,	224
▁Barcelona	224
▁Categories	224
▁LAB	224
▁Name	224
▁Pal	224
▁Price	224
▁Robot	224
▁Type	224
▁ben	224
-24	223
JI	223
addam	223
rain	223
▁Full	223
▁Iz	223
▁Legit	223
▁Order	223
▁Single	223
▁gr	223
▁hask	223
800	222
Isra	222
OC	222
Qu	222
aftisma	222
amide	222
app	222
get	222
rencies	222
sen	222
▁10,000	222
▁22,	222
▁3.0	222
▁Association	222
▁FAR	222
▁Great	222
▁Usman	222
▁cost	222
▁hot	222
▁siy	222
izza	221
zhou	221
·	221
▁*****	221
▁1/2	221
▁Kud	221
▁Market	221
▁Raj	221
▁Royal	221
▁South	221
▁hunt	221
▁kya	221
▁maɓ	221
▁nu	221
▁part	221
▁per	221
▁zazz	221
2"	220
br	220
ilat	220
itis	220
okacin	220
▁Bio	220
▁Cheap	220
▁Fur	220
▁GM	220
▁Gib	220
▁Jo	220
▁Line	220
▁Men	220
▁him	220
▁tik	220
11.	219
2020	219
ZA	219
artar	219
asaka	219
ense	219
rent	219
ƙwal	219
▁(8)	219
▁89	219
▁George	219
▁aud	219
▁hall	219
:7	218
PL	218
best	218
ening	218
ls	218
thereum	218
uddan	218
▁18.	218
▁Hik	218
▁fark	218
▁tsab	218
9"	217
="1	217
TH	217
had	217
▁(38	217
▁Aur	217
▁Petersburg	217
▁Rib	217
▁Shek	217
▁Tube	217
▁Zak	217
▁af	217
▁daraj	217
▁god	217
▁that	217
/2019	216
PE	216
eph	216
ores	216
sex	216
▁Alh	216
▁Austria	216
▁Click	216
▁Life	216
▁Nab	216
▁makam	216
▁mujall	216
▁out	216
▁pr	216
MI	215
alt	215
ibu	215
oko	215
ving	215
▁100,000	215
▁30,	215
▁America	215
▁bike	215
▁ƙway	215
Su	214
UMA	214
hem	214
ress	214
wat	214
▁1999	214
▁2004	214
▁73	214
▁Aer	214
▁Os	214
▁RF	214
▁ROM	214
▁SL	214
▁graphics	214
▁hany	214
▁kg	214
▁sol	214
▁○	214
/9	213
08	213
56	213
dan	213
▁Belgium	213
▁Coin	213
▁Ital	213
▁Photo	213
▁Sep	213
▁SiteGround	213
▁che	213
▁over	213
:17	212
ario	212
awun	212
form	212
gra	212
https	212
irm	212
lis	212
mal	212
oral	212
▁2016.	212
▁21,	212
▁Bul	212
▁Daim	212
▁Floor	212
▁Rob	212
▁Table	212
▁Titus	212
▁translation	212
▁zab	212
▁م	212
51	211
OV	211
onavirus	211
ɗewa	211
▁Benz	211
▁Jack	211
▁Module	211
▁PR	211
▁Sait	211
▁UV	211
▁mudd	211
▁profile	211
Go	210
back	210
▁Bill	210
▁Dj	210
▁Irm	210
▁litt	210
▁my	210
▁zuciy	210
/15	209
dB	209
kaci	209
mer	209
zai	209
▁(18	209
▁(200	209
▁240	209
▁76	209
▁hed	209
▁most	209
▁us	209
〒	209
58	208
:16	208
Hot	208
amna	208
atts	208
inar	208
tace	208
ump	208
▁99	208
▁Bala	208
▁Lady	208
▁Mill	208
▁Wannakitesurf	208
▁cinik	208
▁ƙun	208
-40	207
CD	207
Fi	207
low	207
ãne	207
—	207
▁78	207
▁91	207
▁Armageddon	207
▁DR	207
▁Face	207
▁Gi	207
▁Leg	207
▁Washington	207
▁rect	207
▁sara	207
-50	206
aci	206
ball	206
inu	206
oga	206
í	206
и	206
▁1500	206
▁77	206
▁Alzheimer	206
▁Edge	206
▁Kans	206
▁Kawasaki	206
▁LTD	206
▁Solutions	206
▁bandwidth	206
▁manuf	206
▁sans	206
-2019	205
EP	205
Pl	205
bps	205
mun	205
λ	205
▁145	205
▁26,	205
▁28,	205
▁Mass	205
▁PRO	205
▁Pharmaceutical	205
▁Rock	205
▁Safe	205
▁Tom	205
▁ayy	205
▁jana	205
▁yard	205
3%	204
hone	204
ists	204
jar	204
rik	204
warai	204
و	204
▁Amilla	204
▁Brand	204
▁Cash	204
▁Mexico	204
▁Mult	204
▁Times	204
▁Yusuf	204
▁nam	204
CA	203
MAR	203
axial	203
ayama	203
berg	203
hr	203
▁2001	203
▁450	203
▁Christ	203
▁Kad	203
▁Mand	203
▁Not	203
▁Ten	203
▁admin	203
▁drop	203
▁full	203
▁institute	203
▁км	203
'.	202
DF	202
amawa	202
iry	202
mp	202
ping	202
umen	202
▁68	202
▁Chrome	202
▁Cur	202
▁Florida	202
▁Gurgaon	202
▁Site	202
ANG	201
ASS	201
ally	201
arat	201
assi	201
ford	201
que	201
urka	201
ãf	201
▁($	201
▁(25	201
▁(7)	201
▁2016,	201
▁4-	201
▁Hard	201
▁MT	201
▁QS	201
▁Resealable	201
▁Sakam	201
▁VPN	201
▁guitar	201
▁ot	201
▁som	201
▁tsamm	201
203	200
6">	200
BS	200
oe	200
▁Barn	200
▁Her	200
▁Mer	200
▁Panel	200
▁Resort	200
▁Zomo	200
▁ash	200
▁cryptocur	200
.'	199
BO	199
FIN	199
xt	199
▁17.	199
▁April	199
▁Baku	199
▁Maiduguri	199
▁Pack	199
▁bad	199
▁bid	199
▁otitis	199
:18	198
CAD	198
alina	198
eri	198
ift	198
ikak	198
ony	198
▁Euro	198
▁Oct	198
▁Out	198
▁Robert	198
▁mit	198
:6	197
BC	197
Co	197
LC	197
TM	197
anny	197
ela	197
emb	197
qa	197
▁BBC	197
▁Block	197
▁Cal	197
▁Grand	197
▁Lam	197
▁Linux	197
▁NO	197
▁ST	197
▁URL	197
▁et	197
▁inf	197
▁lighting	197
▁tatto	197
ARS	196
UTA	196
ational	196
orm	196
Ž	196
е	196
▁****	196
▁CL	196
▁Ellicott	196
▁Grey	196
▁Kag	196
▁Liss	196
▁Nagoya	196
▁Ry	196
▁Sony	196
▁coronavirus	196
▁gu	196
▁jackpot	196
,'	195
8%	195
="3	195
Ha	195
esh	195
furin	195
igan	195
uring	195
▁97	195
▁CODE	195
▁Class	195
▁FR	195
▁Film	195
▁Latin	195
▁PU	195
▁Sciences	195
▁Snap	195
▁Sokoto	195
▁Yun	195
▁csgo	195
▁huk	195
▁request	195
AU	194
EX	194
HU	194
MD	194
afen	194
ey	194
fit	194
ify	194
odes	194
saveatrain	194
▁Ang	194
▁Arab	194
▁Board	194
▁Door	194
▁Fin	194
▁Gigalight	194
▁Ms	194
▁Tattoos	194
▁[1.9.16_1159]	194
▁av	194
▁dual	194
▁keyboard	194
▁mon	194
▁nitrogen	194
acy	193
alta	193
ius	193
jia	193
▁Ankara	193
▁August	193
▁Bol	193
▁Del	193
▁Europe	193
▁Hand	193
▁Hi	193
▁NY	193
▁Pa	193
▁Pennsylvania	193
▁Phil	193
▁Virgin	193
▁des	193
▁gares	193
▁vibration	193
7">	192
Hosting	192
addy	192
ashboard	192
ches	192
ique	192
ixel	192
iyel	192
mus	192
word	192
­	192
▁Analytics	192
▁Counter	192
▁EU	192
▁Ek	192
▁Electronics	192
▁Kong	192
▁Korea	192
▁Portugal	192
▁Samui	192
▁Syria	192
4"	191
:1	191
OFIN	191
akewa	191
anc	191
arth	191
enz	191
ono	191
stone	191
¡	191
▁2002	191
▁Bow	191
▁CR	191
▁Drop	191
▁Hyperbaric	191
▁MS	191
▁Metro	191
▁Pr	191
▁SHE	191
▁William	191
iwon	190
usi	190
▁Bash	190
▁Enterprises	190
▁Ezra	190
▁Mid	190
▁Sub	190
▁Tour	190
▁Trans	190
▁back	190
▁bl	190
▁int	190
▁mail	190
▁sealing	190
7"	189
7%	189
:19	189
HL	189
PA	189
ald	189
amman	189
eks	189
lm	189
Ɗ	189
▁(9)	189
▁GU	189
▁Joseph	189
▁Sat	189
▁nisha	189
▁takard	189
▁tum	189
&#	188
abs	188
trans	188
▁2,000	188
▁21.	188
▁CM	188
▁Daw	188
▁Eh	188
▁Manchester	188
▁Rose	188
▁Yas	188
▁anabolic	188
▁kit	188
▁pro	188
▁song	188
▁thermal	188
▁tunt	188
2017	187
XX	187
ط	187
▁118	187
▁Airport	187
▁Sol	187
▁Tem	187
▁database	187
▁ob	187
-100	186
57	186
FR	186
aser	186
aut	186
fur	186
ospace	186
otropin	186
▁Page	186
▁Tam	186
▁Wholesale	186
▁__	186
▁casinos	186
▁hus	186
▁lif	186
03	185
2%	185
AA	185
As	185
MB	185
Man	185
Sp	185
XBET	185
king	185
pon	185
ptide	185
tt	185
▁98	185
▁Abba	185
▁Berlin	185
▁Chen	185
▁Com	185
▁God	185
▁MAN	185
▁Metropolitan	185
▁Nam	185
▁Natural	185
▁Pap	185
▁Saudi	185
▁Services	185
▁el	185
▁em	185
▁shaft	185
▁tabb	185
▁tw	185
!!!	184
alam	184
ave	184
ichi	184
ylene	184
▁1960	184
▁2023	184
▁District	184
▁Fukuoka	184
▁Ins	184
▁Land	184
▁Old	184
▁Team	184
▁Toy	184
▁gl	184
▁lat	184
▁modified	184
▁wh	184
1.0	183
:59	183
ANK	183
ammed	183
bal	183
cy	183
inder	183
osa	183
pm	183
ullah	183
▁(20)	183
▁1919	183
▁71	183
▁Color	183
▁Spring	183
▁Trust	183
▁fiberglass	183
▁ph	183
▁tren	183
9%	182
ambobin	182
ania	182
ayer	182
host	182
irl	182
kara	182
men	182
ville	182
μ	182
▁AI	182
▁DJ	182
▁EM	182
▁Hunter	182
▁Industry	182
▁Mc	182
▁sum	182
▁umarn	182
.2	181
20)	181
FI	181
MO	181
OH	181
illing	181
inger	181
inst	181
reg	181
sapp	181
wab	181
▁87	181
▁Head	181
▁Iron	181
▁Lagos	181
▁clamps	181
▁hydro	181
▁matatt	181
▁posts	181
▁sale	181
증	181
-02	180
="6.	180
TU	180
antin	180
ifier	180
ird	180
▁27,	180
▁29,	180
▁Book	180
▁EC	180
▁Martin	180
▁Medicine	180
▁Premium	180
▁eB	180
▁processor	180
▁ref	180
▁type	180
/7	179
09	179
EA	179
ERS	179
atabase	179
time	179
unch	179
▁#1	179
▁103	179
▁Classic	179
▁Cop	179
▁Hop	179
▁Hut	179
▁look	179
Des	178
angular	178
angw	178
dom	178
heng	178
itic	178
uit	178
▁104	178
▁Abd	178
▁Cut	178
▁Dani	178
▁Kos	178
▁MD	178
▁QC	178
▁What	178
07	177
59	177
EMO	177
ahi	177
hon	177
▁201	177
▁Bad	177
▁Hay	177
▁JEHO	177
▁Number	177
▁PA	177
▁Panasonic	177
▁applet	177
▁dõ	177
▁view	177
rist	176
tun	176
▁94	176
▁Development	176
▁Quick	176
▁Ver	176
▁Wi	176
▁dangantak	176
▁face	176
▁release	176
06	175
53	175
asonic	175
fore	175
list	175
▁750	175
▁Arabia	175
▁Kaw	175
▁Skype	175
▁Wuhan	175
▁cochlear	175
▁steroid	175
▁vol	175
App	174
PM	174
arori	174
cam	174
oker	174
▁1990	174
▁2015,	174
▁Azure	174
▁Features	174
▁Niger	174
▁Ocean	174
▁Pric	174
▁ang	174
▁balance	174
▁lubric	174
485	173
agen	173
idon	173
onan	173
pet	173
zal	173
▁25.	173
▁5%	173
▁Blockchain	173
▁CN	173
▁Gamb	173
▁Information	173
▁Nar	173
▁TR	173
▁Taiwan	173
▁Trenbolone	173
▁UN	173
▁address	173
▁bags	173
▁hard	173
▁maima	173
-08	172
6"	172
SM	172
ads	172
allet	172
dong	172
ove	172
php	172
proof	172
ways	172
س	172
▁Archives	172
▁BlueHost	172
▁Direct	172
▁FDA	172
▁Flat	172
▁GUNKI	172
▁Limited	172
▁MUS	172
▁PHP	172
▁SOLAS	172
▁Trump	172
▁Wil	172
▁koy	172
▁max	172
9.00	171
:25	171
Br	171
ags	171
bed	171
den	171
ign	171
isk	171
ops	171
ourgas	171
ream	171
▁105	171
▁375	171
▁Marine	171
▁Nish	171
▁Ri	171
▁click	171
▁kwand	171
▁not	171
Re	170
arter	170
cept	170
ishing	170
lab	170
lor	170
ning	170
obile	170
ties	170
vi	170
å	170
▁1.2	170
▁144,000	170
▁Alkaw	170
▁Dig	170
▁Materials	170
▁TCDD	170
▁from	170
▁jobs	170
▁kil	170
▁show	170
▁transposh	170
4%	169
DS	169
IV	169
agi	169
iang	169
lem	169
lovense	169
put	169
»	169
▁1-2	169
▁140	169
▁3)	169
▁Back	169
▁Countertops	169
▁Dem	169
▁Kok	169
▁Part	169
▁Photos	169
▁Proper	169
▁cards	169
▁month	169
ature	168
nesium	168
▁2015.	168
▁Jinghao	168
▁Sheet	168
▁Wood	168
▁dattij	168
▁form	168
▁gem	168
▁inst	168
▁pool	168
16)	167
HIM	167
ahn	167
ards	167
cr	167
ese	167
ictionary	167
ohm	167
own	167
tes	167
▁Apr	167
▁Bowl	167
▁Guy	167
▁Higher	167
▁Sports	167
▁Town	167
▁Union	167
▁lot	167
▁we	167
▁work	167
인	167
:55	166
Gu	166
It	166
ajj	166
atai	166
load	166
▁FL	166
▁bush	166
▁cover	166
▁gard	166
▁jack	166
▁kitchen	166
▁nut	166
-22	165
15)	165
amen	165
argo	165
iser	165
olf	165
ral	165
ros	165
ures	165
work	165
ي	165
▁(10)	165
▁23.	165
▁365	165
▁Absalom	165
▁HU	165
▁Ibn	165
▁Qingdao	165
▁Ros	165
▁Tract	165
▁cookies	165
▁coupon	165
▁fashion	165
12)	164
250	164
8"	164
ables	164
amo	164
ators	164
iter	164
ƙashin	164
▁3.5	164
▁AF	164
▁Aug	164
▁GNOME	164
▁Indonesia	164
▁Mach	164
▁Saf	164
▁UniConverter	164
▁WHO	164
▁dok	164
▁mult	164
▁networks	164
▁selection	164
170	163
CL	163
Ex	163
Un	163
allah	163
gs	163
ically	163
leg	163
lick	163
otide	163
pan	163
rade	163
urg	163
vers	163
è	163
▁25%	163
▁Jon	163
▁Library	163
▁Sea	163
▁Texas	163
▁Way	163
▁antioxid	163
▁dis	163
▁kurk	163
▁pay	163
▁plugins	163
/2020	162
Plus	162
alid	162
ills	162
ket	162
ƙai	162
о	162
฿	162
▁"%	162
▁Channel	162
▁Doct	162
▁Kyoto	162
▁Manufacturing	162
▁Nik	162
▁Pass	162
▁Sale	162
▁Sapphire	162
▁Speed	162
▁Tik	162
▁azur	162
▁extr	162
▁garga	162
6%	161
odin	161
ogen	161
oria	161
Ş	161
▁30.	161
▁4*	161
▁5-	161
▁Band	161
▁Cy	161
▁Dim	161
▁Ink	161
▁Nine	161
▁RAM	161
▁minutes	161
▁reviews	161
▁wall	161
***	160
13)	160
astic	160
chi	160
ency	160
gh	160
ior	160
issau	160
oly	160
omb	160
▁230	160
▁Ahab	160
▁Malachi	160
▁Malaysia	160
▁Miller	160
▁Nin	160
▁Par	160
▁Popular	160
▁Production	160
▁Pur	160
▁Shandong	160
▁Shop	160
▁Thu	160
▁Tread	160
▁Vol	160
▁`	160
▁cig	160
▁fast	160
▁ml	160
▁system	160
▁widget	160
(4	159
-01	159
2-	159
3-	159
SI	159
erson	159
ipedia	159
ulator	159
uls	159
xxx	159
▁AT	159
▁Abdullah	159
▁Charles	159
▁Czech	159
▁DNA	159
▁Hel	159
▁MIN	159
▁Roman	159
▁Tools	159
▁Vietnam	159
▁ap	159
▁classic	159
▁promo	159
▁shafuff	159
1]	158
Baku	158
NG	158
embed	158
rs	158
uto	158
▁(30	158
▁1200	158
▁Alex	158
▁Buy	158
▁CF	158
▁Cambridge	158
▁Fal	158
▁Manz	158
▁Maria	158
▁Rail	158
▁Rikoooo	158
▁Thomas	158
▁Tri	158
▁WiFi	158
▁article	158
▁business	158
▁gi	158
▁inter	158
▁kamf	158
▁rated	158
▁spring	158
169	157
Pro	157
ces	157
eriya	157
err	157
▁1980	157
▁AUD	157
▁Category	157
▁Cool	157
▁Eric	157
▁Gay	157
▁HP	157
▁Mod	157
▁Tech	157
▁Us	157
▁auditory	157
▁axis	157
▁hij	157
▁mosaic	157
-19.	156
BAN	156
allace	156
angzhou	156
eric	156
face	156
oline	156
oƙ	156
usion	156
zh	156
▁Cam	156
▁Crypt	156
▁EFCC	156
▁East	156
▁Shipping	156
▁Terms	156
▁Unicode	156
▁category	156
▁cib	156
▁cream	156
▁hour	156
39)	155
agar	155
erg	155
lea	155
phone	155
store	155
т	155
▁(37	155
▁84	155
▁Awake	155
▁Core	155
▁Files	155
▁RO	155
▁Tab	155
▁memory	155
/06	154
150	154
SU	154
ammad	154
base	154
days	154
mir	154
oi	154
rix	154
à	154
▁Blu	154
▁Central	154
▁Dy	154
▁If	154
▁Jav	154
▁Mrs	154
▁OBD	154
▁Party	154
▁SK	154
▁Set	154
▁Ton	154
▁analysis	154
▁fahim	154
▁robot	154
▁sw	154
▁trans	154
▁win	154
,000.	153
EE	153
FC	153
wirar	153
▁(24	153
▁1950	153
▁60%	153
▁82	153
▁Email	153
▁Energy	153
▁Garg	153
▁KAL	153
▁Policy	153
▁Tokyo	153
▁ala	153
▁brands	153
II	152
UND	152
abon	152
inj	152
jer	152
lock	152
mA	152
omp	152
oring	152
rem	152
rig	152
vd	152
▁15%	152
▁Alexa	152
▁BL	152
▁Blackjack	152
▁Guide	152
▁Love	152
▁Nev	152
▁Point	152
▁View	152
▁You	152
▁Yu	152
▁azã	152
▁chlor	152
▁du	152
▁embed	152
▁iP	152
▁off	152
▁rit	152
▁silicone	152
2005	151
80)	151
arse	151
ej	151
ison	151
js	151
ür	151
▁(0)	151
▁1.0	151
▁1970	151
▁Artificial	151
▁Flash	151
▁Fun	151
▁PSA	151
▁Prof	151
▁Stereo	151
▁THE	151
▁Tin	151
▁Vanity	151
▁load	151
▁log	151
▁support	151
)?	150
-23	150
/07	150
/6	150
19)	150
NS	150
One	150
igi	150
kins	150
م	150
▁170	150
▁92	150
▁BTE	150
▁Cher	150
▁FM	150
▁Kingdom	150
▁Misslamode	150
▁Personal	150
▁algorith	150
▁fann	150
▁iCloud	150
▁mabiy	150
My	149
arge	149
gl	149
icode	149
rogen	149
ī	149
Φ	149
▁4000	149
▁Det	149
▁Diamond	149
▁Idea	149
▁Ken	149
▁Nic	149
▁Princess	149
▁SSD	149
▁Short	149
▁acetate	149
▁er	149
▁gag	149
▁item	149
▁keb	149
▁pol	149
▁testosterone	149
▁updates	149
▁waɗ	149
-03	148
-05	148
-2017	148
/11	148
ACK	148
LD	148
Th	148
aming	148
erver	148
iral	148
iten	148
ities	148
iting	148
ition	148
ography	148
okia	148
tern	148
ven	148
ğ	148
ɗai	148
ν	148
ع	148
▁""	148
▁Advanced	148
▁Alexander	148
▁Freedom	148
▁Java	148
▁Nav	148
▁Public	148
▁Roy	148
▁Size	148
▁dredge	148
50)	147
ager	147
din	147
ility	147
ipp	147
kiyar	147
met	147
rag	147
sufa	147
ulf	147
xic	147
н	147
≥	147
▁22.	147
▁79	147
▁Aw	147
▁Camp	147
▁Chemical	147
▁Corporation	147
▁Gud	147
▁HTML	147
▁Mart	147
▁Pat	147
▁Wik	147
▁br	147
▁electro	147
▁premium	147
APC	146
Time	146
emic	146
ere	146
ils	146
uge	146
ui	146
▁2014,	146
▁CI	146
▁Fire	146
▁Joel	146
▁Manager	146
▁PayPal	146
▁Posted	146
▁com	146
▁fee	146
▁hab	146
▁ip	146
▁promotional	146
▁store	146
ENE	145
MC	145
erial	145
kanin	145
odium	145
ody	145
pos	145
л	145
▁CAN	145
▁Cup	145
▁ES	145
▁Lighting	145
▁MK	145
▁Russell	145
▁SC	145
▁Time	145
▁Touch	145
▁Yush	145
▁sets	145
▁social	145
▁translations	145
35)	144
38)	144
aris	144
eg	144
faff	144
him	144
osc	144
ser	144
val	144
yelash	144
zi	144
▁Dor	144
▁Hell	144
▁ME	144
▁Miss	144
▁Pen	144
▁Product	144
▁Sample	144
▁Shen	144
▁Stud	144
▁android	144
▁cat	144
▁li	144
▁lithium	144
▁red	144
▁sex	144
?”	143
RP	143
].	143
ades	143
aint	143
categ	143
heel	143
ives	143
las	143
mak	143
mw	143
nam	143
off	143
resh	143
rylic	143
×	143
▁2/	143
▁24.	143
▁40%	143
▁Department	143
▁EX	143
▁OF	143
▁Ser	143
▁Syn	143
▁loading	143
▁tiles	143
60)	142
FA	142
ef	142
zy	142
▁650	142
▁Es	142
▁Fab	142
▁ITIL	142
▁Tian	142
▁Water	142
▁upload	142
▁İ	142
-06	141
18)	141
?'	141
INE	141
Land	141
RC	141
duct	141
nm	141
ower	141
roll	141
▁106	141
▁AG	141
▁Apps	141
▁CV	141
▁Dh	141
▁Origin	141
▁Plate	141
▁Reg	141
▁TW	141
▁cache	141
▁connector	141
▁flower	141
▁furniture	141
▁previous	141
▁rating	141
▁ruk	141
▁songs	141
▁ƙaf	141
ASO	140
ankan	140
bec	140
ible	140
ico	140
pal	140
ules	140
ĩm	140
▁Blythe	140
▁Crystal	140
▁Driver	140
▁ER	140
▁Make	140
▁Must	140
▁River	140
▁Scotland	140
▁Tank	140
▁bind	140
▁ca	140
▁ex	140
▁visa	140
GE	139
GH	139
NI	139
PR	139
Tube	139
ead	139
eli	139
ez	139
hor	139
iod	139
itz	139
jack	139
pro	139
resonance	139
untawa	139
▁112	139
▁FA	139
▁SAR	139
▁UAE	139
▁cur	139
▁di	139
▁master	139
▁matala	139
▁media	139
◆	139
里	139
155	138
AND	138
ava	138
fr	138
more	138
ovie	138
read	138
rel	138
ugal	138
ulum	138
▁Dragon	138
▁IG	138
▁MC	138
▁Michel	138
▁NI	138
▁Olympics	138
▁Om	138
▁Text	138
▁Unit	138
▁blogger	138
▁cent	138
▁coch	138
▁dom	138
▁ibn	138
▁links	138
chat	137
flex	137
gg	137
iller	137
irus	137
iver	137
ju	137
lyn	137
rak	137
raz	137
←	137
▁".	137
▁2013.	137
▁29.	137
▁Bah	137
▁CPA	137
▁Form	137
▁Ireland	137
▁Prince	137
▁Rental	137
▁dem	137
▁dollar	137
▁ox	137
▁teams	137
▁tel	137
!)	136
0000	136
EF	136
TER	136
eral	136
ped	136
rick	136
ves	136
yes	136
▁185	136
▁Computer	136
▁Ev	136
▁Excel	136
▁Federation	136
▁Log	136
▁Lot	136
▁Municipality	136
▁Nat	136
▁Technical	136
▁alher	136
▁design	136
▁icon	136
▁karant	136
▁kwanci	136
▁mod	136
▁par	136
▁sm	136
▁steroids	136
Kar	135
Med	135
SD	135
akuna	135
aky	135
amn	135
ative	135
bsite	135
cal	135
care	135
col	135
ital	135
lim	135
obo	135
roid	135
sel	135
yon	135
≤	135
▁194	135
▁2013,	135
▁30-	135
▁4)	135
▁Denmark	135
▁How	135
▁Load	135
▁Nokia	135
▁Pan	135
▁Ronald	135
▁Storage	135
▁Vienna	135
▁kalm	135
▁sany	135
▁soya	135
▁suj	135
//	134
:57	134
PT	134
has	134
hejiang	134
iny	134
isco	134
unub	134
utor	134
▁Fif	134
▁pc	134
▁this	134
▁weather	134
-09	133
YI	133
andon	133
asino	133
head	133
pur	133
type	133
utin	133
vent	133
weet	133
¢	133
▁(11	133
▁101	133
▁2014.	133
▁CAP	133
▁Circ	133
▁Deep	133
▁Holland	133
▁IV	133
▁Norway	133
▁Pinterest	133
▁lah	133
▁mac	133
/05	132
<	132
AV	132
OLV	132
ched	132
ibod	132
otrop	132
quest	132
rum	132
sey	132
uction	132
~	132
▁Chris	132
▁Crack	132
▁Fri	132
▁Intel	132
▁Johnson	132
▁Motors	132
▁Som	132
▁Spanish	132
▁Tu	132
▁amin	132
▁but	132
▁number	132
▁shopping	132
/18	131
aker	131
apt	131
burg	131
eries	131
ful	131
gr	131
lement	131
ulation	131
ه	131
▁0.1	131
▁2.8	131
▁Application	131
▁Cap	131
▁Latest	131
▁Malta	131
▁Survey	131
▁Transl	131
▁Ziyar	131
▁centrif	131
▁end	131
▁sciences	131
ander	130
asy	130
gwa	130
lan	130
ocur	130
omo	130
ι	130
й	130
▁2008,	130
▁4.0	130
▁Airc	130
▁Gilead	130
▁League	130
▁Station	130
▁bear	130
▁digital	130
▁piano	130
▁tire	130
▁turn	130
aken	129
asing	129
ied	129
mark	129
ogle	129
oles	129
rib	129
set	129
viv	129
י	129
▁Administration	129
▁Bangkok	129
▁Case	129
▁Certificate	129
▁Deposit	129
▁Donald	129
▁Mess	129
▁Mike	129
▁Moh	129
▁NG	129
▁Pakistan	129
▁RU	129
▁Slot	129
▁TH	129
▁Veg	129
▁Xin	129
▁book	129
▁est	129
▁ther	129
10)	128
Bet	128
En	128
Pan	128
adashi	128
erb	128
friendly	128
iet	128
ining	128
omm	128
ured	128
wn	128
▁128	128
▁139	128
▁AV	128
▁BC	128
▁County	128
▁Nai	128
▁Oper	128
▁Philippines	128
▁Platform	128
▁Sugar	128
▁Tit	128
▁Xia	128
▁countertops	128
▁dys	128
▁enc	128
▁news	128
▁ty	128
★	128
123	127
17)	127
ML	127
VA	127
arel	127
ild	127
iler	127
xygen	127
▁2012,	127
▁5.5	127
▁Brussels	127
▁Fan	127
▁Hill	127
▁Inch	127
▁Jing	127
▁Makarant	127
▁Mich	127
▁Nurs	127
▁Que	127
公	127
")	126
TV	126
VPN	126
ae	126
amine	126
anto	126
cript	126
cycl	126
enti	126
erry	126
here	126
ights	126
oom	126
ound	126
pas	126
▁115	126
▁5)	126
▁Gur	126
▁Jordan	126
▁Nathan	126
▁Tags	126
▁Ter	126
▁Videos	126
▁alt	126
▁garant	126
▁logo	126
▁ly	126
▁wag	126
-60	125
700	125
ITE	125
On	125
ands	125
asaki	125
asc	125
cent	125
ns	125
onia	125
oti	125
po	125
racle	125
techn	125
“	125
▁Any	125
▁Aut	125
▁Ep	125
▁Feed	125
▁Job	125
▁Lake	125
▁Lebanon	125
▁Omar	125
▁Solve	125
▁XX	125
▁equip	125
▁immun	125
▁sites	125
▁streaming	125
▁tags	125
4-	124
FT	124
Os	124
Sc	124
ading	124
ella	124
inal	124
ork	124
κ	124
▁320	124
▁Basel	124
▁Belt	124
▁CIS	124
▁FI	124
▁Happy	124
▁Material	124
▁decibels	124
▁likes	124
▁mask	124
▁roll	124
▁ste	124
.3	123
19.	123
380	123
CHA	123
She	123
aria	123
ding	123
eman	123
house	123
rest	123
uruwan	123
▁AA	123
▁Brit	123
▁Care	123
▁Kofi	123
▁NC	123
▁Naz	123
▁Str	123
▁Tro	123
▁coll	123
▁connection	123
▁deb	123
▁did	123
▁fac	123
▁fus	123
▁metall	123
1.1	122
3]	122
ALE	122
VI	122
aby	122
cker	122
eck	122
ians	122
ucle	122
▁5,000	122
▁74	122
▁Ahl	122
▁Argentina	122
▁Benin	122
▁Drive	122
▁Joe	122
▁Lic	122
▁MH	122
▁Oil	122
▁PhD	122
▁Zechariah	122
▁hy	122
▁ideas	122
▁lad	122
▁metabol	122
▁movie	122
▁offers	122
▁related	122
▁wholesale	122
】	122
304	121
TE	121
anner	121
ansk	121
fly	121
iant	121
iles	121
▁2-3	121
▁2012.	121
▁81	121
▁Brook	121
▁Fair	121
▁Georgia	121
▁Newcastle	121
▁Psych	121
▁Regular	121
▁Reply	121
▁Song	121
▁Wal	121
▁imp	121
▁uptime	121
And	120
OU	120
^	120
bet	120
ble	120
gal	120
icho	120
opp	120
oso	120
ulia	120
uses	120
zb	120
ãli	120
‘	120
▁1997	120
▁2009,	120
▁27.	120
▁31,	120
▁Account	120
▁Amb	120
▁Beige	120
▁Edo	120
▁Ell	120
▁Flow	120
▁Fr	120
▁IB	120
▁Privacy	120
▁Rad	120
▁Safety	120
▁Source	120
▁comment	120
▁kasuw	120
▁radiation	120
▁ret	120
【	120
aces	119
anic	119
chen	119
ector	119
hers	119
imate	119
isal	119
ogram	119
van	119
well	119
ystalline	119
ʹ	119
▁(36	119
▁CA	119
▁Hex	119
▁Ice	119
▁Level	119
▁OK	119
▁Spe	119
▁Traffic	119
▁module	119
▁narke	119
▁star	119
▁yuan	119
▁zar	119
:31	118
amed	118
aring	118
dig	118
hua	118
ker	118
nah	118
ographic	118
ogy	118
otic	118
raph	118
rate	118
sec	118
yaran	118
с	118
▁BI	118
▁Cast	118
▁Construction	118
▁Hond	118
▁Vladimir	118
▁wake	118
105	117
ART	117
imming	117
odo	117
ouse	117
riya	117
soft	117
star	117
▁135	117
▁1930	117
▁720	117
▁Address	117
▁Bon	117
▁Des	117
▁Fre	117
▁Gad	117
▁Ghana	117
▁Hungary	117
▁Money	117
▁Near	117
▁Pak	117
▁Patrick	117
▁Rab	117
▁att	117
▁chances	117
▁dec	117
▁list	117
▁serial	117
▁shel	117
▁spl	117
ATS	116
LA	116
NO	116
graduate	116
ices	116
icon	116
info	116
irka	116
my	116
omat	116
ows	116
rency	116
rew	116
▁2010,	116
▁ABS	116
▁Bid	116
▁Henry	116
▁Other	116
▁Student	116
▁Walk	116
▁Zealand	116
▁air	116
▁arz	116
▁aut	116
▁beg	116
▁crack	116
▁feedback	116
▁gaje	116
▁girl	116
▁ped	116
▁ultr	116
COM	115
Im	115
TT	115
fix	115
ification	115
ria	115
▁3,000	115
▁50,000	115
▁93	115
▁Ange	115
▁Bridge	115
▁Eli	115
▁Horm	115
▁Indian	115
▁Mari	115
▁Nehemiah	115
▁Py	115
▁Rel	115
▁Tok	115
▁Version	115
▁Visa	115
▁Vit	115
▁Weld	115
▁mill	115
▁ter	115
6]	114
ERSHIP	114
GP	114
flower	114
hd	114
ien	114
ille	114
р	114
▁Alpha	114
▁Anth	114
▁Apart	114
▁Area	114
▁Chan	114
▁Down	114
▁Mt	114
▁ON	114
▁Wh	114
▁hotels	114
▁hyp	114
▁pur	114
▁tracking	114
▁ul	114
125	113
BN	113
Free	113
JA	113
WS	113
agogical	113
cell	113
hour	113
ined	113
ould	113
outs	113
pol	113
▁6.0	113
▁Ca	113
▁Carr	113
▁Cold	113
▁Frame	113
▁Huawei	113
▁Kenya	113
▁LEAD	113
▁Night	113
▁Shaid	113
▁Sinai	113
▁Word	113
▁cart	113
▁chol	113
▁flag	113
▁gran	113
▁overall	113
▁rung	113
▁sn	113
▁عر	113
14)	112
IO	112
IST	112
UG	112
anas	112
anical	112
asken	112
astik	112
cast	112
onto	112
sw	112
wind	112
▁1.6	112
▁1991	112
▁Africa	112
▁Angel	112
▁Apartment	112
▁Base	112
▁Delta	112
▁Ling	112
▁Lux	112
▁Museum	112
▁Richard	112
▁Students	112
▁domain	112
▁home	112
▁laser	112
▁rates	112
/17	111
/19	111
Red	111
akis	111
essa	111
field	111
ibiyar	111
ingo	111
lywood	111
nels	111
ophilia	111
ras	111
review	111
ums	111
Č	111
ά	111
α	111
⁠	111
▁ATM	111
▁Austral	111
▁Dream	111
▁Hur	111
▁Luc	111
▁Mir	111
▁Multimedia	111
▁Portuguese	111
▁Stan	111
▁Western	111
▁Young	111
▁articles	111
▁kuz	111
▁led	111
▁shimf	111
/25	110
180	110
ANCE	110
Ge	110
abol	110
cription	110
een	110
hou	110
ield	110
link	110
lus	110
ulle	110
▁1945	110
▁Australian	110
▁Cat	110
▁Coast	110
▁GBP	110
▁Human	110
▁Kr	110
▁Ren	110
▁SE	110
▁get	110
▁rob	110
▁will	110
110	109
2.0	109
2]	109
China	109
VC	109
aire	109
bank	109
innitus	109
oos	109
otu	109
oul	109
ref	109
uno	109
wh	109
▁1.4	109
▁136	109
▁Du	109
▁HR	109
▁Pharm	109
▁Simple	109
▁Soft	109
▁Surface	109
▁Syd	109
▁engra	109
▁fer	109
▁quote	109
▁snow	109
▁task	109
▁watch	109
️	109
7]	108
ANTA	108
All	108
Fin	108
Our	108
Ph	108
SH	108
anks	108
ben	108
ea	108
euro	108
ient	108
odia	108
par	108
ports	108
resistant	108
rey	108
ups	108
▁Arm	108
▁Building	108
▁Certification	108
▁Clin	108
▁Fib	108
▁Finland	108
▁Jes	108
▁Kak	108
▁Lim	108
▁Marc	108
▁OR	108
▁Physics	108
▁Search	108
▁Total	108
▁Wide	108
▁comp	108
▁fass	108
▁records	108
▁shafaff	108
▁tip	108
▁truck	108
-32	107
13,	107
6.0	107
JPY	107
light	107
utes	107
verter	107
view	107
wp	107
ws	107
▁0.00	107
▁1.1	107
▁108	107
▁AIDS	107
▁Active	107
▁Die	107
▁EP	107
▁Helen	107
▁Images	107
▁Mail	107
▁PET	107
▁Rating	107
▁Sund	107
▁Swiss	107
▁Val	107
▁Ven	107
▁Victoria	107
▁down	107
▁factor	107
▁lo	107
▁pop	107
▁pun	107
▁ten	107
▷	107
Cl	106
LED	106
ances	106
iana	106
ija	106
mes	106
oped	106
yt	106
Ü	106
▁0.2	106
▁147	106
▁1996	106
▁550	106
▁Bell	106
▁Brian	106
▁France	106
▁Frank	106
▁III	106
▁KR	106
▁Raven	106
▁Release	106
▁Resource	106
▁SW	106
▁Santa	106
▁Wed	106
▁abub	106
▁giant	106
▁stud	106
.1	105
379	105
Bissau	105
Ind	105
VID	105
aking	105
ayyade	105
bolone	105
dr	105
eller	105
eration	105
icone	105
iling	105
ivity	105
lp	105
tain	105
	105
É	105
ó	105
ο	105
▁1995	105
▁Deb	105
▁Kats	105
▁NU	105
▁Og	105
▁Saud	105
▁Sens	105
▁Ship	105
▁Style	105
▁Zimbabwe	105
▁cet	105
▁have	105
▁head	105
▁ink	105
▁phosph	105
▁subt	105
、	105
.:	104
/30	104
350	104
ATT	104
IFI	104
ample	104
ared	104
http	104
ideo	104
illar	104
rend	104
ses	104
sis	104
▁20,000	104
▁28.	104
▁Alt	104
▁Anna	104
▁Bud	104
▁Gombe	104
▁Sales	104
▁Scientific	104
▁Si	104
▁Virtual	104
▁Week	104
▁action	104
▁blogs	104
▁con	104
▁feed	104
▁imm	104
▁takal	104
▁ver	104
107	103
15.	103
Arab	103
Com	103
IKIN	103
TI	103
abbar	103
cle	103
dro	103
hal	103
hare	103
isc	103
istance	103
ject	103
nes	103
rog	103
shima	103
uje	103
ward	103
▁+39	103
▁4.5	103
▁Arts	103
▁Ber	103
▁Cro	103
▁Ele	103
▁Italy	103
▁Jih	103
▁Karl	103
▁Meh	103
▁Mubarak	103
▁Nazi	103
▁Nicole	103
▁Nor	103
▁Sel	103
▁Spy	103
▁edition	103
▁hyper	103
▁po	103
▁ranking	103
▁versions	103
▁water	103
▁›	103
00,	102
4]	102
Card	102
ael	102
asse	102
aving	102
cing	102
fu	102
hip	102
ials	102
ofer	102
oper	102
ories	102
post	102
ragon	102
side	102
uli	102
via	102
м	102
▁2.7	102
▁Credit	102
▁Guardian	102
▁Ill	102
▁Les	102
▁Recovery	102
▁Summer	102
▁Vessoft	102
▁Waɗ	102
▁canal	102
▁link	102
▁uniform	102
":	101
/100	101
3),	101
BI	101
anol	101
domin	101
high	101
hur	101
itor	101
letter	101
oes	101
omet	101
pie	101
table	101
ɔ	101
▁107	101
▁133	101
▁188	101
▁BT	101
▁Bra	101
▁Dual	101
▁FT	101
▁Financial	101
▁Flo	101
▁IL	101
▁Islands	101
▁ass	101
▁ast	101
▁barb	101
▁bond	101
▁jir	101
▁nit	101
▁orange	101
▁ranked	101
▁serv	101
▁turb	101
■	101
♪	101
-2020	100
140	100
95)	100
ARD	100
Be	100
CR	100
FS	100
SK	100
So	100
VD	100
bus	100
html	100
ief	100
makers	100
ored	100
rap	100
uel	100
urru	100
▁Act	100
▁Aqu	100
▁Bro	100
▁Chart	100
▁Cons	100
▁Cover	100
▁Di	100
▁Edition	100
▁Emmanuel	100
▁Gift	100
▁Index	100
▁Ju	100
▁Mina	100
▁Run	100
▁analog	100
▁booking	100
▁shaw	100
-28	99
3.0	99
Commerce	99
IVE	99
Trans	99
boards	99
ett	99
fil	99
iber	99
iva	99
text	99
▁192	99
▁2007,	99
▁Anal	99
▁Basic	99
▁CP	99
▁GR	99
▁Hello	99
▁LG	99
▁Ottoman	99
▁Plan	99
▁Rain	99
▁Scriptures	99
▁bare	99
▁bayy	99
▁mashah	99
▁said	99
▁ser	99
▁thread	99
▁years	99
█	99
120	98
Mus	98
Sm	98
ape	98
ather	98
hib	98
iquid	98
pect	98
sau	98
tor	98
▁127	98
▁5.0	98
▁BU	98
▁Bh	98
▁Biden	98
▁Catal	98
▁Cyber	98
▁Doll	98
▁Dur	98
▁FC	98
▁Gaza	98
▁Lut	98
▁Spl	98
▁Tir	98
▁Valent	98
▁available	98
▁connect	98
▁counter	98
▁fe	98
▁gat	98
▁just	98
▁new	98
FO	97
NC	97
akawan	97
ents	97
maker	97
pers	97
plex	97
raf	97
ther	97
unction	97
£	97
ב	97
▁260	97
▁480	97
▁Autom	97
▁Border	97
▁Centre	97
▁Deg	97
▁Details	97
▁Fam	97
▁Fu	97
▁Garden	97
▁MAL	97
▁People	97
▁Solom	97
▁conver	97
▁doct	97
▁es	97
▁generated	97
▁his	97
▁num	97
▁pneum	97
▁tor	97
ANT	96
adh	96
alu	96
aneous	96
arian	96
atory	96
cial	96
fawa	96
ified	96
lers	96
sole	96
ñ	96
ר	96
▁("	96
▁-20	96
▁Annan	96
▁Arch	96
▁Electronic	96
▁Forum	96
▁Hydro	96
▁Lah	96
▁Stock	96
▁Tsak	96
▁Ult	96
▁anal	96
▁bra	96
▁developer	96
▁emb	96
▁huɗ	96
▁rain	96
▁source	96
▁wordpress	96
/24	95
ANC	95
__	95
anes	95
arr	95
ction	95
ems	95
ict	95
ifications	95
igh	95
ival	95
lection	95
▁210	95
▁Ale	95
▁Ast	95
▁Bath	95
▁Capital	95
▁Modern	95
▁Organic	95
▁Penn	95
▁Premier	95
▁Sum	95
▁Vent	95
▁file	95
▁phot	95
▁run	95
▁soy	95
▁time	95
▁wan	95
/14	94
BU	94
DR	94
For	94
MM	94
UE	94
ains	94
akwal	94
cetate	94
dam	94
feed	94
fs	94
lear	94
ming	94
ries	94
rug	94
sup	94
ε	94
ע	94
ṃ	94
▁$1	94
▁113	94
▁121	94
▁1994	94
▁2005,	94
▁Abbas	94
▁Andrew	94
▁Congress	94
▁DM	94
▁Festival	94
▁Gig	94
▁Lou	94
▁Mem	94
▁Pacific	94
▁Packaging	94
▁Plastic	94
▁contact	94
▁disc	94
▁dred	94
▁flash	94
▁inject	94
▁psych	94
▁rot	94
▁sin	94
▁smart	94
▁statistics	94
▁tand	94
▁under	94
▁ye	94
▁ziy	94
▁zone	94
----	93
PO	93
adium	93
anium	93
arket	93
artan	93
date	93
eff	93
how	93
izhou	93
orb	93
ration	93
sur	93
İ	93
′′	93
▁270	93
▁380	93
▁Contact	93
▁FS	93
▁Fashion	93
▁History	93
▁Nord	93
▁RE	93
▁Range	93
▁Tape	93
▁Will	93
▁inc	93
▁men	93
▁own	93
▁rel	93
▁str	93
▁tech	93
▁yun	93
국	93
aled	92
aww	92
ede	92
elia	92
hol	92
ipe	92
osterone	92
oun	92
ours	92
ynam	92
zen	92
▁1.3	92
▁330	92
▁340	92
▁50,	92
▁Council	92
▁From	92
▁Show	92
▁UP	92
▁cod	92
▁gwargw	92
▁loc	92
▁mic	92
450	91
GR	91
RS	91
abl	91
akes	91
alf	91
df	91
edi	91
hao	91
inson	91
jall	91
mn	91
ring	91
▁148	91
▁1920	91
▁1940	91
▁1992	91
▁Ara	91
▁Cand	91
▁FAQ	91
▁Figures	91
▁Italian	91
▁Location	91
▁Los	91
▁Matt	91
▁TOP	91
▁TU	91
▁Works	91
▁capac	91
▁ep	91
▁gra	91
▁hand	91
▁od	91
▁soft	91
▁tang	91
▁zãl	91
/0	90
PG	90
UP	90
arch	90
cet	90
cher	90
disc	90
esters	90
iness	90
ios	90
isting	90
ivers	90
jet	90
kina	90
place	90
ten	90
¦	90
ɓan	90
▁175	90
▁2011,	90
▁Award	90
▁CJ	90
▁Course	90
▁Jiang	90
▁Opt	90
▁Space	90
▁Sz	90
▁Try	90
▁about	90
▁deci	90
▁speaker	90
20.	89
8.0	89
9]	89
SL	89
ananci	89
erv	89
igen	89
ister	89
izes	89
look	89
olo	89
oms	89
oust	89
sea	89
ش	89
▁111	89
▁Ask	89
▁Cell	89
▁Cost	89
▁Cov	89
▁Days	89
▁Ladies	89
▁Over	89
▁Sport	89
▁Sudan	89
▁Supply	89
▁Technologies	89
▁Universal	89
▁Well	89
▁Zone	89
▁bull	89
▁cannabis	89
▁fis	89
▁stra	89
32)	88
390	88
4.0	88
ATE	88
Res	88
Sura	88
akh	88
ened	88
eters	88
jad	88
kah	88
nik	88
oft	88
ometer	88
opl	88
reat	88
ú	88
η	88
ת	88
▁Acad	88
▁Agency	88
▁BE	88
▁Cent	88
▁Chicago	88
▁GO	88
▁Japanese	88
▁Jobs	88
▁LinkedIn	88
▁Minsk	88
▁States	88
▁Wang	88
▁hook	88
▁mg	88
▁position	88
▁sunad	88
▁tele	88
▁́	88
어	88
/01	87
101	87
ESS	87
Is	87
LS	87
anning	87
content	87
etic	87
item	87
leb	87
not	87
orative	87
rams	87
uster	87
yx	87
▁95%	87
▁Atl	87
▁Community	87
▁Gabriel	87
▁LITTA	87
▁Lib	87
▁Municip	87
▁flights	87
▁range	87
▁wakilt	87
한	87
14.	86
anges	86
cos	86
eu	86
hn	86
icks	86
kov	86
ogl	86
pen	86
sy	86
urance	86
urer	86
uth	86
zawa	86
▁116	86
▁123	86
▁BR	86
▁British	86
▁Bus	86
▁Comm	86
▁Cosm	86
▁Description	86
▁EV	86
▁Elect	86
▁Family	86
▁Map	86
▁Masters	86
▁Report	86
▁Ret	86
▁Sant	86
▁Sign	86
▁Smith	86
▁Ty	86
▁Yes	86
▁any	86
▁enzy	86
▁fax	86
▁fo	86
▁gel	86
▁index	86
▁shared	86
▁shed	86
▁sills	86
Bu	85
NE	85
abis	85
ailand	85
aine	85
ibymas	85
osph	85
shore	85
str	85
urd	85
▁+35	85
▁1989	85
▁2.1	85
▁Alf	85
▁Amaz	85
▁Bor	85
▁Cou	85
▁LA	85
▁Nation	85
▁Op	85
▁Rec	85
▁SM	85
▁Simon	85
▁Strong	85
▁bro	85
▁daida	85
▁def	85
▁like	85
-27	84
-29	84
/02	84
11)	84
aze	84
dildo	84
eda	84
endom	84
ered	84
infl	84
lov	84
ocal	84
plate	84
posh	84
vo	84
▁100,	84
▁102	84
▁129	84
▁Bed	84
▁CAS	84
▁Cub	84
▁Executive	84
▁Hum	84
▁Laun	84
▁Monitor	84
▁Ped	84
▁Pent	84
▁Quart	84
▁Romania	84
▁aer	84
▁alph	84
▁flex	84
▁installing	84
▁kwatan	84
▁pa	84
▁paving	84
▁pig	84
▁yet	84
▁zinc	84
▁}	84
▁Ö	84
.50	83
AST	83
Japan	83
icated	83
olone	83
prop	83
you	83
¥	83
ê	83
ح	83
▁Articles	83
▁Cyr	83
▁FIFA	83
▁Farf	83
▁Fuk	83
▁Ly	83
▁Marsh	83
▁Mining	83
▁Mumbai	83
▁Munich	83
▁Nort	83
▁Phot	83
▁Phys	83
▁Pin	83
▁Pop	83
▁Prepar	83
▁Prom	83
▁SOL	83
▁Sound	83
▁Van	83
▁pen	83
▁powered	83
▁question	83
▁slot	83
%)	82
1.2	82
GS	82
aic	82
ardin	82
asm	82
athon	82
core	82
cul	82
edo	82
elly	82
ror	82
†	82
▁138	82
▁Azerbaijan	82
▁Beautiful	82
▁Dev	82
▁Fed	82
▁Fine	82
▁Hans	82
▁Place	82
▁Pu	82
▁Spot	82
▁Turkish	82
▁Wireless	82
▁buy	82
▁date	82
▁diploma	82
▁kits	82
▁leg	82
▁sharing	82
ITED	81
ancy	81
cat	81
het	81
hl	81
itch	81
rics	81
sch	81
uct	81
world	81
▁Cod	81
▁Hit	81
▁Jenn	81
▁Rem	81
▁SIM	81
▁Skills	81
▁content	81
▁det	81
▁gly	81
▁hel	81
▁kyawa	81
▁local	81
▁must	81
▁nickel	81
5]	80
FL	80
UC	80
antic	80
car	80
dy	80
ele	80
inary	80
indin	80
ingen	80
itions	80
jiang	80
olar	80
oooo	80
ption	80
rene	80
tom	80
▁2.4	80
▁2011.	80
▁75%	80
▁850	80
▁Budd	80
▁Const	80
▁Exam	80
▁Gile	80
▁Heb	80
▁Mos	80
▁Ny	80
▁Security	80
▁Stephen	80
▁Tanz	80
▁crystal	80
▁custom	80
▁developers	80
.5%	79
.6	79
CT	79
GL	79
This	79
block	79
ette	79
iew	79
irc	79
order	79
ski	79
ón	79
▁ADD	79
▁Analysis	79
▁Delhi	79
▁Eco	79
▁FG	79
▁Fred	79
▁Inf	79
▁LV	79
▁Middle	79
▁Milan	79
▁Pie	79
▁Tay	79
▁complete	79
▁members	79
▁romantic	79
日	79
00.	78
160	78
2000	78
SR	78
URI	78
arma	78
cking	78
ences	78
pat	78
sson	78
uminium	78
vens	78
▁1975	78
▁Access	78
▁Carolina	78
▁Certified	78
▁Civil	78
▁Dup	78
▁Girls	78
▁His	78
▁Innovation	78
▁Inst	78
▁Mars	78
▁Nij	78
▁PH	78
▁Room	78
▁Russia	78
▁TT	78
▁Weight	78
▁ads	78
▁card	78
▁cons	78
▁forum	78
▁moist	78
▁murd	78
▁persons	78
▁sham	78
▁sheet	78
▁tem	78
/08	77
/13	77
30.	77
7.0	77
ECE	77
Wh	77
agun	77
ames	77
atics	77
bow	77
irgin	77
lee	77
tu	77
vey	77
vin	77
б	77
▁31.	77
▁Anne	77
▁Caribbean	77
▁Conc	77
▁Convert	77
▁Ger	77
▁Iv	77
▁Lay	77
▁Liverpool	77
▁Louis	77
▁Navigation	77
▁Rev	77
▁Sarah	77
▁Securities	77
▁Sky	77
▁Soph	77
▁abund	77
▁cal	77
▁fro	77
▁games	77
▁haih	77
▁kwaik	77
▁sav	77
▁title	77
-35	76
25,	76
8/	76
Con	76
Do	76
SF	76
SO	76
TR	76
ULL	76
agaba	76
cor	76
guard	76
pots	76
rapy	76
sm	76
ste	76
ulpt	76
vimas	76
words	76
én	76
מ	76
▁0.7	76
▁1.8	76
▁199	76
▁1997,	76
▁30,000	76
▁7.5	76
▁Better	76
▁Cameron	76
▁Ext	76
▁February	76
▁Ful	76
▁GUN	76
▁HIV	76
▁Laboratory	76
▁Maɗa	76
▁Mountain	76
▁Ore	76
▁Sup	76
▁Willi	76
▁Wire	76
▁With	76
▁cake	76
▁ferr	76
▁op	76
▁ratings	76
▁ship	76
▁tens	76
▁views	76
▁ĩm	76
/04	75
ANS	75
CF	75
IE	75
LT	75
angu	75
bag	75
nar	75
oop	75
othe	75
ovoltaic	75
ristian	75
rot	75
style	75
udo	75
ĩƙa	75
▁0.6	75
▁114	75
▁1993	75
▁Aud	75
▁Carl	75
▁Christian	75
▁Harvard	75
▁Hours	75
▁Indicator	75
▁del	75
▁fr	75
▁naz	75
▁one	75
▁styles	75
▁topic	75
▁update	75
▁zarg	75
(1)	74
20,	74
INI	74
ITY	74
NL	74
Pr	74
YS	74
aching	74
allam	74
away	74
bert	74
carbon	74
card	74
ears	74
ipping	74
jö	74
mistry	74
ocated	74
olog	74
ounder	74
por	74
rim	74
stein	74
test	74
▁2.2	74
▁2004,	74
▁280	74
▁430	74
▁BEST	74
▁CIA	74
▁Develop	74
▁Egypt	74
▁File	74
▁Football	74
▁Gro	74
▁Hose	74
▁Let	74
▁Lyon	74
▁Obama	74
▁Operation	74
▁PT	74
▁Pas	74
▁Pow	74
▁Rou	74
▁SR	74
▁Switch	74
▁TAK	74
▁Tattauna	74
▁administrative	74
▁conduct	74
▁fol	74
▁language	74
▁phones	74
▁prop	74
▁tons	74
▁Ε	74
Cont	73
DB	73
High	73
NET	73
Yes	73
asanjo	73
bir	73
cf	73
eds	73
ees	73
elect	73
gart	73
onic	73
pel	73
sim	73
ubl	73
uin	73
А	73
ק	73
َ	73
▁-10	73
▁165	73
▁Afghanistan	73
▁Ayy	73
▁Cecilia	73
▁Cha	73
▁Chinese	73
▁Excell	73
▁Kamf	73
▁Latvia	73
▁Male	73
▁Orange	73
▁Prize	73
▁Scott	73
▁Silicon	73
▁Sug	73
▁Yellow	73
▁[1]	73
▁cyber	73
▁drag	73
▁ice	73
▁matsal	73
▁our	73
▁pp	73
▁primary	73
▁rom	73
▁stretch	73
▁users	73
▁ɓang	73
115	72
Er	72
GI	72
adding	72
ashar	72
bour	72
ether	72
iano	72
roph	72
Ç	72
ŋ	72
ج	72
▁144	72
▁1948	72
▁2.9	72
▁2000,	72
▁2008.	72
▁Action	72
▁Albert	72
▁Conf	72
▁Cra	72
▁Dele	72
▁Empire	72
▁Gon	72
▁HOT	72
▁Hotels	72
▁IF	72
▁Journal	72
▁Local	72
▁Lok	72
▁Naj	72
▁Ox	72
▁SY	72
▁Step	72
▁Valley	72
▁Winter	72
▁Wu	72
▁controls	72
▁dro	72
▁lip	72
▁nauy	72
▁ring	72
▁series	72
▁stamp	72
▁ster	72
酒	72
177	71
PP	71
Secret	71
abolic	71
asion	71
cel	71
direct	71
imakon	71
ione	71
iron	71
otive	71
oud	71
rochemical	71
rov	71
rup	71
source	71
tel	71
uds	71
urse	71
ystem	71
ف	71
▁1%	71
▁122	71
▁134	71
▁1958	71
▁Brid	71
▁Cikak	71
▁Fitness	71
▁Games	71
▁Jean	71
▁Mic	71
▁Now	71
▁Putin	71
▁Rh	71
▁SGS	71
▁SON	71
▁Select	71
▁Temple	71
▁Three	71
▁Witnesses	71
▁access	71
▁lõ	71
▲	71
(1	70
1).	70
LL	70
aftace	70
azza	70
cop	70
eti	70
ired	70
itive	70
izable	70
lav	70
ords	70
orno	70
orption	70
reens	70
ucks	70
wr	70
к	70
▁35.	70
▁Acc	70
▁Ans	70
▁Detector	70
▁Francis	70
▁Ideas	70
▁Jana	70
▁Jinping	70
▁Kub	70
▁Lag	70
▁Learning	70
▁Login	70
▁Mech	70
▁Nick	70
▁Nigerian	70
▁Packing	70
▁Pot	70
▁Stra	70
▁Term	70
▁Whe	70
▁Wind	70
▁Yemen	70
▁babb	70
▁col	70
▁mach	70
▁rate	70
▁rem	70
▁set	70
	70
	70
ACH	69
HSR	69
SG	69
abel	69
alls	69
aux	69
comm	69
dog	69
erman	69
ias	69
ilers	69
itr	69
med	69
page	69
pple	69
ston	69
▁2006,	69
▁Aid	69
▁Almas	69
▁Comp	69
▁Conn	69
▁Dom	69
▁Eb	69
▁Exp	69
▁Expl	69
▁Kore	69
▁Little	69
▁Manufacturers	69
▁Nob	69
▁Process	69
▁Robots	69
▁Samuel	69
▁TF	69
▁galvan	69
▁host	69
▁lady	69
▁umur	69
▁von	69
(9	68
.....	68
/03	68
Can	68
EST	68
EU	68
IME	68
IX	68
PY	68
ality	68
ello	68
gov	68
iers	68
ifer	68
ilis	68
ims	68
itiz	68
itus	68
nis	68
rant	68
reta	68
rich	68
▁0.3	68
▁Cart	68
▁Clear	68
▁Connect	68
▁Cour	68
▁Elizabeth	68
▁Francisco	68
▁Half	68
▁Islam	68
▁Israel	68
▁Maritime	68
▁Minist	68
▁Outdoor	68
▁Snow	68
▁Stage	68
▁Sturdy	68
▁TEL	68
▁Turn	68
▁Welded	68
▁Year	68
▁ampl	68
▁cre	68
▁cy	68
▁fib	68
▁luck	68
▁miss	68
▁rep	68
▁stairs	68
▁taim	68
▁unlimited	68
FM	67
International	67
Mar	67
Net	67
ante	67
argw	67
atal	67
avi	67
chain	67
cs	67
igu	67
iol	67
iph	67
ished	67
iton	67
kel	67
life	67
olic	67
ologist	67
omer	67
ount	67
point	67
size	67
ulators	67
Т	67
ч	67
▁Armenia	67
▁Cho	67
▁Dav	67
▁Domain	67
▁First	67
▁Germany	67
▁Mul	67
▁Muslim	67
▁Orthodox	67
▁Performance	67
▁Shai	67
▁Siber	67
▁That	67
▁Vehicle	67
▁Vill	67
▁adult	67
▁exact	67
▁flags	67
▁past	67
▁posted	67
▁shop	67
))	66
/#	66
AGE	66
De	66
EO	66
ILL	66
Vs	66
bor	66
chn	66
ength	66
ete	66
iche	66
ising	66
istic	66
itory	66
lands	66
lessly	66
oming	66
ridge	66
usse	66
xual	66
ying	66
{	66
ý	66
▁109	66
▁193	66
▁1988	66
▁Alm	66
▁Cars	66
▁Cont	66
▁Drug	66
▁Dutch	66
▁EL	66
▁Fact	66
▁Fer	66
▁Gate	66
▁Oxford	66
▁Pit	66
▁Portug	66
▁Progress	66
▁SG	66
▁Speaker	66
▁Stretch	66
▁TB	66
▁WH	66
▁cyl	66
▁definition	66
▁elect	66
▁hop	66
▁lib	66
▁profiles	66
▁school	66
▁syn	66
北	66
DG	65
GN	65
La	65
building	65
dis	65
ently	65
oor	65
rank	65
rator	65
rical	65
see	65
ق	65
▁-3	65
▁117	65
▁126	65
▁178	65
▁215	65
▁APP	65
▁Bre	65
▁Bulgaria	65
▁Create	65
▁Creative	65
▁Florence	65
▁GASKI	65
▁Gem	65
▁Haiti	65
▁Interview	65
▁Jackson	65
▁SN	65
▁Sri	65
▁Target	65
▁Ukra	65
▁WTO	65
▁company	65
▁cra	65
▁hydrogen	65
▁label	65
▁map	65
▁marine	65
▁phys	65
▁yellow	65
.4	64
750	64
ICE	64
ITS	64
Te	64
WE	64
ales	64
aling	64
anners	64
awus	64
craft	64
cular	64
europe	64
hard	64
illion	64
isl	64
iveness	64
mann	64
ohn	64
ologists	64
rous	64
venue	64
wing	64
ان	64
▁10-	64
▁BO	64
▁Columbia	64
▁Eff	64
▁Grow	64
▁LE	64
▁Making	64
▁March	64
▁Marm	64
▁Mit	64
▁Mont	64
▁NAF	64
▁NL	64
▁Nad	64
▁SAP	64
▁Swedish	64
▁This	64
▁Via	64
▁amaz	64
▁archives	64
▁artist	64
▁bunk	64
▁dra	64
▁fitness	64
▁many	64
▁phone	64
▁reply	64
▁span	64
▁theme	64
▁ve	64
市	64
店	64
-2012	63
199	63
Isa	63
KS	63
ORE	63
Tur	63
ably	63
anger	63
aware	63
bat	63
down	63
ension	63
ental	63
fter	63
ision	63
itting	63
kaw	63
lla	63
raying	63
sten	63
vy	63
▁Alexand	63
▁Boeing	63
▁Child	63
▁DIS	63
▁DO	63
▁Eastern	63
▁Firm	63
▁GE	63
▁ISIS	63
▁Kenn	63
▁Lanka	63
▁Letter	63
▁Press	63
▁Ric	63
▁Ryan	63
▁Wild	63
▁aro	63
▁comm	63
▁credits	63
▁handling	63
▁mel	63
▁pick	63
▁prot	63
▁sec	63
▁spr	63
32.	62
ADO	62
ENG	62
ICK	62
IFE	62
PER	62
PH	62
],	62
actory	62
enter	62
erate	62
gro	62
houses	62
lets	62
nings	62
otion	62
razy	62
reb	62
reen	62
urna	62
uter	62
är	62
г	62
▁124	62
▁Champions	62
▁DE	62
▁Dear	62
▁General	62
▁Jur	62
▁MAC	62
▁November	62
▁Philip	62
▁Print	62
▁Retail	62
▁SUP	62
▁Sec	62
▁Shang	62
▁Stand	62
▁Volume	62
▁featured	62
▁implant	62
▁pip	62
▁press	62
▁transg	62
▁used	62
▁withdrawals	62
000)	61
MW	61
ament	61
arium	61
bound	61
fashi	61
fast	61
flow	61
gel	61
gers	61
itation	61
kta	61
law	61
lying	61
oney	61
oqu	61
room	61
ues	61
undi	61
user	61
uwancin	61
year	61
§	61
▁-1	61
▁Accessories	61
▁Birth	61
▁Comment	61
▁Emirates	61
▁Fel	61
▁HO	61
▁Info	61
▁Install	61
▁Montreal	61
▁Nobel	61
▁OP	61
▁Phase	61
▁Slovenia	61
▁Stream	61
▁Swa	61
▁Tantance	61
▁Tru	61
▁Worldwide	61
▁XXX	61
▁cast	61
▁fix	61
▁gig	61
▁jo	61
▁official	61
▁sell	61
▁tool	61
▁wr	61
...)	60
410	60
7/	60
IRA	60
anim	60
apan	60
attle	60
bes	60
commerce	60
dra	60
ended	60
gor	60
ited	60
mad	60
most	60
neum	60
olution	60
onal	60
ouch	60
ried	60
site	60
uality	60
ylon	60
Ā	60
ام	60
▁(+	60
▁1987	60
▁2009.	60
▁Awards	60
▁Ayat	60
▁Bos	60
▁Christopher	60
▁Danish	60
▁Desk	60
▁Frankfurt	60
▁GDP	60
▁Greek	60
▁Joy	60
▁Libya	60
▁Prague	60
▁Ref	60
▁Rod	60
▁Tele	60
▁Title	60
▁Tren	60
▁Very	60
▁Vi	60
▁Ze	60
▁arts	60
▁break	60
▁buff	60
▁details	60
▁etc	60
▁ev	60
▁friends	60
▁greenhouse	60
▁location	60
▁love	60
▁nic	60
▁pet	60
▁reference	60
▁shr	60
▁week	60
▁what	60
ERE	59
VER	59
action	59
asinos	59
aven	59
ends	59
gradu	59
ller	59
non	59
organ	59
pes	59
power	59
ract	59
requ	59
sky	59
stones	59
tte	59
tw	59
ubb	59
ugh	59
uron	59
usta	59
▁-5	59
▁155	59
▁2%	59
▁2001,	59
▁Aust	59
▁Century	59
▁Changes	59
▁Double	59
▁Fried	59
▁ITS	59
▁Korean	59
▁MO	59
▁Mali	59
▁Mom	59
▁Qual	59
▁SAF	59
▁UM	59
▁cross	59
▁electromagnetic	59
▁little	59
▁mine	59
⭐	59
But	58
NR	58
aly	58
arus	58
ced	58
efficient	58
eni	58
iev	58
ious	58
ively	58
oster	58
oung	58
teries	58
thern	58
у	58
ו	58
▁189	58
▁1979	58
▁1986	58
▁2007.	58
▁2010.	58
▁99%	58
▁Beauty	58
▁Beth	58
▁Call	58
▁Creation	58
▁Franco	58
▁Grant	58
▁Hearing	58
▁Hyper	58
▁IRA	58
▁Iraq	58
▁Ivan	58
▁Kashmir	58
▁Luxembourg	58
▁Malawi	58
▁Olympic	58
▁Prop	58
▁Qatar	58
▁Resources	58
▁Rich	58
▁Rio	58
▁Sav	58
▁Senegal	58
▁Skin	58
▁Staff	58
▁Taylor	58
▁WW	58
▁affili	58
▁capping	58
▁cs	58
▁pat	58
▁sentences	58
▁shug	58
▁ult	58
▁use	58
△	58
4-0	57
5.0	57
Ag	57
acco	57
agan	57
cience	57
cil	57
enge	57
obby	57
piece	57
rea	57
safe	57
unning	57
width	57
▁1968	57
▁Commercial	57
▁Generation	57
▁Gom	57
▁Image	57
▁Imm	57
▁Labor	57
▁Len	57
▁Madagascar	57
▁Protest	57
▁Sark	57
▁Serge	57
▁Serv	57
▁Thai	57
▁[2]	57
▁ask	57
▁ax	57
▁eth	57
▁impe	57
▁ken	57
▁keway	57
▁poker	57
▁power	57
▁rec	57
▁risk	57
▁scene	57
▁toys	57
▁viol	57
ENT	56
New	56
Press	56
STA	56
arity	56
asia	56
electric	56
elle	56
ety	56
foot	56
ilt	56
imes	56
level	56
mala	56
mod	56
month	56
ners	56
news	56
oty	56
ples	56
pot	56
rage	56
̄	56
▁-2	56
▁200,000	56
▁3.2	56
▁460	56
▁Age	56
▁Chamber	56
▁Charl	56
▁Chile	56
▁Der	56
▁Director	56
▁Earth	56
▁Export	56
▁Find	56
▁Frequ	56
▁Front	56
▁Gall	56
▁Gran	56
▁Hitler	56
▁Ide	56
▁Inn	56
▁Kiev	56
▁Perfect	56
▁Pod	56
▁Pres	56
▁Schools	56
▁Script	56
▁Transport	56
▁bann	56
▁bow	56
▁district	56
▁fire	56
▁firm	56
▁forums	56
▁fut	56
▁hit	56
▁ho	56
▁keys	56
▁long	56
▁mant	56
▁monitoring	56
▁patent	56
▁results	56
▁single	56
▁skills	56
!”	55
')	55
AGA	55
AIR	55
HR	55
ONG	55
SW	55
acher	55
alia	55
asting	55
ever	55
gn	55
iological	55
ocks	55
ogenic	55
ollar	55
opol	55
pay	55
station	55
ufact	55
ulg	55
ك	55
▁12-	55
▁2002,	55
▁226	55
▁Ade	55
▁Adv	55
▁Country	55
▁Cyprus	55
▁Educ	55
▁Estonia	55
▁Et	55
▁Field	55
▁Fuel	55
▁GRO	55
▁Hil	55
▁January	55
▁Jew	55
▁Kings	55
▁Leon	55
▁Lew	55
▁Matthew	55
▁POS	55
▁Pi	55
▁Republic	55
▁Rule	55
▁Sen	55
▁Transfer	55
▁Trib	55
▁UNESCO	55
▁Venezuela	55
▁arm	55
▁best	55
▁clubs	55
▁feat	55
▁girls	55
▁mol	55
▁pul	55
▁sugar	55
(4)	54
-2015	54
2.2	54
Af	54
Min	54
OND	54
abric	54
aks	54
ardo	54
body	54
bro	54
cia	54
cue	54
enh	54
imal	54
imp	54
index	54
otes	54
oys	54
uer	54
umber	54
umiyar	54
▁(*	54
▁0%	54
▁0.8	54
▁2.3	54
▁Answers	54
▁Architect	54
▁Bru	54
▁DB	54
▁ET	54
▁Emb	54
▁Enc	54
▁Holy	54
▁IX	54
▁Ned	54
▁Record	54
▁Sher	54
▁Side	54
▁Simpl	54
▁Under	54
▁cert	54
▁city	54
▁copy	54
▁dance	54
▁fre	54
▁haz	54
▁hom	54
▁hum	54
▁international	54
▁multilingual	54
▁pharmac	54
▁pin	54
▁pref	54
ー	54
GM	53
OST	53
amaiman	53
aries	53
eur	53
found	53
icle	53
icro	53
ijital	53
iled	53
imat	53
oday	53
onom	53
orus	53
osp	53
rock	53
ronics	53
sion	53
sized	53
stream	53
ulating	53
uzz	53
î	53
ʼ	53
з	53
▁-4	53
▁1999,	53
▁35%	53
▁Aff	53
▁Awa	53
▁Canc	53
▁Capacity	53
▁Cities	53
▁Common	53
▁Congo	53
▁Cru	53
▁Experience	53
▁Final	53
▁GL	53
▁Gates	53
▁Gra	53
▁Hen	53
▁Impact	53
▁Import	53
▁Kou	53
▁Pant	53
▁Po	53
▁Ster	53
▁Tow	53
▁acc	53
▁bamban	53
▁ceram	53
▁corridor	53
▁her	53
▁quotes	53
▁security	53
▁semester	53
▁translators	53
▁window	53
";	52
GF	52
Or	52
TB	52
acter	52
akamata	52
anch	52
atab	52
catch	52
cks	52
class	52
elli	52
ercial	52
fully	52
ilder	52
illes	52
isted	52
mot	52
ogn	52
ograph	52
olas	52
oses	52
oub	52
part	52
uis	52
urities	52
very	52
χ	52
▁(0.	52
▁39.	52
▁Advisor	52
▁Carol	52
▁Corn	52
▁Currency	52
▁Div	52
▁Division	52
▁Guinea	52
▁Gulf	52
▁Hun	52
▁Kl	52
▁Need	52
▁Okt	52
▁Send	52
▁Sharia	52
▁Southern	52
▁Tax	52
▁Thanks	52
▁Uganda	52
▁Uk	52
▁analy	52
▁bio	52
▁dif	52
▁diplomas	52
▁division	52
▁fake	52
▁festival	52
▁ful	52
▁gall	52
▁integr	52
▁league	52
▁lung	52
▁machine	52
▁matches	52
▁segments	52
▁sigin	52
▁smoothly	52
▁sweet	52
▁they	52
▁vit	52
▁É	52
▁ف	52
(2)	51
-2013	51
.7	51
adel	51
aged	51
agles	51
ases	51
ei	51
gas	51
gent	51
inity	51
itrus	51
new	51
oyle	51
pre	51
rer	51
ross	51
working	51
ör	51
ă	51
М	51
Р	51
С	51
’.	51
▁137	51
▁1984	51
▁3%	51
▁Antonio	51
▁Armen	51
▁Chancellor	51
▁Char	51
▁Consult	51
▁ED	51
▁Ebola	51
▁Foot	51
▁Gö	51
▁Hospital	51
▁Kraft	51
▁Lamp	51
▁Maid	51
▁McC	51
▁Official	51
▁Sn	51
▁Tob	51
▁Univers	51
▁Wine	51
▁boy	51
▁cash	51
▁comb	51
▁cook	51
▁depart	51
▁holidays	51
▁how	51
▁light	51
▁pharmaceutical	51
▁solutions	51
▁tile	51
▁twin	51
/22	50
allow	50
asive	50
div	50
elt	50
emia	50
etooth	50
huriyar	50
iane	50
ieve	50
ije	50
inariya	50
ishes	50
mber	50
oa	50
oxide	50
plus	50
shop	50
▁$10	50
▁$2	50
▁1985	50
▁32.	50
▁Asht	50
▁BY	50
▁Bangladesh	50
▁Bern	50
▁Complete	50
▁December	50
▁Diam	50
▁Eng	50
▁Fem	50
▁Initiative	50
▁Interior	50
▁Nice	50
▁Pel	50
▁Portal	50
▁SEC	50
▁Tant	50
▁Trade	50
▁VAT	50
▁Yahu	50
▁artists	50
▁class	50
▁delivery	50
▁description	50
▁ent	50
▁facts	50
▁hol	50
▁old	50
▁opt	50
▁pel	50
▁place	50
▁read	50
▁rock	50
▁some	50
▁transl	50
▁updated	50
▁yen	50
▁zu	50
▁ق	50
1.3	49
BE	49
INK	49
ION	49
Le	49
Str	49
ahl	49
ails	49
arsh	49
ault	49
cif	49
endly	49
home	49
ided	49
ikh	49
lling	49
obal	49
otton	49
ously	49
owered	49
py	49
sets	49
tering	49
zhe	49
▁299	49
▁3.1	49
▁34.	49
▁AND	49
▁Analy	49
▁Animal	49
▁Bolivia	49
▁Edinburgh	49
▁Flex	49
▁GAS	49
▁Ho	49
▁Jane	49
▁Joh	49
▁Loss	49
▁Marie	49
▁Messenger	49
▁Only	49
▁Pier	49
▁Prime	49
▁Siemens	49
▁Telecom	49
▁Wars	49
▁Watchtower	49
▁Working	49
▁anim	49
▁base	49
▁cann	49
▁color	49
▁cond	49
▁cro	49
▁crushing	49
▁cycl	49
▁gro	49
▁here	49
▁if	49
▁inn	49
▁law	49
▁need	49
▁plan	49
▁quad	49
▁spots	49
▁stabil	49
▁unc	49
.500	48
13.	48
2/	48
ECH	48
acing	48
ased	48
cient	48
ection	48
hips	48
icles	48
iest	48
imum	48
iqu	48
long	48
otal	48
pez	48
quality	48
right	48
sid	48
stra	48
usp	48
ɛ	48
’,	48
▁Body	48
▁Democratic	48
▁Ecuador	48
▁Enter	48
▁FOR	48
▁Finance	48
▁Force	48
▁Ford	48
▁Kind	48
▁Legal	48
▁Memorial	48
▁Organization	48
▁Ott	48
▁Rol	48
▁Self	48
▁Small	48
▁Wales	48
▁Women	48
▁Zamb	48
▁bot	48
▁cap	48
▁consistently	48
▁documents	48
▁dress	48
▁kn	48
▁mem	48
▁naú	48
▁ris	48
▁sakam	48
▁sat	48
▁station	48
▁sy	48
▁talented	48
▁text	48
本	48
	48
-2000	47
3/	47
abad	47
athy	47
build	47
cha	47
ders	47
eling	47
etra	47
fare	47
icing	47
iform	47
ilia	47
ilit	47
inde	47
itors	47
media	47
ooth	47
ough	47
stadt	47
td	47
ushing	47
ysis	47
ï	47
▁370	47
▁Ach	47
▁Authority	47
▁Aviation	47
▁Cape	47
▁Clean	47
▁Cre	47
▁Dipl	47
▁Dut	47
▁Fig	47
▁Fox	47
▁Hist	47
▁Jud	47
▁Liber	47
▁Made	47
▁Most	47
▁Peoples	47
▁Prov	47
▁Rat	47
▁Second	47
▁Upd	47
▁Vis	47
▁Voice	47
▁aqu	47
▁backl	47
▁clamp	47
▁column	47
▁crypt	47
▁der	47
▁domains	47
▁edit	47
▁fits	47
▁gallery	47
▁lag	47
▁maps	47
▁mix	47
▁rar	47
▁trends	47
▁und	47
▁which	47
台	47
396	46
6/	46
By	46
ELL	46
He	46
actor	46
agor	46
burgh	46
cess	46
eness	46
fish	46
gic	46
iate	46
inen	46
izations	46
lation	46
lay	46
len	46
lights	46
like	46
map	46
oric	46
orth	46
pdf	46
rane	46
rated	46
reme	46
under	46
π	46
э	46
═	46
▁(“	46
▁1996,	46
▁AU	46
▁Airbus	46
▁Author	46
▁Bund	46
▁CES	46
▁Carn	46
▁Costa	46
▁Enterprise	46
▁Hamburg	46
▁Islamic	46
▁Lower	46
▁Mald	46
▁Margaret	46
▁Members	46
▁Nepal	46
▁PRIN	46
▁Pad	46
▁Pun	46
▁Qur	46
▁Rapid	46
▁Rate	46
▁Roger	46
▁Serbia	46
▁Tanzania	46
▁craft	46
▁cyc	46
▁duration	46
▁fly	46
▁hoc	46
▁iron	46
▁pages	46
▁pan	46
▁ple	46
▁pot	46
▁prof	46
▁quart	46
▁rev	46
▁ski	46
▁subst	46
▁vib	46
▁ش	46
▼	46
").	45
3).	45
355	45
At	45
Eng	45
IAN	45
India	45
Se	45
VE	45
You	45
aints	45
atable	45
conn	45
ctions	45
falls	45
gorith	45
icy	45
inian	45
lig	45
oca	45
ocr	45
ogue	45
opt	45
ovo	45
pton	45
range	45
ía	45
д	45
ک	45
▁12%	45
▁169	45
▁1957	45
▁45.	45
▁55%	45
▁Afr	45
▁Bucharest	45
▁Dell	45
▁Ever	45
▁Faso	45
▁Hope	45
▁Korint	45
▁Medium	45
▁Nich	45
▁Northern	45
▁Pers	45
▁Rober	45
▁September	45
▁TSAR	45
▁Talk	45
▁Tony	45
▁User	45
▁Victor	45
▁body	45
▁brush	45
▁buck	45
▁den	45
▁disciplines	45
▁duplic	45
▁mid	45
▁now	45
▁other	45
▁project	45
▁py	45
▁tala	45
▁util	45
▁van	45
書	45
DI	44
TON	44
WORK	44
World	44
andom	44
ateg	44
brid	44
data	44
earch	44
fault	44
ises	44
isp	44
mical	44
ographs	44
ols	44
onel	44
uded	44
uminum	44
vern	44
yp	44
ão	44
ér	44
ē	44
О	44
п	44
انی	44
ṭ	44
▁$100	44
▁0.4	44
▁2003.	44
▁235	44
▁45%	44
▁Alham	44
▁Asian	44
▁Bene	44
▁Berg	44
▁Conference	44
▁Five	44
▁Fra	44
▁Gibraltar	44
▁Hamb	44
▁Ign	44
▁Jose	44
▁Mob	44
▁Nature	44
▁Notes	44
▁Output	44
▁Program	44
▁Rights	44
▁Vel	44
▁also	44
▁area	44
▁disin	44
▁diss	44
▁fatal	44
▁gen	44
▁lists	44
▁mass	44
▁material	44
▁minim	44
▁movies	44
▁only	44
▁port	44
▁portal	44
▁sem	44
▁shows	44
▁stuff	44
▁track	44
□	44
」	44
中	44
.).	43
How	43
TERN	43
UKI	43
atson	43
cons	43
etics	43
gery	43
ibe	43
iction	43
iding	43
ijah	43
kes	43
name	43
obil	43
ocation	43
ogical	43
ollow	43
omen	43
oven	43
phic	43
quare	43
reet	43
rine	43
sted	43
tered	43
ved	43
än	43
ë	43
Ă	43
ł	43
в	43
ь	43
ص	43
▁0.9	43
▁1.7	43
▁2.6	43
▁2004.	43
▁3.3	43
▁Average	43
▁Barb	43
▁Dou	43
▁Ess	43
▁Fis	43
▁LT	43
▁Mong	43
▁Organ	43
▁PO	43
▁Peru	43
▁Prices	43
▁Rac	43
▁Rep	43
▁Sit	43
▁Stockholm	43
▁Studies	43
▁Success	43
▁Tunnel	43
▁deals	43
▁external	43
▁haruff	43
▁hormones	43
▁life	43
▁method	43
▁null	43
▁people	43
▁rein	43
▁special	43
「	43
💖	43
🙂	43
ISS	42
access	42
anensa	42
ares	42
ccess	42
earing	42
ifts	42
ikes	42
iversity	42
laud	42
olia	42
orf	42
osen	42
otten	42
pack	42
paper	42
phas	42
uhari	42
unctional	42
works	42
zhen	42
æ	42
ρ	42
√	42
▁$3	42
▁149	42
▁152	42
▁Army	42
▁Bush	42
▁Cab	42
▁Cas	42
▁Cass	42
▁Coll	42
▁Croatia	42
▁Ec	42
▁Hav	42
▁Koran	42
▁Lind	42
▁Menu	42
▁ND	42
▁October	42
▁Peace	42
▁Sey	42
▁Silver	42
▁Slovakia	42
▁Spin	42
▁Statistics	42
▁classified	42
▁exc	42
▁fairly	42
▁feet	42
▁first	42
▁fold	42
▁hist	42
▁instrument	42
▁littattaf	42
▁months	42
▁multifunctional	42
▁phrases	42
▁retail	42
▁robust	42
▁si	42
▁tot	42
▁websites	42
山	42
ATIONAL	41
III	41
ammer	41
ancing	41
anet	41
cou	41
duc	41
earl	41
eless	41
ential	41
ifies	41
iving	41
olph	41
orate	41
ppers	41
roc	41
rown	41
utai	41
ě	41
œ	41
ř	41
▁2006.	41
▁Ax	41
▁Bulk	41
▁Burkina	41
▁Chief	41
▁England	41
▁Ern	41
▁Future	41
▁GN	41
▁Georg	41
▁Gos	41
▁Kirsim	41
▁Leave	41
▁Milk	41
▁Morocco	41
▁Mountains	41
▁Nap	41
▁Pir	41
▁Republican	41
▁Seoul	41
▁Taj	41
▁Tehran	41
▁Things	41
▁Visit	41
▁Zap	41
▁alhẽ	41
▁bell	41
▁decoraiton	41
▁diff	41
▁direction	41
▁fair	41
▁favor	41
▁smooth	41
▁thick	41
▁world	41
▁year	41
▁Š	41
5%	40
ATO	40
Comm	40
EK	40
ENA	40
MER	40
Uk	40
With	40
acking	40
aco	40
astro	40
atra	40
bre	40
des	40
dum	40
endar	40
fire	40
helm	40
hus	40
iop	40
ised	40
lines	40
nov	40
ogan	40
oration	40
quir	40
rac	40
rand	40
rect	40
term	40
vest	40
water	40
ì	40
Ə	40
دی	40
▁1.9	40
▁1998,	40
▁36.	40
▁4.6	40
▁Alliance	40
▁Belarus	40
▁Books	40
▁Catholic	40
▁Currently	40
▁Fabra	40
▁Flood	40
▁Gor	40
▁HY	40
▁Hold	40
▁Holid	40
▁Horizon	40
▁MED	40
▁Markets	40
▁Neil	40
▁Polo	40
▁Qing	40
▁Regional	40
▁Roc	40
▁Salvador	40
▁Shell	40
▁Sof	40
▁Walter	40
▁Wolf	40
▁bed	40
▁biomass	40
▁caps	40
▁count	40
▁dark	40
▁function	40
▁implants	40
▁install	40
▁its	40
▁make	40
▁mer	40
▁meth	40
▁others	40
▁paper	40
▁popular	40
▁products	40
▁redu	40
▁refriger	40
▁rubber	40
▁supplier	40
▁tax	40
▁tri	40
▁xx	40
語	40
=5.	39
ANNAN	39
BET	39
Car	39
DT	39
ENS	39
INS	39
PN	39
Pa	39
Page	39
Rom	39
adow	39
arest	39
asp	39
atis	39
band	39
deb	39
eken	39
elsh	39
ext	39
gram	39
hing	39
ibashi	39
ifiers	39
ipt	39
istry	39
itle	39
kom	39
onav	39
ource	39
rahim	39
round	39
sales	39
state	39
ulates	39
umn	39
vafen	39
vant	39
|	39
я	39
▁('	39
▁1973	39
▁Anton	39
▁Ari	39
▁Cancer	39
▁Ced	39
▁Chall	39
▁Commission	39
▁DRC	39
▁Equ	39
▁Galvanized	39
▁Gram	39
▁Liu	39
▁Ning	39
▁Round	39
▁Sing	39
▁Sunday	39
▁Venice	39
▁awards	39
▁blank	39
▁brows	39
▁element	39
▁fore	39
▁green	39
▁kamfan	39
▁kill	39
▁les	39
▁pal	39
▁program	39
▁status	39
▁vi	39
▁want	39
▁wear	39
▁Å	39
♦	39
2010	38
ATION	38
KET	38
News	38
agin	38
ambers	38
ashing	38
case	38
ects	38
fect	38
hood	38
icken	38
ikihu	38
illed	38
imer	38
jur	38
rier	38
roduct	38
ront	38
ship	38
tenance	38
udes	38
ystal	38
Σ	38
▁1).	38
▁295	38
▁4.2	38
▁Assurance	38
▁Colombia	38
▁Def	38
▁Food	38
▁Friday	38
▁Galat	38
▁Harm	38
▁Irish	38
▁Lang	38
▁Links	38
▁Palm	38
▁Questions	38
▁Rand	38
▁Related	38
▁Solomon	38
▁Steps	38
▁Traditional	38
▁UR	38
▁cho	38
▁cont	38
▁directory	38
▁drinks	38
▁exp	38
▁fill	38
▁hous	38
▁inform	38
▁questions	38
▁stat	38
▁tap	38
▁traffic	38
▁train	38
5.6	37
BL	37
EY	37
Pal	37
TD	37
cur	37
erglass	37
esome	37
fam	37
fection	37
gest	37
ination	37
indu	37
iven	37
kok	37
nia	37
olding	37
ostic	37
otypes	37
oves	37
owi	37
plo	37
print	37
rence	37
rez	37
sub	37
such	37
tax	37
ulations	37
umps	37
with	37
û	37
К	37
‬	37
−	37
▁2003,	37
▁3.6	37
▁33.	37
▁Abs	37
▁Ace	37
▁Americas	37
▁BEN	37
▁Edu	37
▁Enjoy	37
▁Geneva	37
▁Guant	37
▁Hezekiah	37
▁José	37
▁Juan	37
▁Lithuania	37
▁Mario	37
▁Mol	37
▁Mund	37
▁Tari	37
▁Tunisia	37
▁Uzbekistan	37
▁[3]	37
▁arch	37
▁celeb	37
▁circ	37
▁clean	37
▁dead	37
▁die	37
▁disp	37
▁distance	37
▁fant	37
▁found	37
▁interact	37
▁land	37
▁med	37
▁oper	37
▁patents	37
▁reg	37
▁sales	37
▁script	37
▁tact	37
▁telem	37
▁them	37
▁tim	37
▁timeframe	37
▁vent	37
▁waterproof	37
▁who	37
▁{{	37
文	37
''	36
/40	36
1.6	36
FOR	36
IGHT	36
Ltd	36
OLD	36
________	36
aced	36
agora	36
anal	36
asses	36
atom	36
black	36
cury	36
elling	36
fort	36
hest	36
ibia	36
ican	36
inge	36
irst	36
itte	36
lean	36
ocolate	36
osing	36
real	36
respon	36
rium	36
rust	36
rying	36
spot	36
stan	36
uation	36
ugg	36
ugs	36
unes	36
urdy	36
án	36
és	36
ũb	36
τ	36
▁1992,	36
▁2000.	36
▁2001.	36
▁44.	36
▁50%.	36
▁85%	36
▁ACC	36
▁Accounting	36
▁Ath	36
▁Baltic	36
▁Burg	36
▁Change	36
▁DG	36
▁Dir	36
▁Fish	36
▁Fishing	36
▁Hair	36
▁Intelligence	36
▁Isaac	36
▁Justice	36
▁Kazakhstan	36
▁Lud	36
▁Many	36
▁Marshall	36
▁Mog	36
▁POL	36
▁Publ	36
▁Queen	36
▁Rap	36
▁Shel	36
▁Sok	36
▁Stat	36
▁context	36
▁cub	36
▁dating	36
▁destinations	36
▁diam	36
▁flagship	36
▁human	36
▁listen	36
▁network	36
▁office	36
▁phen	36
▁pit	36
▁uns	36
▁ut	36
▁vis	36
▁wins	36
░	36
▓	36
💋	36
2.4	35
CDD	35
DO	35
OME	35
alg	35
angle	35
arks	35
elson	35
encer	35
igital	35
inations	35
ipped	35
limited	35
lusive	35
main	35
matic	35
offs	35
onts	35
oofer	35
othing	35
pi	35
quin	35
rior	35
rome	35
shiry	35
sider	35
ubs	35
umba	35
urch	35
Ĩ	35
β	35
σ	35
ọ	35
▁297	35
▁3.4	35
▁4.3	35
▁Apost	35
▁Bond	35
▁Budget	35
▁COR	35
▁Cong	35
▁GSM	35
▁Gaz	35
▁Lisbon	35
▁Lyn	35
▁Magn	35
▁Major	35
▁Marin	35
▁Medic	35
▁NATO	35
▁President	35
▁Resolution	35
▁Scottish	35
▁Sex	35
▁Techn	35
▁big	35
▁controller	35
▁cop	35
▁cosm	35
▁directed	35
▁org	35
▁players	35
▁pred	35
▁radio	35
▁straw	35
▁than	35
▁their	35
▁two	35
398	34
5-0	34
6.1	34
INO	34
LIN	34
No	34
alisar	34
arming	34
asma	34
aves	34
cap	34
ded	34
enda	34
entral	34
eting	34
gang	34
gener	34
iation	34
ifying	34
inging	34
ithium	34
itives	34
jera	34
other	34
reak	34
stick	34
ulsion	34
uted	34
vol	34
wear	34
Ô	34
ś	34
ί	34
П	34
ן	34
ز	34
▁$4	34
▁7%	34
▁Alp	34
▁Angela	34
▁Bonn	34
▁CFP	34
▁Champ	34
▁Coal	34
▁Cologne	34
▁Cond	34
▁Court	34
▁Ethiopian	34
▁Fund	34
▁Guard	34
▁Method	34
▁Overview	34
▁Pictures	34
▁Prot	34
▁Quant	34
▁Sharon	34
▁Vall	34
▁Washing	34
▁act	34
▁cas	34
▁character	34
▁crus	34
▁dep	34
▁fahar	34
▁filters	34
▁finance	34
▁geo	34
▁hem	34
▁heter	34
▁hits	34
▁kanan	34
▁kids	34
▁nice	34
▁squ	34
▁telephony	34
▁tsamman	34
▁var	34
▁warm	34
▁zones	34
リ	34
AE	33
English	33
IDE	33
If	33
There	33
bene	33
enburg	33
evo	33
ferences	33
formed	33
ground	33
group	33
hand	33
help	33
ingle	33
isions	33
lings	33
nic	33
omatic	33
onald	33
orp	33
prof	33
prot	33
stanbul	33
try	33
wig	33
ṇ	33
”)	33
▁1967	33
▁1989,	33
▁2005.	33
▁ANN	33
▁Around	33
▁Atlantic	33
▁Barbara	33
▁Columb	33
▁Did	33
▁Early	33
▁Event	33
▁External	33
▁FRAME	33
▁Faith	33
▁Fore	33
▁Franz	33
▁Heart	33
▁Irina	33
▁Ll	33
▁Madam	33
▁Mann	33
▁Member	33
▁Paper	33
▁Patent	33
▁Pierre	33
▁Pract	33
▁QU	33
▁Restaurant	33
▁Rica	33
▁Sams	33
▁Satellite	33
▁Schn	33
▁Urban	33
▁Vac	33
▁Ve	33
▁Vo	33
▁accum	33
▁audi	33
▁boys	33
▁conf	33
▁cum	33
▁ec	33
▁error	33
▁fed	33
▁flat	33
▁good	33
▁inquiries	33
▁lifes	33
▁peculiar	33
▁prev	33
▁rich	33
▁rigid	33
▁stop	33
▁tone	33
▁tram	33
▁transm	33
体	33
!'	32
.),	32
2).	32
ARY	32
Gl	32
Islam	32
active	32
aging	32
alth	32
aste	32
big	32
dec	32
emen	32
iel	32
ients	32
imbini	32
inese	32
irts	32
ived	32
market	32
orne	32
plan	32
raham	32
sche	32
tage	32
til	32
uble	32
wise	32
zone	32
Ð	32
ø	32
‪	32
▁Administ	32
▁Andr	32
▁Break	32
▁Broad	32
▁COM	32
▁Content	32
▁Eth	32
▁Extension	32
▁Follow	32
▁Fruit	32
▁HE	32
▁Jesus	32
▁Maur	32
▁Melan	32
▁Meth	32
▁NET	32
▁OFF	32
▁Pil	32
▁Planning	32
▁Pos	32
▁See	32
▁Structure	32
▁TAC	32
▁There	32
▁Today	32
▁Vas	32
▁bol	32
▁bom	32
▁concent	32
▁construct	32
▁know	32
▁lor	32
▁parking	32
▁pictures	32
▁pla	32
▁plung	32
▁resources	32
▁screens	32
▁select	32
▁standard	32
▁street	32
▁suc	32
▁virus	32
▁walk	32
▁zah	32
👩	32
)]	31
/95	31
ABLE	31
BER	31
Catal	31
EMS	31
EUR	31
OOD	31
Ps	31
What	31
acity	31
ein	31
enses	31
fold	31
from	31
fulness	31
green	31
ilashin	31
itable	31
itate	31
itude	31
jana	31
lass	31
mental	31
mission	31
oler	31
olika	31
omed	31
oping	31
orge	31
oum	31
outh	31
overs	31
pped	31
ressing	31
ronic	31
rote	31
saibashi	31
ulous	31
ustom	31
ution	31
velop	31
vet	31
yster	31
ò	31
ün	31
ć	31
•	31
⇩	31
▁$5	31
▁2030	31
▁3.7	31
▁48.	31
▁Airlines	31
▁Athens	31
▁Bernard	31
▁Children	31
▁Clinton	31
▁Close	31
▁Communications	31
▁DI	31
▁Diagn	31
▁Directorate	31
▁EPS	31
▁Exc	31
▁Fern	31
▁Friends	31
▁German	31
▁Iraqi	31
▁Kuwait	31
▁MIL	31
▁Marg	31
▁Marse	31
▁Overall	31
▁Past	31
▁Pom	31
▁Ps	31
▁Reserve	31
▁Rome	31
▁Sic	31
▁Spa	31
▁UC	31
▁Who	31
▁YORK	31
▁bone	31
▁broadband	31
▁catal	31
▁databases	31
▁gunag	31
▁house	31
▁infl	31
▁navigation	31
▁nin	31
▁optim	31
▁pres	31
▁service	31
▁state	31
▁synchron	31
▁target	31
▁vac	31
▁vari	31
▁wood	31
ル	31
尼	31
简	31
이	31
"),	30
/2008	30
May	30
ROM	30
about	30
aded	30
agers	30
agnetic	30
almon	30
drop	30
ege	30
ellow	30
entlem	30
ergy	30
essional	30
force	30
frame	30
hold	30
lad	30
limin	30
lud	30
olan	30
pace	30
phones	30
pool	30
raine	30
spe	30
take	30
through	30
tics	30
ttp	30
ulate	30
ḍ	30
╰	30
▁65%	30
▁African	30
▁Bologna	30
▁Boris	30
▁Bou	30
▁Brother	30
▁Check	30
▁Crimea	30
▁Date	30
▁Hom	30
▁Iceland	30
▁Inde	30
▁Indonesian	30
▁Lucia	30
▁Mahm	30
▁Mold	30
▁Moz	30
▁Naples	30
▁Nuw	30
▁PAR	30
▁Package	30
▁Panama	30
▁Rena	30
▁Restaur	30
▁Seattle	30
▁Status	30
▁Sud	30
▁Trip	30
▁Vil	30
▁center	30
▁charter	30
▁cru	30
▁default	30
▁gear	30
▁horm	30
▁mechan	30
▁om	30
▁patch	30
▁path	30
▁resilient	30
▁scores	30
▁spe	30
▁suf	30
▁there	30
▁ultra	30
▁when	30
▁wra	30
〜	30
亚	30
利	30
認	30
	30
-2010	29
........	29
1/	29
ACT	29
Ac	29
Health	29
IAL	29
IER	29
IUS	29
Tr	29
UU	29
akers	29
anguage	29
ariah	29
ately	29
bers	29
elf	29
esis	29
ethe	29
iance	29
inf	29
inton	29
ional	29
jejen	29
ondon	29
oros	29
orous	29
oslav	29
ourcing	29
owski	29
process	29
rial	29
tery	29
tion	29
uting	29
worth	29
yal	29
إ	29
حک	29
▁37.	29
▁Austr	29
▁BP	29
▁Bali	29
▁Banking	29
▁Bod	29
▁CAR	29
▁Carm	29
▁Dennis	29
▁Dest	29
▁Economics	29
▁Gordon	29
▁Guatemala	29
▁Helsinki	29
▁IND	29
▁June	29
▁McK	29
▁Mec	29
▁Monica	29
▁Myanmar	29
▁Nep	29
▁Own	29
▁Perm	29
▁Pool	29
▁Region	29
▁Sahara	29
▁Senior	29
▁Sierra	29
▁Strasbourg	29
▁True	29
▁Yel	29
▁bathroom	29
▁beach	29
▁camp	29
▁cars	29
▁chart	29
▁creat	29
▁cubic	29
▁disk	29
▁epid	29
▁gamb	29
▁grand	29
▁haik	29
▁intra	29
▁kwamfut	29
▁laun	29
▁market	29
▁resist	29
▁sarra	29
▁seam	29
▁side	29
▁solemn	29
▁temper	29
▁volatility	29
✔	29
時	29
-2008	28
/200	28
EPA	28
LY	28
akkyawar	28
alling	28
anish	28
anit	28
borg	28
built	28
cond	28
eline	28
etal	28
etary	28
ibility	28
inery	28
iture	28
kage	28
kans	28
olid	28
olly	28
onymous	28
ople	28
oura	28
pid	28
quer	28
reed	28
ression	28
road	28
roke	28
sg	28
struct	28
vanized	28
verages	28
ynn	28
Ø	28
Ω	28
γ	28
ф	28
ל	28
ُ	28
ṣ	28
▁-15	28
▁18%	28
▁1990,	28
▁1995,	28
▁1996.	28
▁3.8	28
▁38.	28
▁Brazilian	28
▁Cai	28
▁Corporate	28
▁Culture	28
▁Dra	28
▁European	28
▁French	28
▁Hug	28
▁Kyrgyzstan	28
▁Luis	28
▁Mim	28
▁Pra	28
▁SER	28
▁SERV	28
▁Strategy	28
▁VI	28
▁Vin	28
▁Years	28
▁Youth	28
▁brand	28
▁calib	28
▁characters	28
▁check	28
▁crafts	28
▁dioxide	28
▁dist	28
▁executives	28
▁flu	28
▁hid	28
▁leaf	28
▁level	28
▁mind	28
▁point	28
▁product	28
▁reading	28
▁repl	28
▁replace	28
▁revol	28
▁rush	28
▁sle	28
▁sound	28
▁techn	28
▁wheel	28
◇	28
✓	28
間	28
	28
ECT	27
[1]	27
ady	27
agement	27
anded	27
canic	27
chool	27
comp	27
conf	27
cont	27
cu	27
eal	27
edy	27
elance	27
enger	27
erts	27
hew	27
idal	27
itorial	27
last	27
lish	27
million	27
mosp	27
ois	27
open	27
ording	27
otics	27
ources	27
pé	27
stant	27
used	27
vert	27
video	27
wed	27
wer	27
ˈ	27
х	27
ה	27
܂	27
ḥ	27
„	27
▁$1.	27
▁),	27
▁33%	27
▁BAS	27
▁BRE	27
▁Beh	27
▁Budapest	27
▁Deal	27
▁ECU	27
▁Evaluation	27
▁FE	27
▁Fax	27
▁Geb	27
▁GmbH	27
▁Independent	27
▁Indic	27
▁Indones	27
▁Interest	27
▁July	27
▁Lie	27
▁Lif	27
▁Malm	27
▁Mesh	27
▁Nations	27
▁Polish	27
▁Primary	27
▁Various	27
▁Wr	27
▁crypto	27
▁every	27
▁ext	27
▁fine	27
▁give	27
▁heat	27
▁hon	27
▁information	27
▁inhib	27
▁listing	27
▁nom	27
▁ow	27
▁password	27
▁perm	27
▁piv	27
▁que	27
▁section	27
▁see	27
▁stimul	27
▁surf	27
▁team	27
▁tune	27
▁unknown	27
▁utilities	27
▁would	27
ト	27
(3)	26
5.000	26
Ass	26
Port	26
When	26
amali	26
antarki	26
arden	26
books	26
cture	26
elan	26
fecture	26
formance	26
front	26
idden	26
ideos	26
ilingual	26
just	26
orical	26
otechnology	26
pres	26
raphic	26
rates	26
ravel	26
rection	26
shire	26
ska	26
ström	26
upe	26
ushima	26
ystall	26
Þ	26
̊	26
ό	26
Ч	26
ш	26
▁1994,	26
▁1998.	26
▁8%	26
▁Abub	26
▁Associ	26
▁Baron	26
▁Crow	26
▁Depart	26
▁Dif	26
▁EF	26
▁Eve	26
▁Finn	26
▁GMO	26
▁Gand	26
▁Gent	26
▁Honduras	26
▁Housing	26
▁Macedonia	26
▁Mare	26
▁Maximum	26
▁NOTE	26
▁Opp	26
▁ROS	26
▁Somalia	26
▁Stop	26
▁Telegram	26
▁Too	26
▁WE	26
▁adaptability	26
▁backs	26
▁ble	26
▁board	26
▁capabilities	26
▁char	26
▁connectivity	26
▁dangant	26
▁discuss	26
▁flow	26
▁hair	26
▁hell	26
▁lect	26
▁professionals	26
▁pump	26
▁quick	26
▁sch	26
▁swe	26
▁today	26
▁travel	26
▁trig	26
▁Á	26
ィ	26
海	26
西	26
-98	25
.’	25
BAT	25
CK	25
Cloud	25
ICH	25
IES	25
allel	25
aped	25
appe	25
atial	25
baric	25
bial	25
cio	25
enne	25
ervation	25
fic	25
igned	25
ilding	25
immer	25
issance	25
itical	25
nel	25
now	25
oint	25
onds	25
orse	25
pered	25
rc	25
rena	25
resa	25
security	25
social	25
uhan	25
uly	25
users	25
uty	25
weight	25
zalika	25
Ō	25
Κ	25
ث	25
خ	25
▁1991,	25
▁2002.	25
▁43.	25
▁Alg	25
▁Algeria	25
▁Baggage	25
▁Bec	25
▁Bosnia	25
▁CON	25
▁Cana	25
▁Coun	25
▁FP	25
▁Fon	25
▁Got	25
▁Hebrew	25
▁Kham	25
▁LIT	25
▁Lan	25
▁Like	25
▁Living	25
▁Lord	25
▁Maca	25
▁Mount	25
▁Mozambique	25
▁Networks	25
▁Register	25
▁Relations	25
▁Sax	25
▁Sone	25
▁Sta	25
▁Valle	25
▁Warrant	25
▁abs	25
▁altern	25
▁aluminium	25
▁antic	25
▁butt	25
▁call	25
▁channel	25
▁collect	25
▁cord	25
▁dil	25
▁effort	25
▁euro	25
▁gold	25
▁granite	25
▁heart	25
▁intern	25
▁kusk	25
▁liquidity	25
▁multipl	25
▁oil	25
▁pain	25
▁person	25
▁phil	25
▁radical	25
▁refin	25
▁sac	25
▁seed	25
▁sized	25
▁times	25
▁well	25
▁worldwide	25
(5)	24
/2009	24
6-0	24
CY	24
Cy	24
Ital	24
LES	24
REE	24
UST	24
afety	24
amination	24
anent	24
asters	24
atell	24
atibility	24
backs	24
celer	24
cht	24
city	24
custom	24
emy	24
enberg	24
enders	24
ertion	24
fall	24
icity	24
irga	24
itten	24
ivation	24
laus	24
ned	24
occ	24
ometric	24
onym	24
orship	24
oted	24
pless	24
rep	24
roleum	24
rones	24
tail	24
track	24
uctions	24
uguri	24
̃	24
δ	24
і	24
א	24
ض	24
لا	24
▁(%	24
▁(-	24
▁0,0	24
▁17%	24
▁Associated	24
▁Canadian	24
▁Chairman	24
▁Commonwealth	24
▁Comput	24
▁Creat	24
▁Display	24
▁Fiji	24
▁Forest	24
▁Have	24
▁Holding	24
▁Institution	24
▁Instru	24
▁Insurance	24
▁LO	24
▁Language	24
▁Liberia	24
▁Month	24
▁Pedro	24
▁Proc	24
▁SI	24
▁Tac	24
▁Yug	24
▁after	24
▁artificial	24
▁auditing	24
▁bes	24
▁bill	24
▁buying	24
▁capt	24
▁coc	24
▁coin	24
▁could	24
▁dementia	24
▁dev	24
▁div	24
▁doll	24
▁dri	24
▁episode	24
▁grid	24
▁handic	24
▁inert	24
▁intr	24
▁marble	24
▁mark	24
▁names	24
▁plug	24
▁pos	24
▁prob	24
▁process	24
▁race	24
▁ridd	24
▁sing	24
▁test	24
▁texts	24
▁toler	24
▁transport	24
▁ven	24
▁vine	24
☆	24
安	24
～	24
/199	23
EAS	23
Pacific	23
RD	23
SEC	23
SV	23
Sec	23
Spe	23
abilities	23
acle	23
agn	23
ais	23
akkyawan	23
amfara	23
apes	23
arkokin	23
atorial	23
born	23
ending	23
ews	23
iable	23
icate	23
iced	23
icians	23
icts	23
imedia	23
itness	23
joy	23
known	23
making	23
ologies	23
ordinate	23
osophy	23
othes	23
ounds	23
ousing	23
papers	23
pher	23
position	23
roduced	23
stop	23
thes	23
usun	23
utsch	23
vard	23
vic	23
vig	23
έ	23
Б	23
Х	23
▁(199	23
▁10%.	23
▁1999.	23
▁30)	23
▁42.	23
▁Alber	23
▁Andre	23
▁Arena	23
▁BET	23
▁Bott	23
▁Britain	23
▁COOP	23
▁Copenhagen	23
▁Dep	23
▁Fasin	23
▁Holocaust	23
▁Industries	23
▁JE	23
▁Late	23
▁Leh	23
▁Mikhail	23
▁Observatory	23
▁PAL	23
▁Poor	23
▁Prest	23
▁Sach	23
▁Specific	23
▁Standards	23
▁Togo	23
▁WR	23
▁Yus	23
▁Zion	23
▁adjust	23
▁bars	23
▁birthday	23
▁born	23
▁bright	23
▁cup	23
▁desc	23
▁ear	23
▁equ	23
▁few	23
▁fraction	23
▁integrated	23
▁langu	23
▁late	23
▁macro	23
▁maxim	23
▁mom	23
▁multi	23
▁pil	23
▁plain	23
▁porn	23
▁put	23
▁road	23
▁score	23
▁should	23
▁stere	23
▁stream	23
▁tom	23
▁trick	23
▁vo	23
▁where	23
と	23
は	23
ス	23
ン	23
-2014	22
END	22
Latin	22
QU	22
Reg	22
Serv	22
[2]	22
alaxy	22
ashes	22
azard	22
bing	22
bish	22
cyc	22
ented	22
fuel	22
gem	22
global	22
good	22
heres	22
icott	22
iders	22
inding	22
irye	22
isen	22
ivery	22
laim	22
laude	22
mented	22
ounts	22
ovsky	22
phal	22
phony	22
reo	22
rett	22
ricane	22
rison	22
sive	22
think	22
ugen	22
ulated	22
upp	22
viron	22
zing	22
Ö	22
ín	22
Я	22
פ	22
▁$50	22
▁+32	22
▁1997.	22
▁ASS	22
▁Alan	22
▁Altern	22
▁Baghdad	22
▁Bless	22
▁Borders	22
▁COP	22
▁CY	22
▁Cambodia	22
▁Carlos	22
▁Cert	22
▁Contin	22
▁Corps	22
▁Cuba	22
▁Dublin	22
▁Ent	22
▁Ethiopia	22
▁Focus	22
▁GCC	22
▁GEN	22
▁Here	22
▁Investment	22
▁LAM	22
▁Linked	22
▁Miguel	22
▁Millennium	22
▁Ministry	22
▁Moldova	22
▁Nordic	22
▁Norwegian	22
▁Num	22
▁Progressive	22
▁Sr	22
▁Transportation	22
▁Tric	22
▁Vik	22
▁Vincent	22
▁been	22
▁bon	22
▁breath	22
▁bubb	22
▁capital	22
▁care	22
▁collection	22
▁cool	22
▁downward	22
▁electronically	22
▁eng	22
▁extract	22
▁finan	22
▁flood	22
▁foot	22
▁formal	22
▁fresh	22
▁graph	22
▁grat	22
▁great	22
▁half	22
▁help	22
▁interm	22
▁license	22
▁lub	22
▁mamm	22
▁matching	22
▁methodologies	22
▁money	22
▁public	22
▁quar	22
▁rout	22
▁strain	22
▁string	22
▁students	22
▁subs	22
▁suff	22
▁swa	22
▁table	22
▁talking	22
▁unt	22
▁val	22
▁wed	22
。	22
ラ	22
型	22
椋	22
사	22
	22
................	21
/12/	21
/2013	21
Direct	21
EI	21
ESF	21
ICS	21
USS	21
adowa	21
alities	21
alled	21
annel	21
anted	21
aret	21
astr	21
asts	21
athan	21
atherine	21
based	21
cost	21
cz	21
del	21
ective	21
etry	21
gence	21
giving	21
grade	21
icht	21
idel	21
illo	21
isation	21
isse	21
ivid	21
izers	21
limi	21
ober	21
ocking	21
onder	21
otti	21
oving	21
owing	21
rape	21
rating	21
rec	21
rete	21
river	21
thal	21
tsin	21
ugur	21
unting	21
urate	21
uters	21
vents	21
yle	21
ħ	21
ω	21
غ	21
ـ	21
ṅ	21
′	21
↩	21
▁).	21
▁1992.	21
▁Abb	21
▁Afric	21
▁Again	21
▁Angola	21
▁Annual	21
▁BON	21
▁Bavaria	21
▁Bundes	21
▁Canary	21
▁Compan	21
▁Domestic	21
▁Finnish	21
▁Fuku	21
▁IE	21
▁Jacob	21
▁Lessons	21
▁Mission	21
▁Mixed	21
▁Nicaragua	21
▁Obs	21
▁Ple	21
▁Pressure	21
▁Rotterdam	21
▁Rwanda	21
▁STO	21
▁Sac	21
▁Since	21
▁Slovak	21
▁Subject	21
▁Swed	21
▁Treas	21
▁VAL	21
▁Value	21
▁archive	21
▁atomic	21
▁banana	21
▁box	21
▁catering	21
▁chip	21
▁const	21
▁depr	21
▁edge	21
▁emp	21
▁getting	21
▁iT	21
▁indul	21
▁into	21
▁joy	21
▁lock	21
▁meg	21
▁neg	21
▁night	21
▁ol	21
▁partially	21
▁plant	21
▁prog	21
▁resolution	21
▁rights	21
▁rough	21
▁saving	21
▁stre	21
▁tightening	21
▁virtual	21
▁wind	21
ク	21
島	21
鳥	21
서	21
	21
LAND	20
LOW	20
Level	20
MUN	20
OUR	20
RIC	20
agne	20
alight	20
anced	20
astics	20
empt	20
ention	20
feld	20
fri	20
hardt	20
holm	20
iar	20
iblical	20
ibly	20
ighter	20
igl	20
illon	20
ingly	20
irs	20
kind	20
lication	20
obody	20
olation	20
ounce	20
pir	20
quis	20
raq	20
rell	20
reng	20
ropol	20
roup	20
rows	20
stud	20
usc	20
ushed	20
usz	20
wart	20
yel	20
Í	20
ß	20
ès	20
üb	20
þ	20
Ƃ	20
Ф	20
ס	20
ẹ	20
▁11%	20
▁1993,	20
▁Armenian	20
▁BEL	20
▁Barack	20
▁Belg	20
▁Beyond	20
▁Catalan	20
▁Catherine	20
▁Chern	20
▁Count	20
▁Europa	20
▁Four	20
▁GRE	20
▁HOME	20
▁Imp	20
▁Independence	20
▁Irfan	20
▁Jac	20
▁Johannes	20
▁Kennedy	20
▁MON	20
▁Mean	20
▁PRODUC	20
▁Peters	20
▁Sarajevo	20
▁Seb	20
▁Tourism	20
▁Unity	20
▁Veh	20
▁Wel	20
▁acceler	20
▁arb	20
▁asymmetric	20
▁aug	20
▁autom	20
▁before	20
▁better	20
▁bioc	20
▁bn	20
▁bore	20
▁club	20
▁compos	20
▁conc	20
▁contra	20
▁countries	20
▁crazy	20
▁detect	20
▁dysf	20
▁experience	20
▁fran	20
▁jit	20
▁made	20
▁nost	20
▁pass	20
▁plastic	20
▁platform	20
▁prom	20
▁reorgan	20
▁right	20
▁sens	20
▁solid	20
▁spons	20
▁summary	20
▁thin	20
▁training	20
▁using	20
▁very	20
▁wars	20
▁wash	20
▁won	20
子	20
州	20
月	20
釜	20
레	20
르	20
명	20
모	20
9.16	19
==	19
American	19
Coun	19
DER	19
ECTION	19
EEA	19
ICA	19
Lingo	19
OMO	19
ULT	19
United	19
ahr	19
airs	19
alom	19
angers	19
antiyawa	19
arbon	19
arly	19
ashed	19
ause	19
aval	19
borne	19
cies	19
ember	19
erve	19
feren	19
five	19
hire	19
idence	19
ijing	19
ingu	19
iring	19
ivate	19
made	19
management	19
ollah	19
oons	19
pair	19
policies	19
pring	19
pson	19
rading	19
rame	19
roes	19
ruct	19
sters	19
strong	19
sue	19
tex	19
thesis	19
ucas	19
umbers	19
yard	19
zed	19
ás	19
ère	19
él	19
ét	19
̈	19
Τ	19
ς	19
ύ	19
أ	19
ای	19
فا	19
هی	19
า	19
”:	19
›	19
▁1991.	19
▁228	19
▁282	19
▁296	19
▁6%	19
▁Abe	19
▁Abraham	19
▁Alert	19
▁Amnesty	19
▁Antwerp	19
▁BAL	19
▁BUD	19
▁Build	19
▁Democrat	19
▁Eur	19
▁Fav	19
▁Found	19
▁Fran	19
▁Grad	19
▁Jerusalem	19
▁Labour	19
▁Leonardo	19
▁Liberal	19
▁Luci	19
▁Mauritania	19
▁Pand	19
▁Plant	19
▁Princi	19
▁Rein	19
▁Revolution	19
▁Scient	19
▁Slots	19
▁Socialist	19
▁Submit	19
▁Supp	19
▁WASHINGTON	19
▁WEL	19
▁ach	19
▁ali	19
▁align	19
▁analytical	19
▁because	19
▁cloud	19
▁come	19
▁concert	19
▁condition	19
▁conv	19
▁deposit	19
▁direct	19
▁electrom	19
▁equal	19
▁find	19
▁fort	19
▁hole	19
▁horse	19
▁incomp	19
▁interactions	19
▁jur	19
▁last	19
▁marg	19
▁memor	19
▁mile	19
▁miles	19
▁mode	19
▁nitr	19
▁option	19
▁owner	19
▁pack	19
▁personal	19
▁plat	19
▁pure	19
▁reb	19
▁reflect	19
▁rose	19
▁scra	19
▁simpl	19
▁sky	19
▁sophisticated	19
▁sque	19
▁swit	19
▁trader	19
▁tsunami	19
▁unsc	19
▁vers	19
▁vulner	19
▁wild	19
▁works	19
▁خ	19
イ	19
マ	19
上	19
京	19
广	19
白	19
🎀	19
%),	18
/2010	18
000.000	18
ELS	18
HER	18
ORT	18
Ob	18
Part	18
aily	18
charge	18
cious	18
contin	18
cycle	18
design	18
digital	18
door	18
draulic	18
ediatric	18
eland	18
equ	18
eram	18
hetic	18
hist	18
ibl	18
ication	18
idity	18
inians	18
irting	18
istics	18
lli	18
ocrine	18
oking	18
onian	18
ooting	18
orrow	18
osm	18
ountain	18
ques	18
rations	18
razil	18
rees	18
ristina	18
ropical	18
rovsk	18
sol	18
stit	18
ually	18
unic	18
uous	18
uras	18
utical	18
vision	18
¤	18
Ξ	18
Π	18
φ	18
Г	18
Н	18
ש	18
ة	18
‐	18
‰	18
▁1989.	18
▁20%.	18
▁229	18
▁Arctic	18
▁Banco	18
▁Bulg	18
▁CZ	18
▁Cairo	18
▁Communication	18
▁DK	18
▁Deutsche	18
▁Fac	18
▁GAL	18
▁Goals	18
▁Help	18
▁Heritage	18
▁Hostel	18
▁ICC	18
▁Ident	18
▁Intern	18
▁Johannesburg	18
▁Lead	18
▁Look	18
▁Mexican	18
▁Mongolia	18
▁Movement	18
▁Partners	18
▁Patri	18
▁Payments	18
▁Practice	18
▁Programme	18
▁Promotion	18
▁REL	18
▁Recognition	18
▁Right	18
▁Sapp	18
▁Similar	18
▁Spir	18
▁TOTAL	18
▁Think	18
▁Tomorrow	18
▁Turin	18
▁activ	18
▁bod	18
▁buyers	18
▁citizens	18
▁commission	18
▁compress	18
▁contr	18
▁convey	18
▁cooper	18
▁countertop	18
▁cuts	18
▁fats	18
▁fel	18
▁follow	18
▁fu	18
▁gene	18
▁global	18
▁gn	18
▁hydraulic	18
▁instant	18
▁interview	18
▁magnetic	18
▁merch	18
▁mig	18
▁monet	18
▁mother	18
▁much	18
▁order	18
▁proof	18
▁rank	18
▁regen	18
▁reserved	18
▁retro	18
▁sample	18
▁scrat	18
▁seal	18
▁shake	18
▁slots	18
▁stir	18
▁sty	18
▁supp	18
▁thr	18
▁tribal	18
▁tro	18
▁typ	18
▁widest	18
♥	18
ヌ	18
加	18
大	18
拉	18
旅	18
타	18
👍	18
😉	18
...]	17
4-00	17
AO	17
EG	17
ESC	17
ORG	17
Pol	17
URG	17
West	17
____	17
added	17
anged	17
anies	17
author	17
autiful	17
bone	17
breaking	17
ception	17
chet	17
coun	17
dem	17
eper	17
erce	17
ession	17
estic	17
esy	17
health	17
icking	17
iment	17
ité	17
jud	17
left	17
loading	17
lv	17
money	17
oha	17
onnel	17
opin	17
orient	17
orpor	17
ought	17
ournal	17
pent	17
racy	17
rance	17
riel	17
riptions	17
soci	17
speed	17
step	17
then	17
ubble	17
usal	17
vil	17
xtures	17
zek	17
Â	17
ɩ	17
ж	17
ذ	17
سلام	17
ْ	17
├	17
▁1995.	17
▁258	17
▁Alternative	17
▁Archive	17
▁Austrian	17
▁BUS	17
▁Banks	17
▁Blair	17
▁Carlo	17
▁Chad	17
▁Charlie	17
▁Chemicals	17
▁Delivery	17
▁Econom	17
▁Environmental	17
▁FIN	17
▁Federic	17
▁Herzegovina	17
▁Hiro	17
▁LU	17
▁Learn	17
▁MAX	17
▁Maced	17
▁Montenegro	17
▁Palestine	17
▁Position	17
▁Recent	17
▁Regulation	17
▁Save	17
▁Steel	17
▁Tibet	17
▁Timothy	17
▁Warn	17
▁Wise	17
▁Yugoslavia	17
▁Zech	17
▁absorb	17
▁aff	17
▁alcohol	17
▁antimicro	17
▁applic	17
▁automated	17
▁bath	17
▁calc	17
▁certific	17
▁cheese	17
▁cinema	17
▁conform	17
▁consum	17
▁coun	17
▁country	17
▁course	17
▁degree	17
▁depos	17
▁draw	17
▁dry	17
▁dut	17
▁escal	17
▁even	17
▁exceptionally	17
▁flaws	17
▁fra	17
▁goat	17
▁ground	17
▁incre	17
▁leak	17
▁lent	17
▁ling	17
▁lõk	17
▁meters	17
▁nar	17
▁navig	17
▁opportunities	17
▁outs	17
▁plate	17
▁pow	17
▁pret	17
▁recipro	17
▁rest	17
▁season	17
▁second	17
▁shot	17
▁surpr	17
▁sus	17
▁termin	17
▁then	17
▁things	17
▁trip	17
▁vigilant	17
▁vill	17
▁warrant	17
▁weld	17
▶	17
➥	17
格	17
箱	17
시	17
ALY	16
Green	16
Ground	16
Ru	16
Swed	16
______	16
abus	16
atform	16
atically	16
avan	16
ayed	16
crib	16
eem	16
eze	16
formation	16
hof	16
ieva	16
ilib	16
imation	16
inent	16
lib	16
nce	16
ocu	16
official	16
omita	16
ondo	16
ourse	16
ovy	16
owers	16
oš	16
paign	16
pere	16
person	16
rooms	16
school	16
start	16
tem	16
Á	16
Ý	16
Λ	16
נ	16
ى	16
⁄	16
→	16
╯	16
▁(*)	16
▁1993.	16
▁2050	16
▁22%	16
▁Aaron	16
▁Agriculture	16
▁BER	16
▁Bav	16
▁Bik	16
▁CCI	16
▁Camera	16
▁Chain	16
▁DMCA	16
▁Eph	16
▁Framework	16
▁Fukushima	16
▁Gothenburg	16
▁Invest	16
▁Jensen	16
▁Lear	16
▁Lj	16
▁Monday	16
▁Paradise	16
▁Police	16
▁Prim	16
▁Reading	16
▁Results	16
▁Rog	16
▁Some	16
▁Sou	16
▁Terr	16
▁Thom	16
▁Tib	16
▁Verde	16
▁Verification	16
▁Viv	16
▁Volkswagen	16
▁WIN	16
▁WITH	16
▁Woods	16
▁XII	16
▁accuracy	16
▁actor	16
▁advance	16
▁affirm	16
▁again	16
▁brown	16
▁case	16
▁cher	16
▁cry	16
▁device	16
▁dou	16
▁ele	16
▁enterpr	16
▁enterprise	16
▁fantastic	16
▁frustr	16
▁glass	16
▁guard	16
▁imper	16
▁inv	16
▁mand	16
▁novel	16
▁nurt	16
▁open	16
▁prim	16
▁prol	16
▁pron	16
▁ransom	16
▁requirements	16
▁reserves	16
▁scr	16
▁screen	16
▁self	16
▁shift	16
▁shower	16
▁sid	16
▁skin	16
▁stand	16
▁story	16
▁sug	16
▁syndrome	16
▁technolog	16
▁tooth	16
▁transmission	16
▁whe	16
▁white	16
▁yiw	16
♋	16
テ	16
ヴ	16
岳	16
度	16
斯	16
机	16
津	16
라	16
스	16
Call	15
GY	15
Her	15
IGH	15
IND	15
ISE	15
Ivoire	15
MENT	15
OIN	15
Office	15
Sah	15
South	15
VIT	15
adies	15
alima	15
amber	15
amental	15
angel	15
asty	15
atri	15
atric	15
charg	15
details	15
erland	15
gaard	15
hesion	15
hic	15
ieu	15
igue	15
isite	15
ivals	15
lave	15
mans	15
nat	15
ocratic	15
ocus	15
oir	15
oise	15
orts	15
oting	15
ourn	15
pecial	15
plete	15
pose	15
raid	15
rators	15
resses	15
rict	15
sions	15
system	15
ults	15
ummawa	15
verse	15
week	15
what	15
±	15
Ƴ	15
́	15
Д	15
ы	15
گ	15
↓	15
▁14%	15
▁2030.	15
▁ART	15
▁Adri	15
▁Anders	15
▁BRO	15
▁Bren	15
▁Brothers	15
▁Camb	15
▁Chapter	15
▁Collins	15
▁Creator	15
▁EPA	15
▁Equipment	15
▁Eritrea	15
▁Example	15
▁Ez	15
▁Federal	15
▁Franc	15
▁Gene	15
▁IA	15
▁JUST	15
▁Javier	15
▁Jord	15
▁Kalm	15
▁Lakes	15
▁Loy	15
▁MID	15
▁Manuel	15
▁Mother	15
▁PER	15
▁Partnership	15
▁Prog	15
▁Projects	15
▁Property	15
▁Rest	15
▁Romanian	15
▁SMEs	15
▁STAT	15
▁Study	15
▁Teen	15
▁Todd	15
▁Tunis	15
▁Ug	15
▁Valencia	15
▁Vice	15
▁Vict	15
▁Vlad	15
▁Watson	15
▁Written	15
▁adapt	15
▁alloy	15
▁biod	15
▁bread	15
▁carcin	15
▁catalyst	15
▁children	15
▁colleg	15
▁complex	15
▁control	15
▁costing	15
▁currency	15
▁customer	15
▁customers	15
▁devices	15
▁dominance	15
▁earth	15
▁easy	15
▁education	15
▁eff	15
▁fig	15
▁fores	15
▁für	15
▁group	15
▁hes	15
▁hollow	15
▁inte	15
▁irre	15
▁isn	15
▁let	15
▁mineral	15
▁minimal	15
▁mixed	15
▁mos	15
▁myth	15
▁nob	15
▁olig	15
▁options	15
▁overlapping	15
▁overs	15
▁percentages	15
▁prep	15
▁protein	15
▁react	15
▁reput	15
▁requ	15
▁result	15
▁root	15
▁salmon	15
▁sen	15
▁sequ	15
▁server	15
▁space	15
▁sports	15
▁starters	15
▁switch	15
▁theories	15
▁tight	15
▁trib	15
▁types	15
▁university	15
▁unw	15
▁value	15
▁were	15
▁without	15
▁à	15
♀	15
し	15
広	15
星	15
臺	15
邮	15
/97	14
Bur	14
Canada	14
EFA	14
EMENT	14
Hung	14
ICT	14
ONS	14
ORS	14
Pe	14
Pres	14
Sem	14
State	14
VEL	14
abling	14
anian	14
apter	14
ateur	14
business	14
cence	14
cession	14
chers	14
cket	14
cour	14
ermany	14
essation	14
fair	14
ference	14
ffic	14
fis	14
fty	14
hesive	14
icycle	14
iddle	14
ighting	14
igur	14
ilities	14
iments	14
iously	14
ishment	14
ivated	14
iversary	14
ivic	14
know	14
nz	14
omic	14
orthy	14
osan	14
osed	14
osoph	14
ouble	14
oured	14
oved	14
ovi	14
perial	14
ply	14
pri	14
raint	14
riction	14
sett	14
sible	14
stand	14
trust	14
uary	14
ublic	14
ulture	14
usiness	14
uthor	14
uum	14
vity	14
weg	14
will	14
Ä	14
ù	14
ą	14
đ	14
Ο	14
بر	14
ِ	14
ა	14
ṛ	14
╮	14
▁4%	14
▁Albania	14
▁Alps	14
▁Andreas	14
▁Anglo	14
▁Antar	14
▁Antoine	14
▁Assembly	14
▁Burma	14
▁Cath	14
▁Dimas	14
▁Disease	14
▁Evans	14
▁Evidence	14
▁Exper	14
▁Facility	14
▁Hd	14
▁Horn	14
▁Hughes	14
▁IMF	14
▁IMO	14
▁Kre	14
▁Kyr	14
▁Laz	14
▁Liechtenstein	14
▁Mao	14
▁Merkel	14
▁Might	14
▁NGO	14
▁Opening	14
▁Parts	14
▁REV	14
▁Reduc	14
▁Registration	14
▁Revelation	14
▁Scandinav	14
▁Sche	14
▁Suc	14
▁Sure	14
▁TRAN	14
▁Television	14
▁Vene	14
▁Warsaw	14
▁Wolfgang	14
▁able	14
▁age	14
▁allows	14
▁apost	14
▁applications	14
▁appro	14
▁auditors	14
▁author	14
▁between	14
▁boom	14
▁boosting	14
▁cand	14
▁cle	14
▁close	14
▁compl	14
▁computer	14
▁consumers	14
▁contest	14
▁controll	14
▁cou	14
▁court	14
▁development	14
▁dismantling	14
▁endocrine	14
▁exch	14
▁express	14
▁externally	14
▁extra	14
▁family	14
▁fest	14
▁financially	14
▁floor	14
▁food	14
▁forward	14
▁homes	14
▁horizon	14
▁impact	14
▁incl	14
▁individual	14
▁influ	14
▁less	14
▁letter	14
▁lux	14
▁machines	14
▁magn	14
▁monetary	14
▁mov	14
▁object	14
▁period	14
▁published	14
▁rent	14
▁rese	14
▁responsibly	14
▁ric	14
▁sadd	14
▁sci	14
▁slow	14
▁sou	14
▁spect	14
▁speedy	14
▁stress	14
▁stringent	14
▁subm	14
▁sure	14
▁survey	14
▁tent	14
▁terminology	14
▁these	14
▁through	14
▁titles	14
▁too	14
▁unacceptable	14
▁vir	14
▁visual	14
▁wave	14
▁wellbeing	14
▁yes	14
▁ع	14
▁ه	14
か	14
ア	14
ガ	14
ツ	14
ナ	14
ホ	14
号	14
墨	14
尔	14
岛	14
王	14
田	14
米	14
规	14
谷	14
광	14
베	14
25%	13
4/	13
ERN	13
GDP	13
ICAL	13
Id	13
Nor	13
ORD	13
Spain	13
TION	13
YN	13
ached	13
achelor	13
alus	13
assad	13
bels	13
cean	13
chenko	13
chez	13
ciences	13
cise	13
cycles	13
echo	13
edly	13
elic	13
esty	13
eted	13
icious	13
icit	13
ident	13
igr	13
igration	13
ilation	13
inars	13
iration	13
irty	13
istani	13
istant	13
isy	13
iverse	13
jejeniya	13
lesh	13
mmet	13
okes	13
oning	13
opath	13
orage	13
orders	13
ounting	13
pak	13
petr	13
pling	13
posed	13
ptember	13
raining	13
raltar	13
rath	13
reci	13
rets	13
rodu	13
sect	13
self	13
selling	13
some	13
sum	13
there	13
umble	13
uries	13
using	13
ustr	13
ustry	13
uture	13
voy	13
west	13
	13
	13
Ó	13
Ú	13
Ĥ	13
Γ	13
Υ	13
Ш	13
ա	13
ե	13
آ	13
↑	13
▁-2.	13
▁0.5%	13
▁13%	13
▁1990.	13
▁298	13
▁Argentine	13
▁Assad	13
▁Bert	13
▁Buch	13
▁Compact	13
▁Crime	13
▁DEL	13
▁Erasmus	13
▁Flor	13
▁Hungarian	13
▁Instit	13
▁Instrument	13
▁Karel	13
▁Lom	13
▁MARKET	13
▁Macao	13
▁NAP	13
▁Netanyahu	13
▁Oral	13
▁Parad	13
▁Pascal	13
▁Person	13
▁Philippe	13
▁Picture	13
▁RES	13
▁Recommend	13
▁Reference	13
▁Request	13
▁Rew	13
▁SWIFT	13
▁Sci	13
▁Sell	13
▁Solid	13
▁Solidarity	13
▁Somali	13
▁Soon	13
▁Strip	13
▁Summit	13
▁Teh	13
▁Tex	13
▁Truth	13
▁UNICEF	13
▁Uruguay	13
▁Use	13
▁Virt	13
▁Welcome	13
▁When	13
▁arr	13
▁artificially	13
▁backdrop	13
▁backgrounds	13
▁beautiful	13
▁beauty	13
▁build	13
▁coins	13
▁consulting	13
▁copyright	13
▁crushed	13
▁dial	13
▁dust	13
▁eight	13
▁emit	13
▁esp	13
▁exec	13
▁exporters	13
▁facilitates	13
▁fauna	13
▁fixed	13
▁flav	13
▁forecast	13
▁frameworks	13
▁guideline	13
▁heav	13
▁holiday	13
▁ign	13
▁interp	13
▁kick	13
▁king	13
▁manufact	13
▁match	13
▁medic	13
▁messenger	13
▁milestone	13
▁movement	13
▁next	13
▁obtain	13
▁ord	13
▁ozone	13
▁param	13
▁party	13
▁poll	13
▁posting	13
▁refres	13
▁reservations	13
▁rever	13
▁round	13
▁sign	13
▁simple	13
▁small	13
▁steam	13
▁stimulating	13
▁straight	13
▁streamline	13
▁talk	13
▁thematic	13
▁toug	13
▁town	13
▁transplant	13
▁upd	13
▁visit	13
▁women	13
い	13
代	13
根	13
礁	13
草	13
饤	13
신	13
아	13
장	13
텔	13
팔	13
호	13
￼	13
󥹾	13
-199	12
/98	12
Africa	12
BERG	12
Christian	12
East	12
Est	12
IFT	12
acea	12
aches	12
ador	12
ague	12
arding	12
ashion	12
assion	12
atorium	12
cape	12
cases	12
cp	12
det	12
develop	12
encies	12
ernity	12
forming	12
furt	12
general	12
gment	12
icia	12
icting	12
ictions	12
idad	12
idth	12
ienna	12
iforn	12
igious	12
ignment	12
iliary	12
information	12
itect	12
itics	12
janna	12
kki	12
laimed	12
lements	12
lez	12
lining	12
ogens	12
ograp	12
olen	12
onomy	12
pass	12
pus	12
quo	12
rats	12
reated	12
research	12
rian	12
righteous	12
rough	12
scrib	12
search	12
spection	12
terior	12
this	12
tower	12
ttes	12
umping	12
vention	12
«	12
ƘI	12
˹	12
υ	12
Е	12
Л	12
ט	12
ޤ	12
▁(2007	12
▁0.1%	12
▁17)	12
▁1994.	12
▁475	12
▁Autumn	12
▁Bahrain	12
▁Balkan	12
▁Based	12
▁Charter	12
▁Citizens	12
▁Climate	12
▁Comb	12
▁Communities	12
▁Competition	12
▁Cred	12
▁Defence	12
▁Drugs	12
▁Dü	12
▁Events	12
▁Gener	12
▁Greens	12
▁Hague	12
▁ICT	12
▁Jacques	12
▁Jerem	12
▁Jude	12
▁Knowledge	12
▁Large	12
▁Latvian	12
▁Luke	12
▁Madagas	12
▁Maja	12
▁Object	12
▁Partner	12
▁Present	12
▁Pros	12
▁Province	12
▁Quran	12
▁Regist	12
▁Romano	12
▁Russian	12
▁Scot	12
▁Siem	12
▁Sunni	12
▁Synd	12
▁TRA	12
▁Thy	12
▁WOR	12
▁accomp	12
▁anything	12
▁application	12
▁architect	12
▁around	12
▁auditor	12
▁basic	12
▁blow	12
▁bomb	12
▁bovine	12
▁capacities	12
▁certificate	12
▁certification	12
▁circum	12
▁conting	12
▁customized	12
▁deg	12
▁denomin	12
▁different	12
▁dos	12
▁eg	12
▁enjoys	12
▁famous	12
▁fram	12
▁front	12
▁gest	12
▁grab	12
▁hero	12
▁hub	12
▁husband	12
▁ideal	12
▁inex	12
▁injection	12
▁interface	12
▁lod	12
▁loss	12
▁magazine	12
▁masters	12
▁maximum	12
▁middle	12
▁million	12
▁multif	12
▁needs	12
▁package	12
▁patron	12
▁payment	12
▁please	12
▁progress	12
▁provide	12
▁pup	12
▁readily	12
▁recru	12
▁requested	12
▁respir	12
▁ritual	12
▁river	12
▁secondary	12
▁sed	12
▁sent	12
▁shoes	12
▁shoot	12
▁speed	12
▁states	12
▁steadily	12
▁steps	12
▁study	12
▁such	12
▁surve	12
▁swing	12
▁sym	12
▁symbol	12
▁technology	12
▁those	12
▁tract	12
▁tran	12
▁transf	12
▁transfer	12
▁trust	12
▁underway	12
▁united	12
▁whis	12
▁wide	12
▁wing	12
▁working	12
▁€1	12
♑	12
ニ	12
ヶ	12
二	12
品	12
妙	12
桼	12
蔵	12
都	12
나	12
바	12
우	12
	12
(200	11
-2006	11
/08/	11
Contact	11
Cs	11
EAN	11
ENTS	11
General	11
LAF	11
LAR	11
REG	11
UBLIC	11
]>	11
account	11
achers	11
adt	11
aper	11
appy	11
arked	11
arms	11
assadors	11
aying	11
castle	11
chmark	11
ctic	11
ected	11
educ	11
education	11
enary	11
ested	11
ests	11
fficial	11
food	11
gaon	11
gypt	11
iagn	11
international	11
iques	11
ische	11
ither	11
itional	11
itories	11
itudes	11
mont	11
needed	11
oding	11
omics	11
only	11
oroc	11
ouncing	11
ouses	11
owed	11
parent	11
peace	11
porary	11
rative	11
ratory	11
reach	11
reas	11
reatment	11
redit	11
roduction	11
ruit	11
service	11
teg	11
tings	11
tre	11
tries	11
ucci	11
ued	11
ulatory	11
ulously	11
umes	11
undling	11
urers	11
wards	11
ynes	11
©	11
ţ	11
ظ	11
ḷ	11
※	11
⁄2	11
▁(%)	11
▁(00	11
▁24)	11
▁9%	11
▁ASEAN	11
▁Actions	11
▁After	11
▁Airways	11
▁Belgrade	11
▁Birds	11
▁Bour	11
▁Byrne	11
▁CAM	11
▁CIT	11
▁Cameroon	11
▁Caucas	11
▁Churchill	11
▁Coming	11
▁Commerce	11
▁Conduct	11
▁Coordination	11
▁Dimension	11
▁Dist	11
▁EE	11
▁ESM	11
▁ESP	11
▁Every	11
▁FAO	11
▁Flem	11
▁Forces	11
▁Frid	11
▁Gender	11
▁Growth	11
▁Herman	11
▁Hussein	11
▁IAS	11
▁Infl	11
▁Inv	11
▁Jong	11
▁Klaus	11
▁Kurd	11
▁MOR	11
▁Marx	11
▁Mons	11
▁Occ	11
▁Officer	11
▁Olymp	11
▁Oslo	11
▁Pla	11
▁Prevention	11
▁Scripture	11
▁Supplier	11
▁Suppliers	11
▁Tajikistan	11
▁Trad	11
▁Tuesday	11
▁Uni	11
▁Viktor	11
▁abuse	11
▁accelerating	11
▁adapting	11
▁agro	11
▁annum	11
▁apt	11
▁asbestos	11
▁audit	11
▁batt	11
▁boost	11
▁bottom	11
▁branch	11
▁bre	11
▁breat	11
▁bulk	11
▁butter	11
▁calm	11
▁cha	11
▁cleaning	11
▁deal	11
▁deliver	11
▁desktop	11
▁divid	11
▁drama	11
▁each	11
▁eas	11
▁effect	11
▁embod	11
▁example	11
▁exhib	11
▁expertise	11
▁fallen	11
▁fem	11
▁firstly	11
▁fish	11
▁fled	11
▁four	11
▁gladly	11
▁gloom	11
▁herb	11
▁ident	11
▁include	11
▁including	11
▁industry	11
▁instrumental	11
▁interchange	11
▁interoper	11
▁invent	11
▁irr	11
▁lead	11
▁lengthy	11
▁lob	11
▁mess	11
▁move	11
▁national	11
▁neck	11
▁occ	11
▁offer	11
▁opp	11
▁organ	11
▁orig	11
▁picture	11
▁powder	11
▁precurs	11
▁premature	11
▁proc	11
▁prov	11
▁reactions	11
▁reactor	11
▁reass	11
▁retr	11
▁revital	11
▁runs	11
▁says	11
▁scale	11
▁scour	11
▁seat	11
▁shrink	11
▁shut	11
▁sink	11
▁spir	11
▁stone	11
▁stret	11
▁synd	11
▁tension	11
▁tenth	11
▁thickness	11
▁tighter	11
▁till	11
▁translate	11
▁tre	11
▁unique	11
▁unp	11
▁user	11
▁valid	11
▁weight	11
▁wet	11
▁wire	11
▁wool	11
▁worthwhile	11
▁yourself	11
の	11
ブ	11
モ	11
商	11
地	11
御	11
燧	11
義	11
리	11
일	11
	11
%).	10
)).	10
2_	10
Americ	10
Bel	10
Claude	10
Em	10
HIP	10
LV	10
Lux	10
OCK	10
ORN	10
ORY	10
Total	10
________________	10
abet	10
abled	10
achel	10
adm	10
ailed	10
akkyawa	10
alie	10
anism	10
ansom	10
arians	10
arious	10
ascular	10
atrader	10
atre	10
belie	10
bly	10
bott	10
chron	10
coh	10
dered	10
docs	10
ecting	10
elcome	10
emate	10
enic	10
enna	10
enza	10
erc	10
erge	10
ermann	10
etting	10
ications	10
ience	10
igation	10
inav	10
inis	10
irtaniya	10
ixed	10
llor	10
lovakia	10
manuel	10
minist	10
nius	10
odal	10
odd	10
olecular	10
operative	10
oratory	10
orough	10
orthern	10
otechn	10
ovan	10
people	10
ploy	10
prian	10
product	10
program	10
raction	10
rents	10
ressed	10
rupt	10
space	10
standard	10
trib	10
uggage	10
urban	10
ussion	10
utions	10
utrition	10
version	10
viol	10
ween	10
which	10
wide	10
worthy	10
ylv	10
zl	10
zzo	10
È	10
ég	10
ů	10
Ȥ	10
ɂ	10
̇	10
Μ	10
ζ	10
ד	10
قی	10
ّ	10
پ	10
ย	10
≈	10
▁(2000	10
▁13)	10
▁40)	10
▁Andor	10
▁Andro	10
▁Athen	10
▁Atomic	10
▁Cases	10
▁Christianity	10
▁Declaration	10
▁Diversity	10
▁Document	10
▁Earl	10
▁Emir	10
▁Erdoğan	10
▁FIF	10
▁Father	10
▁Germ	10
▁Government	10
▁Greenland	10
▁Impro	10
▁Innov	10
▁Kac	10
▁Macro	10
▁Mahmoud	10
▁Maltese	10
▁Medvedev	10
▁Ministries	10
▁Norm	10
▁Philipp	10
▁Plans	10
▁Priv	10
▁Protection	10
▁STUD	10
▁Salv	10
▁Saxony	10
▁Schengen	10
▁Secret	10
▁Sector	10
▁Stainless	10
▁Stav	10
▁Sulem	10
▁Sö	10
▁Tort	10
▁Turkmenistan	10
▁Updated	10
▁Uzbek	10
▁VII	10
▁Vald	10
▁Ves	10
▁Vietnamese	10
▁Wednesday	10
▁Weekly	10
▁YOU	10
▁Yet	10
▁abst	10
▁adop	10
▁agg	10
▁aggreg	10
▁antagon	10
▁apart	10
▁audits	10
▁banknotes	10
▁become	10
▁brick	10
▁brother	10
▁budget	10
▁burn	10
▁cancer	10
▁cessation	10
▁conce	10
▁conj	10
▁contract	10
▁convert	10
▁copper	10
▁cow	10
▁created	10
▁cult	10
▁ded	10
▁devastation	10
▁distill	10
▁diversification	10
▁door	10
▁driver	10
▁dw	10
▁electric	10
▁energy	10
▁engineering	10
▁enter	10
▁equipment	10
▁exam	10
▁fact	10
▁fav	10
▁features	10
▁field	10
▁forming	10
▁fully	10
▁fund	10
▁gent	10
▁got	10
▁imperfect	10
▁implied	10
▁insp	10
▁installation	10
▁instead	10
▁integration	10
▁jail	10
▁kind	10
▁left	10
▁leisure	10
▁lie	10
▁lifelong	10
▁linear	10
▁looking	10
▁lord	10
▁makes	10
▁male	10
▁margin	10
▁mate	10
▁meat	10
▁medi	10
▁ment	10
▁millions	10
▁muscle	10
▁natural	10
▁normal	10
▁overly	10
▁parental	10
▁park	10
▁pattern	10
▁pill	10
▁points	10
▁print	10
▁proactive	10
▁problem	10
▁profess	10
▁quarries	10
▁really	10
▁rece	10
▁receipt	10
▁recover	10
▁retain	10
▁rhetoric	10
▁rid	10
▁ridic	10
▁shock	10
▁sick	10
▁slowing	10
▁solar	10
▁spo	10
▁sport	10
▁stars	10
▁tob	10
▁token	10
▁transc	10
▁wholes	10
▁word	10
に	10
ま	10
り	10
カ	10
キ	10
デ	10
保	10
国	10
年	10
廣	10
新	10
環	10
电	10
番	10
网	10
轴	10
野	10
马	10
다	10
지	10
👭	10
🔥	10
(8)	9
352)	9
AIDS	9
Afric	9
Catalyst	9
EAR	9
ICATION	9
IGN	9
Mr	9
PES	9
Turkey	9
Ukraine	9
activity	9
ankind	9
anned	9
antly	9
apsed	9
around	9
arters	9
atical	9
atures	9
balance	9
bands	9
bsites	9
buil	9
call	9
celona	9
cember	9
chelles	9
condition	9
country	9
current	9
duction	9
eca	9
eding	9
elong	9
erget	9
ergies	9
ersed	9
ership	9
finance	9
former	9
handling	9
hered	9
hrop	9
iances	9
icide	9
icient	9
icism	9
ifferent	9
imated	9
iped	9
ipment	9
issions	9
itative	9
itism	9
itous	9
ivities	9
keeping	9
lease	9
liness	9
lude	9
lusions	9
nez	9
nica	9
note	9
ogues	9
oked	9
onance	9
ondershare	9
onial	9
orable	9
osting	9
ounding	9
ourced	9
oyal	9
places	9
plant	9
poll	9
pract	9
profit	9
project	9
qual	9
raded	9
ratt	9
rella	9
rench	9
riding	9
sed	9
sterdam	9
stim	9
strö	9
uated	9
uating	9
urement	9
utable	9
vere	9
vez	9
viation	9
yards	9
ée	9
ļ	9
ław	9
ƘO	9
ʌ	9
ʤ	9
˽	9
̧	9
Α	9
Ι	9
ϊ	9
И	9
У	9
یت	9
ः	9
ક	9
ร	9
Ọ	9
⇒	9
─	9
▁+352	9
▁-0	9
▁000.	9
▁16%	9
▁2050.	9
▁281	9
▁498	9
▁70)	9
▁Abbott	9
▁Advocate	9
▁Bly	9
▁Bulgarian	9
▁Bö	9
▁Cardiff	9
▁Chance	9
▁Conservative	9
▁Cox	9
▁Current	9
▁Danube	9
▁Directors	9
▁EIA	9
▁ENERGY	9
▁Eliz	9
▁Exact	9
▁Exe	9
▁FIS	9
▁Fifth	9
▁GENERAL	9
▁Governor	9
▁Greater	9
▁Hillary	9
▁Incre	9
▁Joa	9
▁Joint	9
▁Kabul	9
▁Korinth	9
▁Macron	9
▁Malays	9
▁Memo	9
▁Minutes	9
▁Montene	9
▁Morgan	9
▁Nassa	9
▁Newspaper	9
▁Organisation	9
▁PPE	9
▁Persons	9
▁Pé	9
▁Rechargeable	9
▁Response	9
▁Rhine	9
▁Ricardo	9
▁Risk	9
▁STR	9
▁Sahel	9
▁Serbian	9
▁Shia	9
▁Spirit	9
▁Taliban	9
▁Tobacco	9
▁USSR	9
▁VER	9
▁Viol	9
▁abort	9
▁abstract	9
▁aerona	9
▁aircraft	9
▁albeit	9
▁appeared	9
▁appl	9
▁areas	9
▁argu	9
▁audited	9
▁avail	9
▁avo	9
▁awarding	9
▁below	9
▁biotechn	9
▁blind	9
▁borrow	9
▁boss	9
▁bott	9
▁brain	9
▁broch	9
▁burst	9
▁chains	9
▁chance	9
▁client	9
▁collabor	9
▁commence	9
▁corro	9
▁cris	9
▁debt	9
▁diamonds	9
▁dispar	9
▁doesn	9
▁doubled	9
▁dup	9
▁eco	9
▁efficient	9
▁enl	9
▁enrich	9
▁err	9
▁estate	9
▁feel	9
▁fet	9
▁filter	9
▁fishing	9
▁fraud	9
▁fraudulent	9
▁freedom	9
▁fron	9
▁garden	9
▁grace	9
▁guide	9
▁herring	9
▁history	9
▁hold	9
▁hydrocarbon	9
▁imag	9
▁imposition	9
▁inde	9
▁industries	9
▁innovative	9
▁invaluable	9
▁job	9
▁join	9
▁joint	9
▁kayayy	9
▁legally	9
▁lines	9
▁maintain	9
▁might	9
▁mindset	9
▁minimum	9
▁mob	9
▁moder	9
▁moderation	9
▁modules	9
▁multip	9
▁multiple	9
▁museum	9
▁never	9
▁nick	9
▁nitrates	9
▁norms	9
▁obst	9
▁paved	9
▁pesticide	9
▁pharm	9
▁pie	9
▁pra	9
▁practitioners	9
▁prec	9
▁prote	9
▁protect	9
▁prox	9
▁recon	9
▁reper	9
▁repression	9
▁rs	9
▁scenes	9
▁send	9
▁services	9
▁sett	9
▁settings	9
▁sharply	9
▁shell	9
▁slowdown	9
▁soci	9
▁speakers	9
▁specific	9
▁specul	9
▁spont	9
▁stal	9
▁subscription	9
▁systems	9
▁temperature	9
▁tend	9
▁think	9
▁tour	9
▁tracks	9
▁translates	9
▁trend	9
▁triggering	9
▁try	9
▁unb	9
▁uncon	9
▁undeniable	9
▁unf	9
▁unpaid	9
▁unprecedented	9
▁useful	9
▁weeks	9
▁weigh	9
▁wid	9
▁€2	9
▁€5	9
『	9
』	9
あ	9
つ	9
ジ	9
三	9
功	9
名	9
在	9
定	9
平	9
手	9
料	9
東	9
様	9
橋	9
武	9
绉	9
送	9
重	9
金	9
알	9
저	9
🌹	9
🎤	9
😀	9
/2002	8
/2005	8
BG	8
ETING	8
Every	8
France	8
Group	8
IDS	8
IONS	8
IVERS	8
Just	8
LIS	8
Nord	8
President	8
TML	8
UAL	8
URES	8
Why	8
aceutical	8
acies	8
adian	8
affected	8
ailable	8
amitin	8
annes	8
aping	8
area	8
assy	8
atives	8
atories	8
charged	8
common	8
communications	8
control	8
def	8
dist	8
draul	8
east	8
edge	8
ellig	8
enced	8
ensity	8
erity	8
erous	8
ficial	8
gences	8
gering	8
gue	8
heart	8
htm	8
iated	8
idis	8
ilies	8
imed	8
indicators	8
inqu	8
ioxid	8
isers	8
isma	8
isms	8
istically	8
isure	8
itary	8
itated	8
ivating	8
keep	8
lder	8
lemn	8
night	8
ordin	8
party	8
pend	8
ponents	8
pread	8
prom	8
protection	8
raising	8
reness	8
ressive	8
riers	8
roat	8
rupting	8
sign	8
society	8
spring	8
standing	8
tegration	8
thing	8
tops	8
ughter	8
ulent	8
unal	8
useum	8
usions	8
utr	8
vance	8
vation	8
wagen	8
Æ	8
Ą	8
ę	8
Š	8
Ƥ	8
ǎ	8
ʃ	8
̂	8
ή	8
ц	8
ю	8
һ	8
ւ	8
ֳ	8
،	8
ء	8
ئ	8
્	8
ය	8
⁄4	8
₦	8
₹	8
▁$9	8
▁11.30	8
▁25)	8
▁Aegean	8
▁Azerbai	8
▁Battery	8
▁Bratislava	8
▁CEO	8
▁Collect	8
▁Committee	8
▁Compar	8
▁Corinthians	8
▁Could	8
▁Daul	8
▁Davos	8
▁Dayton	8
▁Dimit	8
▁Distrib	8
▁ECB	8
▁EUROPE	8
▁Economy	8
▁Fischer	8
▁Foreign	8
▁Gord	8
▁Groups	8
▁Hamas	8
▁Influ	8
▁Infrastructure	8
▁Isaiah	8
▁JING	8
▁Languages	8
▁Laos	8
▁Leone	8
▁Lithuanian	8
▁MEM	8
▁Malt	8
▁Marco	8
▁Minister	8
▁Mutual	8
▁Negoti	8
▁Never	8
▁Nos	8
▁Nuclear	8
▁Parties	8
▁Pillar	8
▁Prophet	8
▁Protocol	8
▁REC	8
▁REP	8
▁Rue	8
▁SEPA	8
▁Saturday	8
▁Scandinavian	8
▁Schroed	8
▁Should	8
▁Stability	8
▁Summary	8
▁Where	8
▁according	8
▁acqu	8
▁addition	8
▁adm	8
▁advertisements	8
▁amazing	8
▁anch	8
▁anxious	8
▁bears	8
▁bec	8
▁bip	8
▁broadly	8
▁ceilings	8
▁cities	8
▁college	8
▁comes	8
▁compact	8
▁comparative	8
▁configur	8
▁conn	8
▁constraints	8
▁correct	8
▁crash	8
▁criteria	8
▁cututt	8
▁death	8
▁depend	8
▁designs	8
▁dest	8
▁developed	8
▁diagn	8
▁dilig	8
▁directing	8
▁discern	8
▁documentation	8
▁does	8
▁downside	8
▁dried	8
▁eat	8
▁econom	8
▁educational	8
▁elaboration	8
▁else	8
▁empt	8
▁enh	8
▁enjoyed	8
▁entrust	8
▁epidemi	8
▁eup	8
▁event	8
▁excell	8
▁exclus	8
▁exempl	8
▁exped	8
▁explo	8
▁familiar	8
▁flaw	8
▁flora	8
▁formats	8
▁fost	8
▁frequency	8
▁friendly	8
▁gener	8
▁globe	8
▁gloss	8
▁gradu	8
▁grant	8
▁grass	8
▁hands	8
▁harmon	8
▁hind	8
▁horn	8
▁immense	8
▁impro	8
▁initial	8
▁integ	8
▁intellectual	8
▁interested	8
▁interloc	8
▁items	8
▁keep	8
▁labor	8
▁lax	8
▁leads	8
▁learn	8
▁lever	8
▁leverage	8
▁licens	8
▁luxury	8
▁message	8
▁mist	8
▁modern	8
▁moon	8
▁nor	8
▁note	8
▁overhaul	8
▁overse	8
▁packaging	8
▁perform	8
▁performance	8
▁pir	8
▁plus	8
▁police	8
▁pollutants	8
▁pour	8
▁practical	8
▁privacy	8
▁private	8
▁problems	8
▁production	8
▁purpose	8
▁push	8
▁quot	8
▁registering	8
▁report	8
▁required	8
▁research	8
▁reversing	8
▁role	8
▁room	8
▁scen	8
▁seas	8
▁sessions	8
▁sizes	8
▁something	8
▁speak	8
▁spin	8
▁spur	8
▁steel	8
▁step	8
▁suppliers	8
▁tack	8
▁taking	8
▁tape	8
▁tea	8
▁tender	8
▁three	8
▁ticket	8
▁toll	8
▁traceability	8
▁tradem	8
▁trading	8
▁unders	8
▁unex	8
▁unre	8
▁versa	8
▁vertical	8
▁waterway	8
▁welding	8
▁while	8
▁wireless	8
▁wonderful	8
▁к	8
▸	8
▾	8
☀	8
✅	8
❀	8
⠀	8
く	8
だ	8
よ	8
タ	8
ム	8
仕	8
全	8
分	8
区	8
南	8
纳	8
罗	8
美	8
賀	8
路	8
链	8
기	8
김	8
니	8
룸	8
본	8
줿	8
카	8
💗	8
🧚	8
/11/	7
/96	7
ANTS	7
ATED	7
COD	7
ERO	7
Euro	7
FER	7
ICs	7
OSO	7
SME	7
UTION	7
VIS	7
acro	7
addafi	7
after	7
agas	7
agine	7
aires	7
airman	7
anging	7
aning	7
apore	7
ategy	7
atrain	7
celeration	7
cipl	7
cles	7
coming	7
cyclical	7
dated	7
developed	7
doc	7
elie	7
elines	7
embers	7
ensive	7
eping	7
erated	7
ermans	7
ernal	7
esides	7
estival	7
fici	7
haust	7
held	7
hentic	7
herlands	7
hibition	7
ieving	7
ifiable	7
ighed	7
ighters	7
iii	7
ijk	7
illions	7
ilst	7
istries	7
isual	7
itial	7
learning	7
ludes	7
math	7
novation	7
oboda	7
oded	7
office	7
oil	7
orated	7
ordinated	7
orld	7
ouds	7
ounced	7
pled	7
price	7
products	7
quire	7
quiry	7
related	7
resent	7
riage	7
scale	7
second	7
stat	7
stated	7
struction	7
target	7
teen	7
that	7
tically	7
ubbing	7
urea	7
ustion	7
vable	7
velope	7
zech	7
zero	7
Ê	7
ń	7
Ŋ	7
Ż	7
ƙuru	7
ȡ	7
ʂ	7
ʊ	7
̍	7
͡	7
Ν	7
В	7
Ж	7
فان	7
ા	7
ข	7
ი	7
ს	7
‟	7
⋆	7
⌘	7
│	7
▁-0.	7
▁-4.	7
▁3355	7
▁344	7
▁Adapt	7
▁Advert	7
▁Ambassador	7
▁Americans	7
▁Appro	7
▁Bearing	7
▁Bosn	7
▁Brexit	7
▁Britt	7
▁COMP	7
▁CSR	7
▁CUR	7
▁Casp	7
▁Choose	7
▁Conver	7
▁Cotonou	7
▁DIR	7
▁Death	7
▁Doha	7
▁EEC	7
▁Ecc	7
▁Economic	7
▁Extra	7
▁Farmers	7
▁Fight	7
▁François	7
▁Galicia	7
▁Genoa	7
▁Günther	7
▁Iber	7
▁Initi	7
▁Jewish	7
▁Karas	7
▁Lama	7
▁Less	7
▁Loyola	7
▁MART	7
▁Margot	7
▁Meet	7
▁Mig	7
▁Mush	7
▁Nicolas	7
▁Opel	7
▁PAP	7
▁Political	7
▁Preferences	7
▁Removal	7
▁Renault	7
▁Renew	7
▁Russ	7
▁Ré	7
▁SIS	7
▁SME	7
▁Scand	7
▁Serb	7
▁Stalin	7
▁Stones	7
▁Strategic	7
▁Subscribe	7
▁Theology	7
▁They	7
▁Through	7
▁Treatment	7
▁Turks	7
▁Vest	7
▁Veter	7
▁Vinci	7
▁Volks	7
▁WIT	7
▁Website	7
▁Witness	7
▁XIV	7
▁aid	7
▁along	7
▁always	7
▁among	7
▁anc	7
▁animal	7
▁anom	7
▁architecture	7
▁assess	7
▁asset	7
▁asy	7
▁attend	7
▁autonom	7
▁away	7
▁bargaining	7
▁based	7
▁billion	7
▁bloc	7
▁blood	7
▁blueprint	7
▁bog	7
▁bold	7
▁budgeting	7
▁capability	7
▁catch	7
▁caus	7
▁certified	7
▁change	7
▁choice	7
▁coast	7
▁cogn	7
▁components	7
▁consent	7
▁corporations	7
▁council	7
▁creative	7
▁credit	7
▁crews	7
▁daily	7
▁decentral	7
▁demon	7
▁destination	7
▁develop	7
▁dism	7
▁display	7
▁educ	7
▁elab	7
▁employability	7
▁enabling	7
▁energet	7
▁entails	7
▁ever	7
▁expensive	7
▁expl	7
▁eyes	7
▁five	7
▁flight	7
▁flour	7
▁fluct	7
▁foreign	7
▁fronts	7
▁fruit	7
▁gives	7
▁going	7
▁handicaps	7
▁hosted	7
▁hundred	7
▁impetus	7
▁impl	7
▁improper	7
▁incred	7
▁indicator	7
▁ineff	7
▁infin	7
▁infrastructure	7
▁innov	7
▁insisting	7
▁kne	7
▁lack	7
▁letters	7
▁lev	7
▁making	7
▁manip	7
▁materials	7
▁merged	7
▁moment	7
▁mort	7
▁municipalities	7
▁murde	7
▁narrow	7
▁networking	7
▁neutral	7
▁often	7
▁operating	7
▁opted	7
▁optical	7
▁orient	7
▁parcel	7
▁pers	7
▁pilot	7
▁planet	7
▁platforms	7
▁polar	7
▁portability	7
▁possible	7
▁pract	7
▁prem	7
▁present	7
▁prevalent	7
▁pries	7
▁priests	7
▁processes	7
▁produ	7
▁promin	7
▁propri	7
▁protection	7
▁provides	7
▁puzz	7
▁quant	7
▁rational	7
▁ready	7
▁reason	7
▁receive	7
▁record	7
▁refunds	7
▁regional	7
▁remed	7
▁remote	7
▁require	7
▁resc	7
▁scarcity	7
▁screw	7
▁sear	7
▁simplistic	7
▁socioeconomic	7
▁sore	7
▁split	7
▁spon	7
▁spot	7
▁stereotypes	7
▁stick	7
▁stif	7
▁stip	7
▁streamlined	7
▁subcontract	7
▁subject	7
▁summer	7
▁sup	7
▁supplement	7
▁teach	7
▁terr	7
▁thanks	7
▁together	7
▁tort	7
▁tourist	7
▁traum	7
▁traveling	7
▁treatment	7
▁troub	7
▁unch	7
▁unde	7
▁unh	7
▁unsafe	7
▁uses	7
▁virt	7
▁vot	7
▁wage	7
▁wait	7
▁wasting	7
▁weaker	7
▁welcome	7
▁whole	7
▁within	7
▁written	7
▁xen	7
▁young	7
▁zero	7
▁ƴ	7
◄	7
♂	7
♎	7
➤	7
〇	7
す	7
た	7
パ	7
ワ	7
井	7
以	7
圣	7
坦	7
夜	7
夫	7
女	7
寸	7
尺	7
巴	7
形	7
彩	7
株	7
段	7
沙	7
滋	7
索	7
纸	7
道	7
量	7
高	7
관	7
브	7
소	7
안	7
야	7
자	7
징	7
쿠	7
하	7
형	7
👑	7
😘	7
.>	6
/2006	6
6-00	6
African	6
Aid	6
Council	6
Den	6
Europe	6
FORM	6
ORK	6
Phase	6
VES	6
WTO	6
achment	6
ackage	6
acked	6
amble	6
apse	6
atten	6
aved	6
awei	6
bania	6
break	6
change	6
cific	6
ciplinary	6
dao	6
dorf	6
elled	6
engers	6
erations	6
erved	6
ething	6
eties	6
exchange	6
fact	6
fered	6
fits	6
fund	6
ighth	6
ilty	6
imakin	6
interest	6
iov	6
itating	6
itious	6
kop	6
lander	6
landers	6
lead	6
ledge	6
legram	6
levant	6
lined	6
lymp	6
matism	6
meal	6
mination	6
neys	6
okers	6
oned	6
operation	6
opoulos	6
origin	6
orry	6
ourage	6
oval	6
oviet	6
partic	6
pendent	6
perature	6
ported	6
ptions	6
rary	6
ratic	6
regional	6
rights	6
ription	6
roche	6
scribe	6
sels	6
sharing	6
sibly	6
thood	6
transport	6
ucco	6
uine	6
ulative	6
uled	6
ulty	6
unctioning	6
urally	6
utors	6
ventional	6
vironment	6
voire	6
zheimer	6
zio	6
¬	6
À	6
Û	6
÷	6
ński	6
ż	6
ǝ	6
Ȃ	6
ɑ	6
ʋ	6
ʕ	6
̓	6
̫	6
΍	6
Β	6
Ε	6
Ϊ	6
Ц	6
щ	6
ѕ	6
ર	6
સ	6
ો	6
ත	6
ර	6
ว	6
ầ	6
ụ	6
‒	6
―	6
‡	6
∞	6
▁%.	6
▁(€	6
▁-1.	6
▁2.5%	6
▁21)	6
▁546	6
▁621	6
▁Acts	6
▁Adop	6
▁BUSINESS	6
▁Because	6
▁Bikini	6
▁COMM	6
▁CSF	6
▁Chic	6
▁Conservatives	6
▁Convention	6
▁Cres	6
▁Croatian	6
▁Czechos	6
▁Côte	6
▁Democrats	6
▁Developing	6
▁EEA	6
▁ESC	6
▁Ens	6
▁Eurozone	6
▁FINAN	6
▁FROM	6
▁Fernand	6
▁Fron	6
▁GOR	6
▁GSP	6
▁Gaelic	6
▁Georgian	6
▁Harbour	6
▁Harmon	6
▁Initial	6
▁Innovative	6
▁Integ	6
▁Kosovo	6
▁Kremlin	6
▁Leaders	6
▁Mayor	6
▁Military	6
▁NOT	6
▁Offic	6
▁Pala	6
▁Parents	6
▁Pipe	6
▁Poll	6
▁Presidential	6
▁Problem	6
▁Produc	6
▁Return	6
▁STA	6
▁Scheme	6
▁Seven	6
▁Seville	6
▁Silva	6
▁Soci	6
▁Socrates	6
▁Telephone	6
▁Two	6
▁VIS	6
▁Weber	6
▁abnorm	6
▁above	6
▁acad	6
▁academic	6
▁achievable	6
▁activities	6
▁actual	6
▁adj	6
▁advanced	6
▁advent	6
▁advert	6
▁allowance	6
▁allowances	6
▁already	6
▁arbit	6
▁assert	6
▁ath	6
▁attention	6
▁audiovisual	6
▁authentic	6
▁automatic	6
▁automatically	6
▁aux	6
▁average	6
▁award	6
▁bacter	6
▁bankers	6
▁bans	6
▁bapt	6
▁behav	6
▁boat	6
▁both	6
▁broad	6
▁building	6
▁bypass	6
▁cab	6
▁came	6
▁candidates	6
▁century	6
▁chain	6
▁child	6
▁circuit	6
▁cleans	6
▁clients	6
▁cloning	6
▁cong	6
▁contin	6
▁cooperative	6
▁corporate	6
▁corrupt	6
▁counteract	6
▁crossings	6
▁current	6
▁cushion	6
▁declines	6
▁deduct	6
▁deem	6
▁demand	6
▁demographic	6
▁designed	6
▁devote	6
▁digit	6
▁dilem	6
▁disadvantages	6
▁discont	6
▁discrepancies	6
▁disrupted	6
▁doctor	6
▁doping	6
▁doub	6
▁double	6
▁during	6
▁editors	6
▁effici	6
▁egg	6
▁enforce	6
▁enjoy	6
▁ensure	6
▁ess	6
▁evangel	6
▁everyone	6
▁exchanges	6
▁excluded	6
▁exports	6
▁expos	6
▁financial	6
▁fingerprint	6
▁flo	6
▁fool	6
▁force	6
▁formalities	6
▁former	6
▁friend	6
▁furn	6
▁gambling	6
▁geographically	6
▁golden	6
▁grey	6
▁growth	6
▁guest	6
▁guidelines	6
▁gwi	6
▁having	6
▁highlights	6
▁honey	6
▁hurd	6
▁impart	6
▁important	6
▁incineration	6
▁inconsist	6
▁indisput	6
▁industrial	6
▁initi	6
▁insol	6
▁intellig	6
▁intelligent	6
▁interf	6
▁internal	6
▁intervention	6
▁investing	6
▁invo	6
▁island	6
▁isol	6
▁issues	6
▁iv	6
▁known	6
▁leakage	6
▁lights	6
▁living	6
▁lov	6
▁loved	6
▁lunch	6
▁maximize	6
▁medical	6
▁metal	6
▁migrant	6
▁minors	6
▁minute	6
▁motion	6
▁mountain	6
▁mouth	6
▁neo	6
▁norm	6
▁nothing	6
▁notorious	6
▁occup	6
▁offerings	6
▁operation	6
▁orders	6
▁outwe	6
▁oversee	6
▁owners	6
▁paradox	6
▁petition	6
▁plans	6
▁poorer	6
▁priest	6
▁produce	6
▁professional	6
▁projects	6
▁promot	6
▁purch	6
▁rav	6
▁reception	6
▁recomm	6
▁recommended	6
▁recovery	6
▁reform	6
▁refund	6
▁region	6
▁renow	6
▁reop	6
▁repeat	6
▁resort	6
▁restaurants	6
▁roof	6
▁routine	6
▁samples	6
▁save	6
▁science	6
▁secret	6
▁shif	6
▁shortcomings	6
▁six	6
▁someone	6
▁spec	6
▁stew	6
▁still	6
▁strands	6
▁suit	6
▁superfluous	6
▁superv	6
▁systemic	6
▁tach	6
▁takes	6
▁teaching	6
▁tell	6
▁tenders	6
▁though	6
▁thought	6
▁tickets	6
▁tide	6
▁upper	6
▁vigorously	6
▁visitors	6
▁warning	6
▁wish	6
▁withstand	6
♣	6
⚡	6
❝	6
❞	6
➜	6
さ	6
フ	6
刀	6
县	6
場	6
寺	6
布	6
法	6
特	6
獅	6
率	6
环	6
直	6
練	6
聋	6
裁	6
证	6
达	6
馆	6
馬	6
고	6
란	6
마	6
말	6
복	6
부	6
샤	6
양	6
에	6
오	6
의	6
키	6
트	6
	6
	6
🇦	6
😂	6
🙁	6
/06/	5
/220	5
5-00	5
9/	5
ADC	5
ATES	5
EEC	5
ERAL	5
German	5
Germany	5
HAO	5
ICES	5
ILITY	5
Let	5
MIT	5
NER	5
PORT	5
ROV	5
TAIN	5
TEN	5
THE	5
THER	5
TRY	5
Western	5
acters	5
administ	5
advant	5
ancial	5
arded	5
arer	5
ariat	5
arios	5
arraf	5
asant	5
astes	5
ategies	5
atisf	5
atively	5
beit	5
chester	5
cip	5
cision	5
community	5
compl	5
cultural	5
dez	5
due	5
dule	5
eded	5
emann	5
encing	5
endix	5
ensitive	5
ensus	5
entieth	5
eren	5
erers	5
erior	5
etically	5
etime	5
fav	5
fired	5
fishing	5
gered	5
gio	5
hamed	5
headed	5
holder	5
ician	5
ickers	5
idered	5
igenous	5
ighted	5
inct	5
inking	5
inned	5
invest	5
ipher	5
irect	5
issue	5
itations	5
itime	5
itzerland	5
ivest	5
keepers	5
lessness	5
linked	5
lusion	5
mble	5
mbly	5
mouth	5
ocracy	5
ogene	5
ologically	5
olved	5
ophobia	5
osystem	5
ovine	5
ová	5
ozy	5
paid	5
pares	5
pons	5
proc	5
production	5
public	5
qh	5
racted	5
reading	5
rely	5
renched	5
retch	5
rolled	5
secret	5
secure	5
serv	5
services	5
session	5
sing	5
thetic	5
thodox	5
uations	5
ubarak	5
uclear	5
uels	5
uese	5
ught	5
ulence	5
umbling	5
union	5
urity	5
usible	5
usive	5
usters	5
ustrial	5
visual	5
voc	5
where	5
xit	5
xture	5
xty	5
yright	5
zbek	5
Ñ	5
éd	5
ún	5
ģ	5
ĥ	5
Ŕ	5
ť	5
Ū	5
Ÿ	5
ƒ	5
ƙila	5
ƥ	5
ǒ	5
ǰ	5
ɲ	5
ɽ	5
ʻ	5
ʽ	5
ʾ	5
ʿ	5
̌	5
̎	5
̔	5
̕	5
Δ	5
Η	5
Χ	5
Ы	5
Ҫ	5
Ә	5
Ր	5
ն	5
ג	5
ז	5
مت	5
ٍ	5
یع	5
்	5
ල	5
්	5
่	5
რ	5
₩	5
▁-,	5
▁."	5
▁000,	5
▁1.5%	5
▁2030,	5
▁2050,	5
▁AFF	5
▁Abkhazia	5
▁Additional	5
▁Adjust	5
▁Advis	5
▁Affairs	5
▁Agreements	5
▁Alexandre	5
▁Also	5
▁Appe	5
▁Applications	5
▁Arafat	5
▁Argent	5
▁Armaged	5
▁Biological	5
▁Borg	5
▁Brok	5
▁Bureau	5
▁Burundi	5
▁CARD	5
▁COUN	5
▁Catalonia	5
▁Centres	5
▁Certific	5
▁Coalition	5
▁Coordinator	5
▁DEC	5
▁Dalai	5
▁Daphne	5
▁Deleg	5
▁EDF	5
▁ETS	5
▁Electricity	5
▁Emerg	5
▁Erika	5
▁Essen	5
▁Even	5
▁Fail	5
▁Fals	5
▁Flore	5
▁Following	5
▁Galileo	5
▁Give	5
▁Gross	5
▁Guarantee	5
▁Hadith	5
▁INTER	5
▁Integration	5
▁Internal	5
▁JAP	5
▁Keep	5
▁Keynes	5
▁Kurdish	5
▁Kyrgyz	5
▁LIFE	5
▁Looking	5
▁Mexic	5
▁Migration	5
▁Millions	5
▁Moroccan	5
▁Mundus	5
▁Permanent	5
▁Please	5
▁Prin	5
▁Prob	5
▁Protecting	5
▁Quartet	5
▁Quite	5
▁Reagan	5
▁Require	5
▁SCH	5
▁Schmid	5
▁Serbs	5
▁Six	5
▁Summ	5
▁Syrian	5
▁TEN	5
▁Thatcher	5
▁Thessaloniki	5
▁Third	5
▁Those	5
▁Universities	5
▁Useful	5
▁Violence	5
▁WORK	5
▁Welfare	5
▁Why	5
▁Zaire	5
▁[1.	5
▁abroad	5
▁accept	5
▁accessible	5
▁accident	5
▁across	5
▁activation	5
▁additional	5
▁advertise	5
▁aforementioned	5
▁against	5
▁aim	5
▁allevi	5
▁amount	5
▁anchor	5
▁angle	5
▁another	5
▁answer	5
▁apolog	5
▁asse	5
▁atmosp	5
▁attack	5
▁attent	5
▁background	5
▁battery	5
▁becomes	5
▁begin	5
▁behavior	5
▁being	5
▁blocks	5
▁bolster	5
▁books	5
▁breakfast	5
▁bridge	5
▁brilliant	5
▁budgets	5
▁built	5
▁cabin	5
▁cable	5
▁camera	5
▁cannot	5
▁carpet	5
▁centre	5
▁certain	5
▁checking	5
▁chemical	5
▁choose	5
▁clears	5
▁cold	5
▁combination	5
▁comfortable	5
▁coming	5
▁common	5
▁communic	5
▁community	5
▁compar	5
▁complemented	5
▁complements	5
▁concept	5
▁conservation	5
▁consult	5
▁contractual	5
▁contrast	5
▁convers	5
▁conversion	5
▁corresponding	5
▁courts	5
▁create	5
▁culture	5
▁cush	5
▁cust	5
▁cutting	5
▁damage	5
▁dece	5
▁decision	5
▁deploy	5
▁depreciation	5
▁descend	5
▁director	5
▁dishon	5
▁dispos	5
▁distin	5
▁distrib	5
▁diver	5
▁document	5
▁done	5
▁drivers	5
▁dynam	5
▁earm	5
▁educate	5
▁electronic	5
▁employees	5
▁engineers	5
▁enhancement	5
▁enough	5
▁era	5
▁evolution	5
▁excellent	5
▁exchange	5
▁exclusive	5
▁expand	5
▁expression	5
▁eye	5
▁faculty	5
▁faith	5
▁favorite	5
▁fear	5
▁femin	5
▁fing	5
▁focuss	5
▁fostering	5
▁further	5
▁gate	5
▁generate	5
▁given	5
▁goal	5
▁government	5
▁health	5
▁hearing	5
▁helps	5
▁higher	5
▁highlighted	5
▁however	5
▁huge	5
▁hugely	5
▁hurt	5
▁implement	5
▁impul	5
▁incin	5
▁income	5
▁incon	5
▁inconven	5
▁incor	5
▁inside	5
▁insolvency	5
▁installed	5
▁instinct	5
▁jew	5
▁jour	5
▁justify	5
▁lamp	5
▁languages	5
▁large	5
▁least	5
▁leave	5
▁legal	5
▁limit	5
▁linguistic	5
▁listed	5
▁lost	5
▁lower	5
▁machinery	5
▁manifest	5
▁manipulation	5
▁march	5
▁maritime	5
▁marketplace	5
▁married	5
▁mathem	5
▁mature	5
▁means	5
▁mech	5
▁mechanical	5
▁member	5
▁mercury	5
▁meter	5
▁milk	5
▁minister	5
▁named	5
▁near	5
▁nervous	5
▁north	5
▁nurs	5
▁obs	5
▁organizations	5
▁outweigh	5
▁overha	5
▁parallel	5
▁particip	5
▁paves	5
▁peace	5
▁perfectly	5
▁peripher	5
▁pieces	5
▁places	5
▁playing	5
▁polit	5
▁pollut	5
▁powerful	5
▁prag	5
▁presents	5
▁pressure	5
▁prices	5
▁primacy	5
▁prior	5
▁prize	5
▁produc	5
▁pronounced	5
▁properties	5
▁prophet	5
▁proportion	5
▁prospect	5
▁qual	5
▁quickly	5
▁reaction	5
▁recip	5
▁recur	5
▁redund	5
▁regist	5
▁regulator	5
▁reim	5
▁reinforcing	5
▁remember	5
▁remov	5
▁repet	5
▁replies	5
▁repro	5
▁respon	5
▁restaurant	5
▁revel	5
▁rival	5
▁roller	5
▁royal	5
▁rue	5
▁schol	5
▁scrap	5
▁seaf	5
▁secure	5
▁selected	5
▁separ	5
▁servers	5
▁shall	5
▁sharp	5
▁shore	5
▁sight	5
▁significant	5
▁similar	5
▁simply	5
▁since	5
▁sister	5
▁slightly	5
▁slogan	5
▁society	5
▁soph	5
▁sorrow	5
▁spark	5
▁speech	5
▁spell	5
▁staff	5
▁starting	5
▁stead	5
▁stores	5
▁streamlining	5
▁strength	5
▁summed	5
▁summits	5
▁suppl	5
▁sweep	5
▁swine	5
▁switching	5
▁synerg	5
▁tables	5
▁talent	5
▁teachers	5
▁terms	5
▁thoughts	5
▁thriving	5
▁tick	5
▁tonn	5
▁tools	5
▁toxic	5
▁trad	5
▁trade	5
▁traditional	5
▁trains	5
▁trial	5
▁true	5
▁typically	5
▁unim	5
▁unit	5
▁units	5
▁univers	5
▁universities	5
▁unsatisfactory	5
▁unst	5
▁upg	5
▁uranium	5
▁valu	5
▁various	5
▁vary	5
▁vastly	5
▁vig	5
▁viral	5
▁wary	5
▁whist	5
▁why	5
▁widened	5
▁width	5
▁wine	5
▁winter	5
▁words	5
▁worth	5
▁wre	5
▁ww	5
▽	5
◊	5
☞	5
♡	5
❖	5
そ	5
び	5
ん	5
ゥ	5
シ	5
ノ	5
バ	5
プ	5
ポ	5
ロ	5
假	5
关	5
円	5
初	5
合	5
哥	5
图	5
址	5
基	5
宿	5
川	5
式	5
心	5
愛	5
成	5
承	5
杩	5
検	5
気	5
濂	5
町	5
花	5
莱	5
華	5
蓬	5
袋	5
诺	5
速	5
页	5
首	5
鲁	5
과	5
덕	5
뤵	5
미	5
및	5
선	5
세	5
수	5
주	5
진	5
크	5
툴	5
푸	5
	5
🌷	5
🏽	5
👉	5
💓	5
💜	5
💝	5
💰	5
🤣	5
󥹥	5
/00	4
/10/	4
/2000	4
ALD	4
Austria	4
CAP	4
ESSES	4
GES	4
GET	4
LER	4
LIC	4
Member	4
Motion	4
NOW	4
NUM	4
Russ	4
SMEs	4
STR	4
UEL	4
abetes	4
abeth	4
aggage	4
ailing	4
akky	4
alous	4
anean	4
annual	4
apses	4
arantee	4
artite	4
atellites	4
atible	4
bourg	4
cedes	4
changing	4
cian	4
cile	4
come	4
coni	4
crime	4
development	4
docu	4
downs	4
ecutive	4
eing	4
elles	4
ensen	4
environment	4
eous	4
eras	4
erring	4
gues	4
handed	4
holders	4
icable	4
icating	4
icides	4
icultural	4
ifest	4
ifiably	4
ijs	4
ilipp	4
iminal	4
imited	4
indic	4
ioned	4
irds	4
itarian	4
ivable	4
ivil	4
leep	4
legal	4
luded	4
manship	4
nist	4
notes	4
ocating	4
ocations	4
olit	4
ommod	4
onies	4
opoly	4
opular	4
orates	4
orinth	4
orses	4
oser	4
osure	4
oure	4
ourg	4
ovolta	4
pective	4
pelled	4
policy	4
pport	4
publications	4
rained	4
regulated	4
relations	4
rers	4
rians	4
roads	4
role	4
ruption	4
save	4
shed	4
sheet	4
skilled	4
stage	4
stay	4
still	4
supp	4
tenstein	4
ternal	4
ticles	4
tiers	4
trad	4
trade	4
uling	4
unate	4
unte	4
uthors	4
utral	4
utrality	4
veys	4
vign	4
vious	4
while	4
who	4
ylvania	4
	4
	4
	4
¿	4
Ì	4
Î	4
Đ	4
ė	4
ő	4
ų	4
ư	4
ƴ	4
Ƶ	4
Ǥ	4
ǥ	4
ț	4
ɐ	4
ɖ	4
ɾ	4
ˉ	4
˵	4
̅	4
̒	4
̪	4
̱	4
Ϥ	4
І	4
Й	4
ї	4
ҵ	4
ҹ	4
Ա	4
Դ	4
ո	4
վ	4
ָ	4
ׁ	4
׷	4
قیه	4
نی	4
ٰ	4
پیامبر	4
ߋ	4
न	4
ी	4
ન	4
ද	4
ම	4
ท	4
ั	4
เ	4
้	4
დ	4
በ	4
አ	4
ṁ	4
ṉ	4
‧	4
₴	4
∧	4
≧	4
≫	4
└	4
▀	4
▁-3.	4
▁Advertise	4
▁Against	4
▁Allow	4
▁Americ	4
▁Annex	4
▁Another	4
▁António	4
▁Applic	4
▁Ashton	4
▁Auditors	4
▁Background	4
▁Bags	4
▁Benefits	4
▁CEC	4
▁Camer	4
▁Cancún	4
▁Castro	4
▁Caucasus	4
▁Chair	4
▁Christmas	4
▁Colombian	4
▁Compl	4
▁Consultation	4
▁Consumer	4
▁Cooperation	4
▁Crisis	4
▁DISC	4
▁Darfur	4
▁Depos	4
▁Documents	4
▁EQU	4
▁ETA	4
▁Eas	4
▁Emergency	4
▁Employ	4
▁Entrepreneur	4
▁Flynn	4
▁Fourth	4
▁GMOs	4
▁Galile	4
▁García	4
▁Govern	4
▁Gün	4
▁HEALTH	4
▁Hezbollah	4
▁Homepage	4
▁ICAO	4
▁Integrated	4
▁Intellectual	4
▁Intervention	4
▁Israeli	4
▁Kaliningrad	4
▁Kohl	4
▁Lamber	4
▁Later	4
▁MEDIA	4
▁MEP	4
▁Marisa	4
▁Mitchell	4
▁Mogherini	4
▁Monter	4
▁Mosc	4
▁Moses	4
▁Naij	4
▁Natasha	4
▁Noah	4
▁OECD	4
▁Oft	4
▁PRE	4
▁Pray	4
▁Prem	4
▁Prevent	4
▁Professor	4
▁Psalm	4
▁Put	4
▁QE	4
▁REN	4
▁Reform	4
▁Republicans	4
▁Reserved	4
▁Respon	4
▁Romans	4
▁SPA	4
▁Secretary	4
▁Slov	4
▁Stavros	4
▁Still	4
▁Suppl	4
▁TOT	4
▁TRANSP	4
▁Thank	4
▁Their	4
▁Torres	4
▁Transparency	4
▁UNION	4
▁Understanding	4
▁Vitor	4
▁WASH	4
▁Workers	4
▁Wynn	4
▁``	4
▁actions	4
▁adaptations	4
▁administr	4
▁adv	4
▁advantage	4
▁advantages	4
▁aerospace	4
▁afford	4
▁agent	4
▁agreement	4
▁airport	4
▁ambiguity	4
▁amounted	4
▁announced	4
▁appet	4
▁apply	4
▁apprentices	4
▁arsen	4
▁asc	4
▁assign	4
▁automotive	4
▁basin	4
▁beat	4
▁behold	4
▁belt	4
▁beyond	4
▁biof	4
▁birth	4
▁boats	4
▁bonuses	4
▁bottle	4
▁breaches	4
▁broadcast	4
▁burd	4
▁bust	4
▁cabinet	4
▁called	4
▁capacity	4
▁categories	4
▁cells	4
▁cement	4
▁centr	4
▁central	4
▁cents	4
▁chairman	4
▁chang	4
▁chest	4
▁choices	4
▁church	4
▁cla	4
▁clear	4
▁clin	4
▁coach	4
▁coal	4
▁cohesive	4
▁commend	4
▁commercial	4
▁companies	4
▁compens	4
▁consec	4
▁consider	4
▁consist	4
▁container	4
▁contrad	4
▁conven	4
▁conventions	4
▁corpor	4
▁corre	4
▁couple	4
▁courses	4
▁cred	4
▁crises	4
▁critical	4
▁cul	4
▁cure	4
▁debating	4
▁decided	4
▁deepest	4
▁dement	4
▁depending	4
▁depression	4
▁deput	4
▁desp	4
▁deter	4
▁didn	4
▁diesel	4
▁differentials	4
▁difficult	4
▁discontent	4
▁discrimin	4
▁disease	4
▁distress	4
▁dollars	4
▁domestically	4
▁dream	4
▁dreams	4
▁dé	4
▁easily	4
▁easing	4
▁effic	4
▁efficiency	4
▁elev	4
▁elimin	4
▁eliminating	4
▁elite	4
▁embry	4
▁employ	4
▁engines	4
▁enhance	4
▁enrichment	4
▁enterprises	4
▁entrepreneurs	4
▁envelope	4
▁equipped	4
▁equival	4
▁erup	4
▁examination	4
▁executive	4
▁exert	4
▁exist	4
▁expects	4
▁experiences	4
▁expert	4
▁extens	4
▁extreme	4
▁facilities	4
▁fascin	4
▁fields	4
▁finding	4
▁flame	4
▁flexible	4
▁flooring	4
▁followed	4
▁foresee	4
▁forest	4
▁forever	4
▁forg	4
▁forget	4
▁forms	4
▁formula	4
▁foundation	4
▁future	4
▁gangs	4
▁generals	4
▁generations	4
▁generic	4
▁genetically	4
▁geography	4
▁globalization	4
▁governor	4
▁grouping	4
▁grow	4
▁guarantee	4
▁handle	4
▁happens	4
▁harm	4
▁harness	4
▁harsh	4
▁heads	4
▁hedge	4
▁hier	4
▁hint	4
▁histor	4
▁hosp	4
▁houses	4
▁humb	4
▁impression	4
▁inflex	4
▁infringed	4
▁ingan	4
▁input	4
▁integral	4
▁intense	4
▁interrupt	4
▁issu	4
▁issue	4
▁issuers	4
▁journalists	4
▁jud	4
▁knock	4
▁kwamf	4
▁ladies	4
▁lands	4
▁lean	4
▁leather	4
▁levied	4
▁lic	4
▁licensed	4
▁lies	4
▁liquid	4
▁lobbying	4
▁longer	4
▁looks	4
▁looming	4
▁loose	4
▁luc	4
▁lucrative	4
▁lump	4
▁mackerel	4
▁mainly	4
▁maintenance	4
▁manager	4
▁manufacturers	4
▁maybe	4
▁mean	4
▁meaning	4
▁mere	4
▁mergers	4
▁methods	4
▁migr	4
▁ministry	4
▁mira	4
▁mission	4
▁modification	4
▁modulation	4
▁monitor	4
▁morning	4
▁multinational	4
▁narc	4
▁nation	4
▁native	4
▁nearly	4
▁needed	4
▁nomin	4
▁notwithstanding	4
▁ocean	4
▁offic	4
▁offset	4
▁organization	4
▁organized	4
▁outside	4
▁oversh	4
▁overview	4
▁pace	4
▁pair	4
▁parity	4
▁patient	4
▁pecul	4
▁peer	4
▁phr	4
▁plane	4
▁played	4
▁plays	4
▁popul	4
▁positioning	4
▁preach	4
▁precip	4
▁predomin	4
▁preferential	4
▁prepar	4
▁prepare	4
▁prepared	4
▁prest	4
▁proced	4
▁procedures	4
▁processing	4
▁profit	4
▁prolong	4
▁proteins	4
▁provider	4
▁prud	4
▁psychological	4
▁qualified	4
▁qualitative	4
▁radically	4
▁rail	4
▁random	4
▁rear	4
▁recogn	4
▁redirect	4
▁redistribution	4
▁regarding	4
▁regular	4
▁regulated	4
▁reign	4
▁relatively	4
▁reliable	4
▁render	4
▁repay	4
▁reported	4
▁resistance	4
▁respiratory	4
▁responsibility	4
▁restart	4
▁resumed	4
▁revers	4
▁reverse	4
▁rigorous	4
▁rooms	4
▁ruin	4
▁rule	4
▁rules	4
▁safeguards	4
▁salt	4
▁scrutin	4
▁secre	4
▁sector	4
▁seen	4
▁several	4
▁shadow	4
▁shap	4
▁shape	4
▁silver	4
▁sitting	4
▁sizeable	4
▁solely	4
▁soon	4
▁specialized	4
▁spectac	4
▁spp	4
▁stagnation	4
▁stig	4
▁strateg	4
▁strip	4
▁strong	4
▁substant	4
▁supermarket	4
▁supply	4
▁tariffs	4
▁taxation	4
▁taxes	4
▁techniques	4
▁term	4
▁themes	4
▁throughout	4
▁tired	4
▁topics	4
▁tougher	4
▁tow	4
▁traff	4
▁transform	4
▁trem	4
▁unconventional	4
▁unfav	4
▁unitary	4
▁unlike	4
▁unpredictable	4
▁unus	4
▁upon	4
▁urban	4
▁vague	4
▁variable	4
▁victory	4
▁vind	4
▁vitality	4
▁voice	4
▁volume	4
▁ways	4
▁west	4
▁widen	4
▁widening	4
▁wield	4
▁wis	4
▁wise	4
▁wonder	4
▁wor	4
▁write	4
♌	4
♍	4
♏	4
✨	4
《	4
》	4
が	4
ご	4
て	4
む	4
や	4
ェ	4
ケ	4
サ	4
ダ	4
チ	4
ド	4
ビ	4
ミ	4
メ	4
レ	4
一	4
于	4
人	4
伯	4
作	4
免	4
列	4
到	4
午	4
厚	4
叉	4
可	4
吉	4
器	4
圆	4
备	4
外	4
寅	4
屋	4
工	4
床	4
廊	4
径	4
指	4
斩	4
曲	4
村	4
桑	4
泉	4
演	4
無	4
牌	4
牙	4
牛	4
牡	4
理	4
甘	4
用	4
砂	4
票	4
科	4
秒	4
站	4
级	4
肅	4
能	4
舞	4
船	4
色	4
芭	4
苏	4
英	4
认	4
赤	4
锴	4
阿	4
구	4
노	4
당	4
도	4
두	4
메	4
샹	4
성	4
악	4
용	4
재	4
청	4
츠	4
층	4
케	4
킷	4
	4
	4
	4
	4
	4
	4
	4
🇮	4
🇳	4
🇹	4
🌟	4
🌼	4
🎈	4
🏻	4
🏼	4
💕	4
💞	4
💡	4
💯	4
😍	4
🙋	4
🤖	4
🥇	4
🥰	4
--------	3
----------------	3
/2001	3
/2007	3
/99	3
ACP	3
ATIONS	3
Atlantic	3
Belg	3
Brussels	3
CET	3
COS	3
Community	3
Denmark	3
EASE	3
ECD	3
EIN	3
ENCE	3
Gree	3
HOUT	3
IRON	3
Ireland	3
Israel	3
Italy	3
LINK	3
Rule	3
Russia	3
See	3
abinet	3
actions	3
admium	3
aeda	3
amount	3
anians	3
apital	3
aragu	3
arante	3
arching	3
archy	3
asmus	3
ategic	3
being	3
binding	3
capital	3
ceive	3
cents	3
comfort	3
communication	3
consum	3
dumping	3
econom	3
efe	3
ellect	3
elve	3
embourg	3
enegal	3
eniency	3
ensation	3
enterprise	3
entially	3
entials	3
erally	3
ertain	3
erving	3
external	3
ferent	3
ferential	3
financing	3
first	3
generation	3
ghi	3
gone	3
grass	3
greg	3
grow	3
heast	3
iability	3
iberation	3
iciently	3
idding	3
ificial	3
iful	3
igm	3
iguous	3
ildo	3
iliar	3
imately	3
imbab	3
imension	3
imicro	3
industrial	3
inees	3
iqué	3
isations	3
isive	3
isons	3
ission	3
istrib	3
itably	3
itant	3
ithu	3
ittings	3
kest	3
lamode	3
lantic	3
licate	3
lled	3
loc	3
luding	3
lynn	3
mates	3
minute	3
obah	3
odox	3
odus	3
ogether	3
ographical	3
ointed	3
olesale	3
olios	3
olute	3
ompl	3
ordering	3
ority	3
ounted	3
pared	3
pecially	3
pected	3
pection	3
pectives	3
phur	3
pret	3
pth	3
quiries	3
ractions	3
raud	3
reasing	3
reating	3
redict	3
regulation	3
rehen	3
rehensive	3
remlin	3
rendt	3
reneur	3
retched	3
ronically	3
ropolitan	3
ructive	3
ruits	3
rupulous	3
salm	3
sburg	3
sheets	3
sibility	3
special	3
sych	3
turn	3
uate	3
ulz	3
unication	3
unist	3
upon	3
urable	3
urday	3
ussell	3
ussels	3
ussy	3
value	3
verage	3
yond	3
Å	3
ď	3
ğan	3
į	3
ľ	3
Ł	3
ņ	3
ň	3
ŏ	3
ŭ	3
ű	3
ƃ	3
Ƹ	3
ǁ	3
Ǎ	3
ǔ	3
Ƿ	3
Ȓ	3
ș	3
Ȫ	3
ȱ	3
ȶ	3
Ɏ	3
ɤ	3
ɥ	3
ɨ	3
ʉ	3
ʒ	3
˞	3
˥	3
˼	3
̉	3
̑	3
̖	3
̲	3
̵	3
̶	3
͂	3
͐	3
ͨ	3
ϡ	3
З	3
ј	3
ҡ	3
ӡ	3
Ӥ	3
ӻ	3
Կ	3
Մ	3
ժ	3
յ	3
ս	3
ր	3
֘	3
֤	3
ַ	3
ׂ	3
צ	3
װ	3
می	3
هیم	3
ٌ	3
ټ	3
ڂ	3
چ	3
۽	3
݂	3
ݍ	3
ނ	3
޲	3
ा	3
ि	3
આ	3
ુ	3
ે	3
த	3
ు	3
ං	3
ක	3
ග	3
ස	3
ด	3
ต	3
น	3
บ	3
ล	3
อ	3
ี	3
າ	3
ბ	3
ე	3
თ	3
პ	3
ብ	3
ነ	3
ጠ	3
Ẹ	3
ế	3
ị	3
‹	3
₽	3
∨	3
≡	3
≪	3
⊙	3
⏩	3
▁56)	3
▁5618	3
▁753	3
▁82)	3
▁Admittedly	3
▁Alger	3
▁Alpine	3
▁Although	3
▁Answer	3
▁Approach	3
▁Approval	3
▁Automatic	3
▁BEI	3
▁Babylon	3
▁Basque	3
▁Between	3
▁Blok	3
▁Boliv	3
▁CONS	3
▁COST	3
▁Cain	3
▁Californ	3
▁Christos	3
▁Commun	3
▁Companies	3
▁Concern	3
▁Confed	3
▁Constitution	3
▁Consum	3
▁Corpor	3
▁Criminal	3
▁Cuban	3
▁Cutting	3
▁Decoration	3
▁Defense	3
▁Depression	3
▁Different	3
▁Directive	3
▁Directives	3
▁Discussions	3
▁Does	3
▁Draft	3
▁EBRD	3
▁Efficiency	3
▁Elijah	3
▁Enh	3
▁Environment	3
▁Ethiop	3
▁Explain	3
▁Fear	3
▁Federica	3
▁Few	3
▁Flanders	3
▁Franç	3
▁Further	3
▁GATT	3
▁GNI	3
▁Gazprom	3
▁Gonz	3
▁Gonzalez	3
▁Gospel	3
▁Guid	3
▁Guine	3
▁HYPER	3
▁Heads	3
▁Hung	3
▁Iranian	3
▁Itali	3
▁Judge	3
▁LONDON	3
▁Leader	3
▁Leban	3
▁Left	3
▁Lesb	3
▁Lesbian	3
▁Madeira	3
▁Manufact	3
▁Maybe	3
▁Memor	3
▁Mobility	3
▁Monitoring	3
▁Monterrey	3
▁Much	3
▁Nath	3
▁Nielson	3
▁Opin	3
▁Opportunities	3
▁PAGE	3
▁PART	3
▁PROTECTION	3
▁Perspective	3
▁Poul	3
▁Poverty	3
▁Problems	3
▁Purpose	3
▁Quest	3
▁REG	3
▁Recon	3
▁Remember	3
▁Reports	3
▁Roth	3
▁Rural	3
▁Saddam	3
▁Salaf	3
▁Sanders	3
▁Satan	3
▁Schröder	3
▁Session	3
▁Simply	3
▁Struct	3
▁Sán	3
▁TRADE	3
▁Teach	3
▁Then	3
▁These	3
▁UNDER	3
▁URBAN	3
▁Urush	3
▁VIII	3
▁Venezu	3
▁WHAT	3
▁WORD	3
▁Wallis	3
▁Whether	3
▁Without	3
▁Would	3
▁Yeltsin	3
▁[1.9.16_	3
▁abandonment	3
▁absent	3
▁accent	3
▁accessories	3
▁accountability	3
▁accur	3
▁activity	3
▁addiction	3
▁administration	3
▁admission	3
▁adopt	3
▁advised	3
▁advocating	3
▁aegis	3
▁affect	3
▁ahead	3
▁alle	3
▁allerg	3
▁alliance	3
▁ally	3
▁amid	3
▁annex	3
▁anniversary	3
▁appears	3
▁appra	3
▁appropriations	3
▁aren	3
▁arrived	3
▁asp	3
▁aspir	3
▁assemb	3
▁aster	3
▁astray	3
▁asymmet	3
▁attract	3
▁availability	3
▁aver	3
▁aviation	3
▁aware	3
▁axes	3
▁bacteria	3
▁banning	3
▁barrier	3
▁basket	3
▁became	3
▁bee	3
▁begins	3
▁benef	3
▁benefic	3
▁beneficiary	3
▁bets	3
▁bias	3
▁biggest	3
▁binding	3
▁bird	3
▁blocking	3
▁bound	3
▁bran	3
▁briefing	3
▁brill	3
▁bring	3
▁brought	3
▁campaign	3
▁carcinogenic	3
▁certificates	3
▁challenges	3
▁changeover	3
▁chooses	3
▁cigare	3
▁circle	3
▁circles	3
▁citizen	3
▁civil	3
▁clim	3
▁clock	3
▁codes	3
▁coexistence	3
▁coff	3
▁colors	3
▁comfort	3
▁commands	3
▁communicating	3
▁communication	3
▁compan	3
▁compared	3
▁compatibility	3
▁compe	3
▁compet	3
▁complied	3
▁compliment	3
▁component	3
▁comprehensible	3
▁compromising	3
▁concur	3
▁confirmed	3
▁conflic	3
▁confusing	3
▁congrat	3
▁connecting	3
▁conqu	3
▁consid	3
▁consp	3
▁construction	3
▁consumption	3
▁contempl	3
▁contentious	3
▁continuing	3
▁continuously	3
▁convenient	3
▁converter	3
▁cooperation	3
▁cosmetic	3
▁costs	3
▁cour	3
▁crisis	3
▁crow	3
▁crowds	3
▁crown	3
▁culturally	3
▁cyn	3
▁dawn	3
▁deadlock	3
▁deaf	3
▁deep	3
▁defence	3
▁deficit	3
▁definitely	3
▁demag	3
▁demanding	3
▁dense	3
▁density	3
▁department	3
▁designate	3
▁desires	3
▁deteriorate	3
▁deteriorated	3
▁developing	3
▁diamond	3
▁died	3
▁dimension	3
▁directly	3
▁disadvantaged	3
▁discount	3
▁discover	3
▁dise	3
▁divers	3
▁drain	3
▁drift	3
▁drug	3
▁due	3
▁earlier	3
▁easier	3
▁east	3
▁echo	3
▁effective	3
▁efforts	3
▁emphatically	3
▁empty	3
▁enable	3
▁endless	3
▁endorse	3
▁enforcement	3
▁entertain	3
▁entire	3
▁entitlement	3
▁entity	3
▁entrepreneur	3
▁environment	3
▁epis	3
▁especially	3
▁essential	3
▁eternal	3
▁everything	3
▁evil	3
▁exaggerated	3
▁execution	3
▁exh	3
▁exhort	3
▁expect	3
▁exper	3
▁explain	3
▁explore	3
▁export	3
▁extrad	3
▁extrem	3
▁faster	3
▁father	3
▁favour	3
▁feelings	3
▁female	3
▁figur	3
▁fleets	3
▁flesh	3
▁fluid	3
▁focus	3
▁following	3
▁foodstuffs	3
▁football	3
▁formation	3
▁founder	3
▁frag	3
▁frankly	3
▁functions	3
▁fundamentally	3
▁furthering	3
▁gain	3
▁gap	3
▁generator	3
▁geographic	3
▁geopolitical	3
▁giants	3
▁glob	3
▁grain	3
▁greener	3
▁grids	3
▁groups	3
▁growing	3
▁guid	3
▁habit	3
▁happy	3
▁harmonization	3
▁haven	3
▁healthy	3
▁heard	3
▁hearts	3
▁hect	3
▁hectares	3
▁heightened	3
▁hiding	3
▁hig	3
▁highest	3
▁highly	3
▁hire	3
▁hiring	3
▁historic	3
▁historical	3
▁hope	3
▁horses	3
▁hospital	3
▁ide	3
▁immediate	3
▁impede	3
▁importance	3
▁incap	3
▁included	3
▁incorporated	3
▁incorrect	3
▁increasing	3
▁indirect	3
▁individ	3
▁indu	3
▁indust	3
▁infection	3
▁influenza	3
▁informed	3
▁infringe	3
▁insert	3
▁inspiring	3
▁intensification	3
▁intensifying	3
▁interactive	3
▁interde	3
▁interference	3
▁internationally	3
▁interregional	3
▁invalid	3
▁invol	3
▁irrespon	3
▁issued	3
▁jeopard	3
▁journey	3
▁kilomet	3
▁kingdom	3
▁knew	3
▁knowing	3
▁knowledge	3
▁lagging	3
▁laid	3
▁later	3
▁laure	3
▁leading	3
▁liber	3
▁lift	3
▁limited	3
▁lingu	3
▁linked	3
▁lion	3
▁lobb	3
▁loop	3
▁lose	3
▁losing	3
▁lots	3
▁loud	3
▁magic	3
▁magung	3
▁malaria	3
▁manage	3
▁marginal	3
▁markets	3
▁meet	3
▁mention	3
▁mesh	3
▁methodology	3
▁migratory	3
▁mining	3
▁mism	3
▁modify	3
▁monopol	3
▁necessary	3
▁nerv	3
▁nine	3
▁notified	3
▁nuclear	3
▁objectives	3
▁observ	3
▁offered	3
▁once	3
▁opened	3
▁opport	3
▁oral	3
▁organisation	3
▁outdated	3
▁output	3
▁overla	3
▁overlaps	3
▁overt	3
▁packages	3
▁paint	3
▁parad	3
▁paragraph	3
▁parent	3
▁paris	3
▁particular	3
▁partisan	3
▁partition	3
▁pending	3
▁percent	3
▁perpet	3
▁pert	3
▁pertinent	3
▁phased	3
▁philosoph	3
▁physical	3
▁plausible	3
▁plot	3
▁plumm	3
▁policy	3
▁political	3
▁politics	3
▁population	3
▁positive	3
▁practice	3
▁precedence	3
▁preconditions	3
▁pregnancy	3
▁premiums	3
▁president	3
▁pressures	3
▁pretty	3
▁preventative	3
▁primarily	3
▁principle	3
▁privat	3
▁probably	3
▁procedure	3
▁proclaim	3
▁programs	3
▁progressing	3
▁prohib	3
▁promise	3
▁promotion	3
▁prompted	3
▁prosper	3
▁protected	3
▁providing	3
▁pull	3
▁quarterly	3
▁questionn	3
▁quiet	3
▁rather	3
▁reach	3
▁reactors	3
▁reality	3
▁reasonable	3
▁recently	3
▁recognition	3
▁recognized	3
▁rede	3
▁redef	3
▁referen	3
▁referendum	3
▁refugees	3
▁regain	3
▁regions	3
▁reimbursement	3
▁reinfor	3
▁reinforce	3
▁released	3
▁relent	3
▁relief	3
▁remain	3
▁remarkably	3
▁rememb	3
▁repe	3
▁reports	3
▁representations	3
▁requirement	3
▁requires	3
▁rescue	3
▁reservation	3
▁resol	3
▁response	3
▁resur	3
▁retains	3
▁return	3
▁returns	3
▁ride	3
▁rightful	3
▁rolling	3
▁rounds	3
▁routes	3
▁rul	3
▁sacr	3
▁sacrifices	3
▁safety	3
▁salary	3
▁sanitary	3
▁scandals	3
▁sche	3
▁scratch	3
▁sea	3
▁sections	3
▁segment	3
▁segreg	3
▁selecting	3
▁semi	3
▁sense	3
▁sensitivity	3
▁seriously	3
▁setting	3
▁sexual	3
▁shipment	3
▁shortfall	3
▁shoulder	3
▁shout	3
▁slip	3
▁sort	3
▁south	3
▁spectacular	3
▁spirit	3
▁staggering	3
▁standards	3
▁started	3
▁stations	3
▁stim	3
▁stockp	3
▁stones	3
▁storage	3
▁stricter	3
▁structures	3
▁studies	3
▁stup	3
▁submit	3
▁substantial	3
▁substit	3
▁success	3
▁suits	3
▁superpower	3
▁suppos	3
▁supr	3
▁surpass	3
▁suspension	3
▁symb	3
▁sympath	3
▁synergies	3
▁synthesis	3
▁tablets	3
▁teacher	3
▁tear	3
▁technologies	3
▁teeth	3
▁television	3
▁termination	3
▁testing	3
▁tests	3
▁theore	3
▁theory	3
▁therapy	3
▁thing	3
▁thorn	3
▁thous	3
▁thus	3
▁timetables	3
▁tiny	3
▁tissue	3
▁tonnes	3
▁totally	3
▁tourists	3
▁towns	3
▁toy	3
▁trace	3
▁traders	3
▁tradition	3
▁translated	3
▁truth	3
▁turning	3
▁umb	3
▁undec	3
▁underestimated	3
▁understanding	3
▁undes	3
▁une	3
▁unilateral	3
▁universal	3
▁unnecessarily	3
▁vacuum	3
▁valley	3
▁variety	3
▁ves	3
▁village	3
▁visible	3
▁vital	3
▁vitamin	3
▁void	3
▁voltage	3
▁wealth	3
▁whether	3
▁wines	3
▁winning	3
▁workshop	3
▁writing	3
▁اسلام	3
▁ان	3
▁قر	3
♬	3
⚠	3
✮	3
➵	3
⬇	3
々	3
き	3
け	3
こ	3
で	3
ば	3
め	3
ら	3
れ	3
ォ	3
セ	3
ネ	3
ハ	3
ベ	3
下	3
世	3
主	3
之	3
事	3
五	3
伊	3
休	3
会	3
元	3
光	3
八	3
出	3
切	3
力	3
升	3
原	3
司	3
嘉	3
场	3
坂	3
塔	3
塞	3
壇	3
天	3
奥	3
宝	3
家	3
寓	3
展	3
岸	3
幕	3
影	3
德	3
性	3
总	3
意	3
戒	3
接	3
昌	3
最	3
期	3
木	3
枡	3
梨	3
河	3
洞	3
浦	3
温	3
湖	3
火	3
灯	3
熊	3
爺	3
片	3
球	3
生	3
界	3
真	3
码	3
称	3
空	3
第	3
管	3
節	3
系	3
耳	3
胸	3
节	3
芙	3
茻	3
表	3
要	3
観	3
證	3
責	3
貸	3
資	3
輪	3
边	3
迅	3
运	3
造	3
達	3
采	3
钩	3
青	3
鞍	3
韓	3
香	3
験	3
麻	3
ꞌ	3
가	3
겁	3
게	3
그	3
냉	3
대	3
러	3
면	3
박	3
븐	3
쉬	3
와	3
원	3
작	3
중	3
쥯	3
질	3
천	3
치	3
친	3
폴	3
프	3
혜	3
후	3
	3
	3
	3
🇵	3
🇸	3
🌞	3
🌻	3
🌾	3
🌿	3
🎊	3
🏾	3
🐭	3
👯	3
😃	3
😴	3
🙌	3
🙏	3
🚀	3
🤚	3
🤲	3
🥂	3
🥺	3
🧸	3
񍐂	3
-2013.	2
/13/	2
/2003	2
86;	2
Belgium	2
Converter	2
DUC	2
ECU	2
EPP	2
ERR	2
ESCO	2
French	2
Govern	2
Government	2
HCR	2
IBLE	2
ICATIONS	2
ISES	2
ITION	2
ONOM	2
PAR	2
POL	2
Palest	2
Presse	2
Regional	2
SIS	2
TED	2
Toc	2
URAL	2
adays	2
adjust	2
adows	2
agraph	2
aics	2
ainless	2
ainted	2
aired	2
ajevo	2
alio	2
alued	2
ancies	2
apest	2
arent	2
arily	2
aside	2
astern	2
asure	2
atellite	2
ateral	2
aunch	2
bean	2
both	2
burse	2
ceed	2
ceptive	2
chargeable	2
child	2
cive	2
cked	2
committee	2
compass	2
conditions	2
connected	2
conom	2
conomic	2
consult	2
credit	2
dden	2
dict	2
droit	2
earns	2
ecks	2
elsinki	2
energy	2
ensed	2
enth	2
especially	2
essor	2
ethnic	2
europa	2
euv	2
father	2
firm	2
forcement	2
formal	2
forth	2
frastructure	2
funding	2
giv	2
gments	2
going	2
government	2
hearted	2
heid	2
henburg	2
hering	2
holding	2
human	2
identally	2
idential	2
iety	2
ieved	2
ifference	2
ighb	2
ighbour	2
ighty	2
igrant	2
ilateral	2
iliation	2
ilings	2
imination	2
inburgh	2
inihin	2
initiative	2
insurance	2
iox	2
iracy	2
iscrimination	2
issible	2
khaz	2
lades	2
lared	2
lies	2
lims	2
looking	2
mare	2
merg	2
names	2
national	2
nesty	2
norm	2
ocational	2
occup	2
ocrates	2
ogas	2
olio	2
ologna	2
opher	2
opoulou	2
orious	2
ospital	2
otted	2
ourable	2
outhern	2
owned	2
pire	2
pite	2
ployment	2
poses	2
prises	2
quarters	2
rants	2
rapeut	2
reedom	2
respect	2
risk	2
roductive	2
roots	2
rought	2
rovers	2
ruary	2
selt	2
sequ	2
sess	2
sidered	2
stantial	2
stedt	2
suff	2
taking	2
tega	2
terest	2
ternoon	2
though	2
tical	2
truct	2
udget	2
ularly	2
ulling	2
undering	2
unities	2
urches	2
ursday	2
ustration	2
ustria	2
uwatsu	2
vised	2
wage	2
wealth	2
whel	2
withstanding	2
worthiness	2
	2
	2
	2
	2
änder	2
éndez	2
Ć	2
Ď	2
Ē	2
Ė	2
Ğ	2
ġ	2
Ī	2
ķ	2
ĸ	2
Ĺ	2
Ř	2
Ţ	2
Ŷ	2
Ƌ	2
ƌ	2
Ɩ	2
ƽ	2
ǐ	2
ǡ	2
ǣ	2
ǧ	2
ǵ	2
ȃ	2
Ș	2
ȥ	2
ȵ	2
ȷ	2
Ⱥ	2
Ɋ	2
ɍ	2
ɡ	2
ɦ	2
ʑ	2
ʮ	2
ˎ	2
ˮ	2
˾	2
̐	2
̘	2
̙	2
͉	2
͌	2
΂	2
Ί	2
Θ	2
ξ	2
ψ	2
ϋ	2
ώ	2
Ё	2
Ѕ	2
Э	2
ъ	2
є	2
Ѫ	2
Ѵ	2
ѹ	2
ҧ	2
Ҳ	2
ә	2
Ӫ	2
ӵ	2
ӹ	2
Ե	2
Ի	2
Հ	2
Ն	2
Ս	2
Տ	2
բ	2
հ	2
մ	2
֕	2
ְ	2
ּ	2
ח	2
ץ	2
׵	2
ؕ	2
؛	2
شه	2
ؽ	2
٠	2
ٹ	2
ڕ	2
ھ	2
۝	2
ܡ	2
ܤ	2
ܰ	2
޹	2
द	2
र	2
ह	2
ঔ	2
ক	2
ত	2
া	2
ৣ	2
ં	2
ગ	2
જ	2
બ	2
ય	2
લ	2
હ	2
ૌ	2
ம	2
ழ	2
ி	2
క	2
మ	2
ನ	2
බ	2
හ	2
ැ	2
ි	2
ก	2
ง	2
ภ	2
ม	2
ษ	2
ห	2
ฯ	2
ไ	2
็	2
༒	2
မ	2
ာ	2
ლ	2
ტ	2
უ	2
ქ	2
ሰ	2
ስ	2
ት	2
ា	2
ḩ	2
ẖ	2
ễ	2
ở	2
‚	2
‛	2
‫	2
‭	2
₪	2
₺	2
₼	2
⃣	2
↘	2
∇	2
⌂	2
▁%,	2
▁0.7%	2
▁2000-200	2
▁21000	2
▁53)	2
▁61)	2
▁ACP	2
▁ACTION	2
▁According	2
▁Across	2
▁Afghan	2
▁Agencies	2
▁Agenda	2
▁Already	2
▁Areas	2
▁Article	2
▁Asse	2
▁Audit	2
▁Balkans	2
▁Barro	2
▁Before	2
▁Both	2
▁CONT	2
▁Cabinet	2
▁Candidate	2
▁Cashman	2
▁Christians	2
▁Coelho	2
▁Colle	2
▁Come	2
▁Commenting	2
▁Compet	2
▁Conditions	2
▁Confederation	2
▁Consider	2
▁Consultative	2
▁Contract	2
▁Corinth	2
▁Countries	2
▁Croat	2
▁Customized	2
▁DEBAT	2
▁Decision	2
▁Deut	2
▁Devil	2
▁Dialogue	2
▁Dimitri	2
▁Dise	2
▁Due	2
▁During	2
▁ECA	2
▁ECONOM	2
▁ECR	2
▁EPP	2
▁EURO	2
▁Each	2
▁Election	2
▁Employment	2
▁Enrico	2
▁Equal	2
▁Especially	2
▁Estonian	2
▁Ethics	2
▁Euros	2
▁Eurostat	2
▁FISCH	2
▁FOL	2
▁Flemish	2
▁Fontaine	2
▁Formal	2
▁Fü	2
▁GER	2
▁Genesis	2
▁Gentlemen	2
▁Georgieva	2
▁González	2
▁Gree	2
▁Greece	2
▁Habit	2
▁Hahn	2
▁Happ	2
▁Husse	2
▁ICES	2
▁IGC	2
▁Immigration	2
▁Important	2
▁Improve	2
▁Industr	2
▁Institutions	2
▁Intelligent	2
▁Italians	2
▁JUSTICE	2
▁Jarz	2
▁Jiji	2
▁Juncker	2
▁Kazakh	2
▁Knowing	2
▁Langu	2
▁Latv	2
▁Liver	2
▁Maastricht	2
▁Maghreb	2
▁Mediterranean	2
▁Memorandum	2
▁Mercosur	2
▁Move	2
▁NGOs	2
▁Nathalie	2
▁Notice	2
▁Occup	2
▁Once	2
▁Orb	2
▁Organisations	2
▁Ossetia	2
▁PCA	2
▁PNR	2
▁POLICY	2
▁PRES	2
▁PROCESS	2
▁Palest	2
▁Peninsula	2
▁Pharaoh	2
▁Poet	2
▁Poles	2
▁Pope	2
▁Qaeda	2
▁Question	2
▁REPORT	2
▁Radical	2
▁Really	2
▁Regulations	2
▁Releases	2
▁Representative	2
▁Respect	2
▁Roadmap	2
▁Rules	2
▁SECUR	2
▁SOCIAL	2
▁Schulz	2
▁Scots	2
▁Section	2
▁Sett	2
▁Something	2
▁Structural	2
▁Superv	2
▁Supreme	2
▁Syndicate	2
▁Syr	2
▁THAT	2
▁THIS	2
▁TRIP	2
▁TSE	2
▁Tariff	2
▁Temporary	2
▁Thus	2
▁Timor	2
▁Transpa	2
▁Turkmen	2
▁UNHCR	2
▁Using	2
▁VAN	2
▁Veterinary	2
▁Viet	2
▁Wallström	2
▁Waste	2
▁Whats	2
▁Which	2
▁While	2
▁Within	2
▁Yugoslav	2
▁Zeal	2
▁[1.9.16_115	2
▁ability	2
▁abolition	2
▁absolute	2
▁absorption	2
▁absurd	2
▁abundant	2
▁accorded	2
▁accounts	2
▁accred	2
▁accredited	2
▁achieve	2
▁acquisition	2
▁actors	2
▁added	2
▁adequacy	2
▁adherence	2
▁adjustments	2
▁admit	2
▁admon	2
▁adoles	2
▁adopting	2
▁advant	2
▁advisory	2
▁affordable	2
▁aftermath	2
▁agents	2
▁aging	2
▁agree	2
▁agreed	2
▁aimed	2
▁airports	2
▁alarm	2
▁alloc	2
▁allocating	2
▁alter	2
▁alternative	2
▁ambiguous	2
▁ammunition	2
▁amounts	2
▁ancient	2
▁angel	2
▁angels	2
▁annexed	2
▁annual	2
▁ante	2
▁anx	2
▁anywhere	2
▁appe	2
▁applies	2
▁applying	2
▁approach	2
▁approved	2
▁approximately	2
▁arbitr	2
▁argument	2
▁arma	2
▁array	2
▁arrest	2
▁assesses	2
▁assigned	2
▁assume	2
▁assured	2
▁attach	2
▁attribute	2
▁auspices	2
▁austerity	2
▁authority	2
▁automobile	2
▁autumn	2
▁aven	2
▁babies	2
▁bankruptcy	2
▁bathing	2
▁beer	2
▁behaviour	2
▁behind	2
▁believe	2
▁believes	2
▁belong	2
▁benchmarking	2
▁benefits	2
▁billions	2
[...]
